#ifndef WT_H
#define WT_H

// Model weights
#define LAYER_0_WT { -2.625, -0.6875, 1.3125, 1, -1.4375, 2.25, 1.0625, -0.0625, 0.625, 0.3125, 1.0625, 0.0625, 0.5625, 0.5, -0.5625, -0.5, -0.5, -3.1875, 0.125, -0.25, -1.625, -0.5625, -2.25, 3.625, 1.75, 1.375, 0.25, 1.6875, 0.1875, 0.1875, 0.75, 0.4375, 0.25, 0.625, 0.375, 0.75, 0.0625, -0.125, -1.875, -2.375, -0.625, 1.625, -2, -0.875, 0.625, 0.375, -0.5625, 1.1875, 2.875, -0.375, -1.5, -1.5, 0.75, -1.5, 4.6875, 0.4375, 0.5625, -0.375, 2.875, -0.375, -3.5, 0.4375, 4.3125, 4.125, 0.25, 1.875, 3.1875, 1.5, -1.1875, -0.75, 0.3125, -2.25, -0.1875, -0.3125, 0.5, 1.625, 0.5, -0.5625, -1, 1, -0.75, -0.8125, -0.6875, -4.8125, -2, -1.0625, 0.6875, 0.6875, -0.375, 4, 1.4375, 0.3125, -0.4375, -0.3125, 1.5625, -1.875, 2.1875, 1.5, 0.8125, 1, 0.5625, 0.4375, -2.5, -1.3125, -0.4375, 0.25, -1.1875, 0.3125, 0, 1.8125, -0.875, -0.875, -0.375, -4.75, 0.6875, 0.9375, -2.125, -1.625, -3.75, 4.0625, 3.125, 0.0625, 0.8125, -0.5, 1.3125, -0.25, -1.5, -0.5625, -0.5625, -0.375, -0.6875, -1.625, -1.9375, 0.4375, -0.5, -0.25, -0.8125, -0.5, 0.9375, 0.625, -0.9375, -0.25, -1.0625, -1.75, -1.1875, 1.3125, 0.4375, 0.9375, -1.6875, -1.375, 0.9375, 0.125, -1.4375, -1.375, -0.4375, 2.5625, -1.3125, 1.25, 0, -0.75, -1.25, -2.875, 2.8125, 1.6875, 0.875, 0.9375, 0.8125, 0.5, 2.75, 0.375, -0.25, 1.375, 1.1875, -0.5, -0.75, 0.5, -0.625, -1.1875, -0.125, -4.5625, 0.125, 1.4375, -0.0625, -0.5, -0.25, -2, 1.75, 0.1875, -0.25, -1.125, 1.3125, 0.6875, -0.375, -0.0625, -0.0625, 1.25, 0.25, -0.0625, 1.3125, 0.4375, 0.0625, 0.3125, 1.125, 0.4375, -0.6875, -1.125, 0.9375, 0.25, 0.125, 2.0625, 1.3125, -0.0625, 1.125, 0.1875, 1.125, 1.125, -1.6875, 1.0625, -0.75, -0.0625, -1.8125, -0.9375, 4.1875, 1.625, -0.5, -2.0625, 1.25, 2, 2.375, 1.375, -0.6875, 0.25, 0.25, -3.1875, 2.1875, 0.0625, -0.125, 0.0625, 1.375, -0.6875 }
#define LAYER_1_WT { 0.21875, 0.125, 0.15625, -0.125, 0.1875, 0.1875, -0.03125, 0.1875, 0.125, -0.03125, 0.3125, 0.28125, -0.34375, 0.21875, -0.375, 0.03125, -0.25, 0.125, 0.34375, -0.0625, 0.125, 0, 0.03125, 0.3125, 0.03125, 0.0625, 0.34375, 0.1875, -0.25, -0.09375, -0.0625, -0.09375, 0.1875, -0.25, -0.34375, 0.1875, 0, -0.09375, 0.1875, 0.125, -0.78125, -0.25, 0.625, -0.53125, 0.09375, -0.125, 0.71875, -0.375, 0.0625, -0.09375, 0.53125, 0.3125, -0.3125, 0.90625, -0.71875, 0.375, 0.28125, -0.21875, 0.9375, -0.96875, 0.15625, 0.03125, 0.28125, 0.21875, -0.15625, -0.375, 0.3125, 0.34375, -0.21875, 0.6875, -0.03125, 0.28125, -0.3125, 0.1875, -0.53125, -0.40625, 0.28125, 0.1875, 0.40625, -0.09375, -0.03125, -0.0625, 0.1875, -0.5, 0.15625, -0.25, 0.28125, -0.0625, 0.28125, 0, 0.46875, 0, -0.09375, 0.40625, -0.125, 0.03125, 0.1875, -0.34375, 0.46875, -0.0625, -0.03125, 0.03125, 0.03125, -0.09375, -0.0625, -0.3125, 0.4375, -0.0625, -0.15625, 0.09375, 0.25, 0.03125, -0.375, 0.1875, 0.125, -0.3125, 0.09375, -0.0625, 0, 0.125, 0.78125, -0.09375, -0.78125, 0.875, -0.21875, 0.09375, 0.3125, 0.46875, -0.8125, -0.59375, 1.125, -0.875, -0.15625, -0.84375, 1.15625, -0.46875, -0.125, 0.25, -1.09375, 1.4375, -0.375, -0.21875, 0.15625, -0.59375, -0.25, 0.46875, -0.4375, -0.15625, -0.4375, -0.84375, -0.4375, 0.0625, 0, 0.03125, 0.53125, 0.1875, 0.03125, 0.5625, -0.96875, -0.34375, -0.0625, -0.3125, 0.125, -0.25, -0.5, -0.34375, 0.6875, -0.21875, -0.15625, 0.0625, 0.75, -0.25, -0.34375, 0, 0.125, -0.09375, -0.4375, -0.0625, 0.25, -0.3125, -0.21875, 0.125, 0.3125, -0.15625, -0.09375, 0.15625, 0, 0.09375, -0.40625, 0.15625, 0.34375, 0.1875, -0.28125, 0.125, 0.0625, 0.03125, 0.09375, 0.34375, -0.21875, 0.125, 0.1875, -0.125, 0.09375, -0.09375, 0.15625, 0, 0, 0.125, -0.03125, 0.03125, -0.1875, -0.1875, 0.15625, -0.1875, -0.03125, -0.25, -0.0625, 0.15625, -0.15625, 0.3125, 0.21875, 0.3125, -0.03125, 0.1875, -0.25, -0.09375, -0.21875, -0.3125, 0.3125, -0.0625, -0.3125, -0.3125, 0.1875, 0.21875, -0.09375, 0.15625, -0.125, 0.25, 0.1875, -0.09375, 0.25, -0.28125, 0.0625, -0.09375, 0.15625, -0.21875, 0.25, 0.125, -0.0625, -0.09375, -0.1875, -0.1875, -0.25, -0.21875, 0.125, 0.15625, 0.09375, 0.0625, -0.03125, -0.15625, 0.03125, 0.03125, -0.25, 0.125, -0.21875, 0.09375, 0.15625, 0.09375, 0.09375, 0.125, 0.03125, 0.15625, 0.125, -0.125, -0.28125, 0, 0.03125, 0, 0.21875, 0.0625, 0.1875, 0.15625, -0.0625, -0.1875, 0.09375, -0.09375, 0.1875, -0.03125, -0.0625, 0.0625, 0.03125, 0.25, -0.0625, -0.125, 0.03125, -0.15625, -0.28125, -0.15625, 0.03125, -0.25, -0.03125, -0.25, -0.21875, 0.09375, 0.1875, 0.21875, 0.3125, 0.3125, -0.34375, 0.34375, -0.125, -0.125, -0.21875, 0.0625, -0.3125, 0.1875, 0.09375, -0.1875, 0.28125, -0.09375, 0.25, 0, 0.46875, -0.875, 0.25, 0, -0.8125, -0.03125, -0.71875, -0.1875, 2.84375, 0.125, 0.21875, 0.8125, -0.4375, 0.15625, 0.21875, -0.1875, 0.875, -0.46875, -0.15625, 0.21875, 0.1875, 0.125, 0.84375, -0.75, 0.78125, 0.09375, -0.03125, 0.65625, 0.59375, -0.34375, 0.15625, -0.0625, -0.28125, -0.0625, 0.375, -0.84375, 0.46875, -0.15625, -0.03125, -0.65625, 0.6875, 0.1875, -0.53125, -0.5, 1.78125, 0, -0.3125, -1.0625, 1.28125, -0.125, -0.6875, 1.3125, -0.40625, 0.09375, -0.53125, 0.625, 1.0625, -0.09375, -0.6875, 0.53125, 0.65625, 0.5, 0.34375, -0.375, 0.65625, -0.625, -0.78125, 0.96875, 0.1875, -0.15625, -0.1875, -0.53125, -0.25, -0.84375, 0.8125, -0.78125, 0.25, -0.1875, -0.15625, -0.28125, 0.25, -0.25, -0.21875, 0.15625, -0.15625, 0.09375, 0.15625, 0.1875, 0.03125, 0.125, 0.0625, 0.1875, 0, -0.25, -0.125, 0.15625, -0.15625, 0.09375, 0, 0.03125, 0.21875, -0.125, 0.21875, 0.0625, 0.09375, 0, 0.03125, 0.03125, 0.0625, 0.09375, 0.1875, 0.15625, 0.21875, 0.0625, -0.25, 0.09375, -0.03125, -0.03125, -0.1875, 0.21875, -0.03125, 0.15625, 0.28125, 0.15625, -0.40625, 0.3125, 0.1875, -0.0625, -0.5625, -0.1875, 0.28125, 0.09375, 0.09375, -0.21875, -0.21875, 0.1875, -0.34375, 0.0625, 0.25, 0.03125, -0.09375, 0, -0.0625, 0, -0.125, 0.25, 0.125, -0.21875, -0.125, 0.03125, -0.09375, 0.125, 0.375, 0.09375, -0.09375, 0.15625, -0.09375, 0.21875, -0.8125, 0.125, 0.4375, -0.5, -0.25, -0.21875, -0.46875, -0.375, 1.28125, 1.46875, -2.0625, 0.90625, -0.21875, 0.21875, -0.8125, 0.375, 0.15625, -0.5625, 0.34375, -0.71875, 0.875, -0.09375, -0.3125, 0.625, -0.25, -0.125, 0, -0.0625, 0.5, 0.3125, 0.5, 0.40625, -0.25, 0.125, -0.25, 0.59375, -0.375, -0.625, 0.6875, 0.40625, -0.625, -0.0625, 0.5, -1.1875, -0.3125, -0.40625, -0.96875, 0.03125, 0.375, -0.625, 0.28125, 0, 0.65625, 1.0625, -0.625, 0.125, -0.59375, 0.59375, 0.71875, -1.96875, -0.40625, 0.71875, 0.40625, 0.1875, 0.25, -1.09375, 0.625, -0.78125, -0.125, 1.1875, 0.28125, -0.5625, 0.28125, -0.4375, -0.34375, -0.40625, 0.21875, -1.375, 0.46875, -0.09375, -0.125, -0.3125, 0.1875, -0.3125, -1.28125, -0.46875, 0.375, 0.34375, 0.21875, -0.5625, 0.0625, -0.25, -0.40625, 0.8125, 0.09375, 0.3125, -1.15625, 0.5625, 0.3125, -0.59375, -0.4375, 0.65625, 0.34375, 0, -0.59375, -0.21875, 0.25, -1.03125, -0.9375, 1.0625, 0.09375, 0.09375, -0.15625, -0.25, 0.1875, -0.59375, 0.25, -0.5, -0.34375, -0.09375, 0.53125, 0.09375, 0.09375, -0.0625, 0.03125, -0.03125, -0.1875, 0.15625, -0.375, -0.65625, 0.0625, -0.4375, 0.25, 0.28125, 0.0625, -0.46875, -0.28125, 0.25, 0.125, -0.375, -0.1875, 0.21875, 0.0625, 0.15625, 0.0625, -0.21875, -0.0625, -0.375, -0.25, -0.0625, 0.03125, -0.5625, -0.125, 0.03125, -0.09375, -0.1875, 0.4375, -0.71875, 0.09375, -0.40625, -0.0625, -0.09375, -0.03125, 0, 0.09375, 0.25, -0.15625, 0.15625, -0.15625, 0.1875, -0.25, -0.3125, 0.125, -0.25, 0.28125, -0.21875, -0.09375, 0.15625, -0.1875, 0.28125, -0.15625, 0.3125, 0, -0.09375, -0.15625, 0.15625, -0.09375, 0.0625, 0.25, 0.15625, -0.28125, 0.15625, -0.125, 0.15625, 0.375, -0.09375, 0, 0.03125, 0.1875, -0.1875, 0.09375, -0.28125, 0.0625, -0.0625, 0.1875, -0.0625, -0.21875, -0.21875, -0.03125, -0.125, -0.0625, -0.21875, -0.3125, 0.03125, 0.15625, 0, 0.25, 0.03125, -0.21875, 0.15625, -0.25, -0.1875, 0.0625, -0.1875, 0.03125, -0.125, -0.125, 0, 0.125, 0.15625, 0.25, 0.0625, -0.0625, -0.25, -0.15625, 0.1875, 0, 0.21875, 0.03125, 0.125, 0.15625, 0.28125, -0.15625, -0.0625, 0.15625, -0.09375, -0.21875, 0.09375, -0.1875, 0.21875, -0.375, -0.1875, 0.34375, -0.34375, 0.15625, -0.21875, -0.1875, 0.25, -0.34375, 0.40625, -0.09375, -0.03125, 0.125, 0.125, -0.03125, -0.09375, -0.34375, -0.1875, 0.09375, -0.21875, -0.03125, 0.125, 0.1875, -0.1875, 0.125, 0, 0.09375, 0.25, -0.21875, -0.21875, -0.59375, -0.40625, -0.125, 1.125, 0.15625, 0.1875, 0.75, -0.3125, 0.53125, -0.34375, -1.3125, 0.78125, -0.28125, -0.25, -0.3125, -0.1875, 0.15625, -0.21875, 0.25, 2.0625, -0.3125, -0.0625, 0.125, 0.9375, -0.0625, 0.90625, 0.3125, 0.46875, 0.34375, 0, 0.34375, 0.125, -0.3125, 0.0625, -0.625, -0.46875, 0.75, 0.375, 0.125, -0.03125, -0.25, -0.25, -0.25, 0.0625, 0.21875, 0.25, 0.1875, -0.03125, 0.0625, 0.21875, 0.25, 0.0625, 0.0625, -0.0625, -0.25, -0.21875, -0.15625, 0.09375, 0.15625, 0.09375, -0.1875, 0.28125, -0.21875, 0.0625, -0.03125, -0.09375, -0.25, 0.125, -0.0625, -0.21875, 0.15625, 0.1875, 0.28125, -0.21875, 0.03125, 0.25, 0, 0.1875, -0.125, -0.15625, -0.0625, -0.09375, 0.71875, -0.6875, -0.25, -0.28125, 0.5625, -0.03125, -0.1875, -0.15625, 0.75, 0.375, -0.40625, 1.1875, -0.6875, 0.09375, -0.09375, -0.125, 1.125, -0.46875, 0.03125, 0.3125, 0, 0.53125, 0.59375, -0.5, 0.78125, 0.1875, -0.4375, 0.75, 0.625, 0.03125, -0.3125, -0.03125, -0.28125, -0.09375, 0.78125, 0.0625, 0.53125, 0.03125, 0.40625, -0.5625, 0.25, -0.375, -1.6875, -0.59375, 0.5, 0.625, 0.28125, -1.34375, -0.65625, -0.9375, -0.125, 0.625, 0.28125, -0.15625, -1.8125, 1.03125, 0.03125, -1.3125, -0.65625, 0.96875, 0.34375, -0.125, -0.625, -0.40625, 0.1875, -1.90625, -1.1875, 0.90625, -0.34375, -0.1875, -0.25, -0.53125, 0.25, -0.875, 0.28125, -2.28125, -0.78125, -0.5, 0, -0.0625, 0, 0.125, 0.34375, -0.125, -0.15625, 0.09375, 0.1875, 0.28125, -0.5, -0.0625, 0.4375, -0.125, 0.09375, 0.09375, 0.0625, 0.03125, -0.28125, 0.34375, -0.21875, 0.25, -0.125, -0.34375, 0.3125, 0.25, -0.3125, -0.09375, 0.125, -0.28125, -0.03125, -0.21875, 0.03125, -0.15625, 0.15625, 0, -0.15625, 0.125, -0.125, 0, 0, -0.125, -0.03125, 0.25, 0.25, -0.0625, 0.03125, 0.09375, -0.0625, 0.28125, 0.03125, 0.21875, 0.09375, 0, -0.21875, 0.25, 0.0625, 0.125, 0.15625, -0.125, -0.0625, 0.25, 0.15625, -0.09375, 0.1875, -0.0625, 0, -0.125, 0.25, -0.28125, -0.3125, 0.09375, 0.15625, -0.21875, 0, 0.03125, -0.03125, -0.15625, -0.21875, 0.125, -0.21875, -0.125, 0.28125, -0.15625, 0.09375, 0.1875, 0.21875, 0, -0.125, 0.125, 0.5625, -0.09375, -0.03125, 0.40625, -0.4375, -0.09375, 0, 0, 0.4375, 0.03125, -0.21875, -0.0625, 0.1875, 0.34375, 0.125, 0.125, 0.3125, -0.03125, 0.0625, 0.34375, 0.375, -0.21875, -0.1875, -0.28125, 0.15625, -0.03125, 0.03125, -0.15625, -0.03125, 0.15625, -0.03125, 0, -0.1875, 0.3125, 0.21875, -0.09375, -0.5, 0, 0.28125, 0, -0.84375, -0.21875, 0.375, -0.46875, 0.375, -0.09375, -0.1875, -0.0625, -0.5625, 0.5625, -0.125, -0.15625, -0.4375, -0.34375, -0.1875, 0.15625, -0.25, 0.03125, 0.03125, -0.75, -0.5, -0.1875, 0.21875, 0.4375, 0.15625, 0.375, -0.03125, -0.1875, -0.03125, 0.03125, 0.25, -0.125, -0.03125, 0, -0.09375, -0.15625, -0.28125, 0.125, -0.09375, 0, -0.28125, 0.1875, 0.25, -0.28125, 0.25, -0.25, 0.03125, 0.125, 0.125, 0.21875, -0.125, -0.09375, 0, 0.0625, -0.1875, 0.15625, -0.28125, 0.0625, 0.21875, 0.0625, -0.15625, 0.03125, 0.09375, 0.1875, -0.03125, 0.15625, 0.09375, -0.25, 0.03125, 0.25, 0.75, -0.46875, 0.03125, -0.5, -0.8125, -0.3125, 0.625, 0.5, -1.03125, -1.8125, 1.59375, -1.03125, -0.34375, 0.6875, 0.4375, -0.40625, -0.8125, 0.75, 0.53125, -1.65625, -1, 0.5625, 0.8125, -0.3125, 0.40625, -0.375, 0.75, -1.09375, -1.1875, 0.59375, 0.15625, -0.40625, -0.125, -0.46875, 0.0625, -0.59375, 0.71875, -1.25, -0.78125, -0.71875, 0.65625, 0.5625, -0.625, -0.28125, 0.03125, -0.03125, -0.875, 0.3125, -0.28125, 0.8125, 1.09375, -0.625, 0.625, -0.8125, 0.59375, 0.21875, -0.0625, -0.03125, -0.71875, -0.59375, 0.03125, 0, -0.3125, -0.75, -0.40625, -0.21875, -0.625, -0.1875, 0.28125, -0.65625, -0.34375, 0.0625, 0.28125, 0.09375, 0.5, 0.875, -0.75, -0.15625, -0.4375, 0.21875, 0.71875, -0.09375, -0.15625, -0.65625, -0.8125, -0.25, -0.8125, 0.5, -0.34375, -0.75, -0.9375, -1.09375, 0.09375, -0.03125, 0.53125, -0.375, -0.6875, 0.53125, -0.3125, -1.59375, -0.25, 0.25, 0.21875, -0.46875, 0.03125, -0.46875, 0.15625, -0.875, -0.6875, 0.03125, -0.125, -0.25, -0.09375, -0.34375, 0.4375, 0.0625, -0.09375, -0.78125, -0.6875, -0.34375, 0.3125, 0.21875, -0.09375, 0, 0.40625, 0.375, 0.09375, -0.03125, -0.40625, -0.25, 0.65625, -0.1875, -0.0625, -0.15625, 0.4375, -0.40625, 0.09375, 0.15625, -0.125, 0.125, 0.15625, -0.21875, -0.03125, 0.0625, 0.4375, 0.09375, -0.3125, 0.0625, -0.125, -0.375, 0.1875, -0.3125, 0.125, 0.21875, 0.21875, 0.125, 0.125, -0.0625, 0.21875, -0.21875 }
#define LAYER_2_WT { 0.125, 1.3125, 0.25, 3.5625, 0.625, -0.125, 0.125, 0.0625, -3.1875, -2.5625, -0.0625, -0.3125, -5.5, 2.0625, -1.6875, -1.0625, -0.125, 0, -0.3125, -1.9375, 0.0625, 1.1875, 2.5625, -0.25, -0.125, 0.25, -0.5625, -0.1875, -3.625, 1.375, -2.75, 0.6875 }

// Model bias
#define LAYER_0_BS { 0.5, -1.25, 1.9375, -1.75, -2.75, -1.625, 1.3125, 1.0625, -0.25, -4.3125, -0.875, -1.5, -0.25, 4.0625, -1.0625, 0.125, -3.375, 2.6875, 2.9375, -2.6875, -2.4375, 3, 1.75, 0.5, 0.8125, -1.9375, 2.5625, -3.9375, -2.5625, 4, 0.5, -1.625, 0, -1.75, -0.5, -2.5, 1.6875, -5.125, -0.1875, -1.1875 }
#define LAYER_1_BS { 0.09375, 0.625, -0.15625, -0.40625, -0.3125, 0.125, -0.09375, -0.09375, 0.6875, 0.65625, 0.21875, 0.21875, -3.09375, -0.375, -0.40625, 0, -0.0625, -0.15625, -0.25, 0.25, -0.0625, -0.3125, -0.625, 0.25, 0.0625, -0.0625, 0.3125, 0.1875, 1.78125, -1.21875, 0.0625, 0.125 }
#define LAYER_2_BS { -2.84375 }

#endif