#ifndef MODELPARAMS_MNIST_H
#define MODELPARAMS_MNIST_H

static float layer_0_wt[784][40] = {
{-5.82493842e-04,  1.36723593e-02, -2.46440507e-02, -3.79327647e-02,  1.41863897e-02,  4.08640951e-02, -1.68338269e-02,  2.39331275e-03, -2.93619744e-02,  7.70670325e-02,  5.54246604e-02,  3.88568267e-02,  4.69136238e-02,  3.18405032e-03, -2.51278877e-02, -3.64076421e-02, -5.68489805e-02,  6.81060553e-03, -4.41545732e-02, -5.95234782e-02, -7.97450542e-04,  6.82538897e-02,  4.70761210e-02,  1.70391053e-02,  7.79645741e-02,  7.93516636e-02, -5.87270632e-02, -1.74612626e-02, -4.12042625e-02, -1.64108425e-02, -7.71564841e-02,  4.70491201e-02,  6.14315122e-02,  2.93520913e-02,  2.59287208e-02, -1.48828253e-02,  1.65731311e-02, -2.87095197e-02,  5.39145321e-02, -2.51183696e-02},
 {-5.50900772e-02, -8.47811848e-02,  6.25515282e-02,  1.67738721e-02,  6.28679246e-03,  1.91491619e-02,  6.63204342e-02,  2.73354352e-04,  8.37752968e-02, -1.73764825e-02, -4.15717885e-02,  6.35692924e-02,  2.35581696e-02,  2.63504684e-04,  5.61095774e-02,  3.22803855e-03,  1.69462338e-02, -3.97795811e-02, -7.84148276e-02,  3.97518575e-02,  5.81408292e-02, -2.00461969e-02, -6.43753558e-02,  2.36272216e-02, -2.62308195e-02,  4.61953133e-02,  6.86892718e-02,  8.12260807e-02,  2.18081400e-02,  1.85721666e-02, -2.62976699e-02, -5.61594963e-02, -1.67376995e-02,  6.41315877e-02, -1.55097097e-02,  2.97463685e-02, -2.42163241e-02, -5.35295121e-02, -1.80938989e-02, -8.94861668e-03},
 {-5.85884526e-02,  6.72986507e-02,  5.12935221e-04, -7.05526769e-03, -1.87356323e-02, -8.12638476e-02, -3.52014601e-03,  6.33557737e-02, -4.78915982e-02,  3.31029445e-02,  7.52970129e-02,  3.95506620e-02, -7.96189532e-02,  3.44025642e-02,  8.49370658e-02, -5.73637635e-02,  6.88679218e-02,  4.28112894e-02, -1.03806183e-02, -1.20297819e-02, -5.57244048e-02, -5.71890920e-03, -4.71388437e-02, -3.11122723e-02, -2.78069675e-02, -1.42098218e-02,  6.59537762e-02,  6.42043799e-02, -2.03227028e-02, -7.00316578e-03, -2.68920027e-02, -8.12835991e-02,  5.40496707e-02, -3.09604630e-02, -3.25344317e-02, -3.55900303e-02,  4.67886925e-02,  2.81453580e-02,  2.31851712e-02, -2.76778378e-02},
 {-2.00918317e-03,  3.36114839e-02, -6.21254295e-02,  5.78635931e-02, -8.04077983e-02, -5.76157309e-02,  1.46583468e-02, -1.46653205e-02,  5.40770292e-02,  2.64799818e-02, -5.86498342e-02,  4.95167077e-02, -4.24514152e-02, -5.62158078e-02, -7.04786554e-02,  5.12814820e-02, -3.09933387e-02,  8.05782080e-02, -2.12787017e-02,  8.24491978e-02,  8.39654803e-02, -7.56421685e-03,  7.07696825e-02,  3.07113826e-02,  5.18074036e-02,  3.57122794e-02,  2.81811506e-03,  9.43243504e-04, -5.04596122e-02, -1.54432878e-02,  2.65275091e-02, -7.77034387e-02, -5.44688702e-02,  5.32664359e-02, -2.63553075e-02, -6.70287907e-02, -1.35376528e-02,  7.38746375e-02, -6.40604794e-02, -1.65022090e-02},
 { 7.04786777e-02,  5.57197034e-02,  5.26336581e-02, -1.28723979e-02,  7.06288517e-02,  5.93752265e-02,  5.80243170e-02, -6.36443049e-02, -6.28893077e-02,  2.09668800e-02,  8.69452953e-03,  2.75786743e-02,  4.26731110e-02,  5.73108494e-02, -4.23083901e-02, -7.28685707e-02, -1.63520649e-02, -4.04264405e-02, -6.85678422e-03, -7.99748451e-02, -7.57990032e-03, -6.41459823e-02, -6.05150834e-02, -5.66577166e-02,  7.87665546e-02, -5.01053706e-02, -7.20911771e-02, -3.86047512e-02, -4.59500998e-02, -5.43691590e-02, -7.93913007e-03,  6.11017197e-02, -7.04572946e-02, -8.26657414e-02, -8.26382637e-03,  6.74732029e-02, -3.77013236e-02,  4.53957468e-02,  6.08792305e-02,  4.05551642e-02},
 { 9.79688764e-03, -6.11063801e-02,  4.07370478e-02,  8.24891776e-03,  1.69299990e-02,  8.81976634e-03,  3.72520313e-02,  1.16786733e-02, -5.93838915e-02, -7.74241984e-04, -2.57209577e-02, -3.11927386e-02,  5.45649230e-02,  7.45653361e-03,  8.84813070e-03, -2.96308324e-02, -7.93343037e-03, -1.50417835e-02,  1.96088478e-02, -4.42007147e-02,  4.39324230e-03, -5.76739013e-03, -3.42519544e-02, -7.37965107e-04,  3.57044041e-02,  1.97197497e-02,  1.07352659e-02,  5.23585975e-02,  4.05874550e-02, -9.25257802e-04, -2.62673572e-02, -4.27236073e-02, -3.40560153e-02,  1.25737190e-02,  4.53610569e-02,  2.08855048e-02,  7.51909763e-02,  6.46611005e-02, -5.53508922e-02, -8.79953057e-03},
 {-1.18377283e-02,  1.36888176e-02,  3.18474695e-02,  4.17169034e-02, -8.35706741e-02, -3.10356766e-02,  7.59788603e-03, -4.33068909e-02,  5.62164187e-02,  1.03020445e-02, -2.81546563e-02,  5.77256978e-02, -6.66529685e-02, -4.11127508e-02,  1.69007480e-03, -3.77754197e-02,  3.95616665e-02,  8.06996226e-02, -6.49261028e-02, -6.03870116e-02,  2.41839141e-02,  7.89250135e-02, -6.61538094e-02, -4.92117070e-02,  8.17250758e-02,  2.78721899e-02, -7.35165700e-02, -9.08073038e-03, -6.30261526e-02,  1.22414529e-03,  1.55860633e-02, -7.01921359e-02, -4.45572361e-02, -8.03053677e-02, -7.07149953e-02, -6.51962236e-02,  4.78596836e-02, -3.02658528e-02,  4.76815552e-02, -5.92352152e-02},
 {-5.47961742e-02, -1.41916126e-02,  8.52911323e-02,  1.72926039e-02,  1.09090954e-02, -5.66414818e-02,  7.21226633e-02,  6.47863597e-02, -7.25980848e-02, -6.48660660e-02,  7.20012486e-02, -2.71785967e-02, -6.97164163e-02,  7.47427344e-04,  5.85025549e-03,  1.57994404e-02, -2.03346461e-02,  6.27270043e-02,  7.23289698e-03,  5.02916127e-02, -4.42037471e-02,  5.91992587e-02,  5.97350895e-02,  6.58272505e-02, -8.33943710e-02, -4.52831797e-02, -6.63352832e-02,  2.85359770e-02, -7.32536316e-02,  3.52260619e-02,  1.72727481e-02,  4.53927070e-02,  5.15134633e-02, -7.32381940e-02,  1.70446634e-02,  4.85434085e-02,  3.52851003e-02, -7.17881620e-02,  2.86570191e-03,  6.52807355e-02},
 {-2.26880088e-02, -5.11562079e-03, -6.84408396e-02, -4.09969278e-02,  6.93234205e-02, -5.04605472e-02,  7.95181394e-02,  7.22849667e-02, -1.74413845e-02,  3.29964384e-02,  6.98044896e-05, -8.22565854e-02,  5.25483936e-02,  1.26618296e-02,  1.76180527e-02, -8.07387903e-02,  1.44644156e-02,  3.01282182e-02, -2.33638771e-02,  3.97080034e-02,  6.15390390e-02, -7.76057169e-02, -9.92062688e-03,  3.84647176e-02,  4.39161062e-02,  7.21108764e-02,  7.88004845e-02,  5.11533320e-02,  7.57105798e-02,  2.94298679e-03, -6.26998246e-02, -2.96240374e-02,  1.18857250e-02, -1.22787207e-02, -8.17124099e-02, -1.49592608e-02,  3.65388021e-02,  6.95533156e-02, -7.23693520e-02, -6.50330782e-02},
 {-7.65733495e-02, -4.72644307e-02, -4.68522459e-02, -1.49362087e-02, -3.57868634e-02,  4.04043496e-02, -2.48725004e-02, -3.95179279e-02, -1.73420608e-02, -1.91239938e-02, -5.70224971e-02, -8.68968666e-03, -1.56741366e-02, -1.84288919e-02,  7.49140680e-02, -5.98822758e-02, -2.66482532e-02,  7.50116259e-02,  5.31642288e-02, -3.07819583e-02, -1.02635324e-02, -2.95317508e-02, -7.74731934e-02, -6.95912540e-02,  1.36998445e-02,  2.93445587e-02, -2.81878188e-02, -7.94706419e-02,  8.31893086e-02, -3.68695892e-02, -2.40771659e-02,  3.49590778e-02,  1.83181390e-02, -7.18136355e-02, -3.18924338e-03,  8.29881430e-02,  1.57081559e-02,  3.57015356e-02,  7.99913406e-02,  6.06043339e-02},
 { 6.31000996e-02,  1.96168423e-02,  2.31772736e-02, -7.51167461e-02,  5.07983118e-02, -6.28120601e-02,  2.85925791e-02, -6.19100407e-02,  3.41584310e-02,  8.93351436e-03,  2.86450908e-02, -3.95418331e-02,  6.37215972e-02, -7.67715052e-02,  2.06308439e-02,  5.31489849e-02,  7.97451138e-02, -2.78054997e-02, -5.09537868e-02,  7.58706033e-02, -3.53452824e-02, -6.75242692e-02, -6.39960617e-02, -7.64035285e-02,  1.60123855e-02,  6.51889592e-02,  7.33279735e-02,  8.46985430e-02,  6.52980655e-02,  5.69978058e-02, -2.00567618e-02, -1.55073926e-02,  6.55530095e-02,  7.60453194e-02, -1.51893795e-02,  6.05318397e-02,  7.17674941e-03, -5.74253462e-02,  7.73086101e-02, -2.71627307e-02},
 { 8.29771757e-02,  2.09455192e-03,  8.15265179e-02,  4.53975201e-02,  5.67571819e-02,  5.10216802e-02,  2.93898284e-02, -8.47852528e-02,  5.48517704e-02,  6.00480437e-02,  6.19422793e-02,  7.65584111e-02, -3.30648571e-03,  4.62528318e-02, -6.32670969e-02, -6.85170963e-02,  7.16086626e-02,  5.55445552e-02,  1.91989020e-02, -3.46536227e-02, -3.63261029e-02, -8.52750167e-02, -7.27162063e-02,  7.84029663e-02,  8.41929764e-02,  7.47980177e-02, -4.97173741e-02, -5.36069274e-05, -9.84888524e-03, -9.25108045e-03,  3.79629582e-02,  6.27645105e-02,  3.32836062e-02, -4.57994677e-02, -2.27062777e-02,  7.01636076e-02, -2.06325948e-02,  4.09732759e-03,  2.23377943e-02,  4.03603017e-02},
 { 1.79010481e-02,  8.52470398e-02,  8.27855170e-02, -3.05901058e-02, -3.10765952e-03,  4.18933928e-02, -2.45660879e-02,  5.57599664e-02,  5.69636226e-02, -1.50251389e-02, -1.87925771e-02,  4.65475470e-02,  1.04653165e-02,  4.35777009e-02, -3.33306193e-03,  1.02939531e-02, -6.16015941e-02, -2.22232491e-02,  3.63246351e-02, -4.45406772e-02, -5.07587194e-02, -7.46562034e-02, -1.36786401e-02, -1.94476172e-02,  7.08583444e-02, -2.25646943e-02,  7.79840946e-02, -5.18363416e-02,  1.76345557e-02,  8.09574276e-02,  2.90693194e-02, -5.89861125e-02, -6.83924034e-02, -5.45123219e-03, -3.19427252e-02, -3.07142735e-03, -5.62641770e-03,  2.12946385e-02, -5.14791496e-02, -1.07010901e-02},
 {-2.43448615e-02,  2.89519876e-02,  6.76186234e-02, -7.47125596e-03,  3.39023322e-02, -3.56288888e-02, -4.72568013e-02, -7.75767267e-02, -8.24631453e-02, -4.91996855e-03, -5.57667762e-03,  1.48332864e-02,  3.45040709e-02, -1.51721314e-02,  9.60531831e-03, -2.06779018e-02, -7.17847645e-02, -3.33536938e-02,  1.69874728e-02,  2.30146796e-02,  3.20389569e-02,  7.25091994e-02,  6.02073222e-02, -8.51173848e-02, -2.17039287e-02,  3.90507132e-02, -8.29371810e-02, -6.76379800e-02, -2.29625590e-02,  4.91920114e-02, -7.63527453e-02, -7.65651688e-02,  3.27334628e-02, -6.40197694e-02, -8.27976391e-02, -3.84479016e-03,  3.99180651e-02, -5.70889637e-02,  5.92318326e-02,  3.42990160e-02},
 { 6.12699986e-03,  6.15327507e-02, -3.75170223e-02,  7.96037763e-02, -1.99722871e-02,  9.87806171e-03, -2.89128870e-02, -6.81358725e-02, -2.18418911e-02,  2.90180743e-03, -7.54017755e-02, -1.44514963e-02, -4.60822582e-02,  1.15955025e-02, -4.56870832e-02,  7.43968487e-02, -3.45489495e-02,  8.46071988e-02, -4.01261449e-03, -8.48697647e-02, -6.30428120e-02,  3.05491686e-02,  7.30586648e-02,  7.65745491e-02, -3.90897095e-02,  2.08860338e-02,  2.86053345e-02,  4.69636768e-02,  2.27099806e-02, -6.54430836e-02,  3.87361422e-02,  7.97084719e-02, -7.67495483e-02,  3.48516405e-02,  8.51027220e-02, -4.57306392e-02,  3.89123037e-02,  5.03616929e-02, -5.75170591e-02,  7.07997084e-02},
 { 4.24051136e-02, -8.21248591e-02,  6.89091980e-02,  7.95104504e-02, -6.83822334e-02,  2.68373638e-03, -7.29017556e-02, -2.92033255e-02,  2.24697068e-02, -2.08677426e-02,  8.02583694e-02,  6.45704418e-02, -8.23565796e-02,  4.66830730e-02, -4.73147035e-02,  4.72259820e-02, -8.41244385e-02, -6.89839274e-02, -1.72303021e-02, -4.40708771e-02,  6.54611290e-02, -3.42240222e-02, -7.35707060e-02,  3.86122614e-02, -6.12362213e-02,  2.34293044e-02, -3.63053903e-02,  5.96025437e-02,  1.58741474e-02,  5.78224808e-02, -3.93063426e-02, -5.01387343e-02, -3.09082158e-02,  2.12847292e-02,  5.81999272e-02,  8.13587755e-02, -1.11343116e-02, -5.54722100e-02, -1.68515071e-02,  5.38602769e-02},
 { 2.33503059e-02, -1.03164315e-02, -3.40034030e-02,  3.74808908e-04,  7.51693398e-02, -1.90199688e-02,  2.08014548e-02, -8.27390030e-02, -6.78048059e-02, -4.28195931e-02,  9.49704647e-03,  8.04221481e-02, -1.78299844e-04, -1.31887197e-02,  3.31610292e-02, -1.67511031e-02, -1.13754123e-02, -5.94003946e-02,  4.57424819e-02,  3.54139060e-02, -6.97473437e-02,  3.42421457e-02, -1.28158405e-02, -5.71997017e-02,  7.48052001e-02,  7.92051107e-03,  8.39425623e-03, -5.93276992e-02, -7.21727610e-02,  7.62283057e-03, -6.14100248e-02, -8.33393931e-02, -1.97364911e-02, -1.52950957e-02, -2.81544551e-02, -3.67622711e-02,  6.05504960e-02, -7.32411593e-02,  2.92972177e-02,  1.34811178e-02},
 { 8.51266682e-02, -2.65397951e-02,  4.46199179e-02, -7.18444139e-02,  8.25507492e-02,  3.35078239e-02,  4.82710749e-02, -1.30897760e-03, -9.85137373e-03,  4.13075686e-02, -1.71265677e-02, -1.82185695e-02,  4.11964059e-02,  6.05376065e-02,  5.44629544e-02,  2.26665214e-02,  5.56700379e-02,  6.80552125e-02,  6.09982014e-03,  4.85524833e-02, -7.73168877e-02,  7.75101185e-02, -4.89410013e-02,  1.91824064e-02,  8.20583254e-02, -2.73859724e-02,  1.58358142e-02,  2.69523412e-02,  5.20088226e-02,  1.79327652e-02, -1.38116181e-02,  2.24707648e-02,  7.34887421e-02,  3.54220644e-02,  3.84041369e-02,  5.46777248e-02, -3.90356742e-02,  4.65229452e-02, -4.10602205e-02, -4.06964347e-02},
 {-3.40899490e-02, -7.37523288e-03, -1.63791031e-02,  7.48724490e-02, -5.95342219e-02, -3.98902558e-02, -2.73138694e-02,  5.92415035e-02, -1.63672417e-02, -9.72952694e-03,  3.21952850e-02, -7.06299543e-02,  2.43207142e-02, -6.62067682e-02,  2.48099416e-02,  6.81734234e-02, -5.29185385e-02,  2.68653110e-02,  1.66445822e-02,  4.16812897e-02,  4.74331081e-02, -2.23657489e-03, -8.14241618e-02, -5.64735383e-02,  7.58481175e-02,  3.69994491e-02,  6.67702705e-02, -4.85957302e-02, -7.39711523e-02,  1.68043450e-02,  8.20904970e-02, -2.82668807e-02,  8.18637460e-02,  7.97199607e-02,  1.63138136e-02,  1.93551928e-03, -1.07241422e-02,  1.73416734e-03, -3.57698575e-02,  1.87767297e-02},
 {-3.59717794e-02,  3.59107628e-02, -1.36126056e-02, -4.96719256e-02,  3.75606120e-04, -1.38941929e-02, -7.46439099e-02, -4.79692519e-02,  2.98420489e-02, -7.89691061e-02,  3.03601325e-02, -2.64224857e-02, -1.28166378e-02,  7.87269026e-02, -4.75713499e-02,  8.49496573e-03,  8.43559802e-02, -4.54865657e-02,  6.70351386e-02,  7.65628964e-02,  8.10598880e-02,  7.57886320e-02, -1.54104456e-02,  3.20319161e-02,  6.43296391e-02, -2.96117887e-02,  4.38216925e-02,  4.21095639e-03, -6.49085045e-02, -5.57785183e-02, -5.93540072e-02,  6.93749040e-02, -3.61548811e-02,  4.09421325e-02, -4.68731411e-02,  2.57707611e-02, -8.00508112e-02,  4.85562235e-02, -8.20330977e-02,  1.73675492e-02},
 { 6.24199808e-02, -3.71449552e-02,  1.33214071e-02, -8.82372260e-05,  2.05541104e-02, -1.25167742e-02, -7.87969083e-02,  6.90457672e-02,  5.39544672e-02,  4.69235778e-02, -4.78683226e-02, -1.33305043e-03,  8.38320255e-02,  4.15208936e-02, -7.15242326e-02,  4.74543720e-02,  3.09768617e-02, -1.01370513e-02,  1.39753744e-02,  7.46265948e-02, -1.57749876e-02, -3.33288126e-02, -8.11291859e-02, -7.31095523e-02, -3.28291208e-03,  8.27531368e-02,  1.25332102e-02, -7.99140334e-02, -7.36581460e-02,  6.99028522e-02,  8.26533586e-02, -5.99649772e-02,  8.48641545e-02, -3.69724147e-02, -1.29038915e-02,  6.10357374e-02, -1.70725510e-02,  9.21266526e-03,  5.19127995e-02, -2.97980458e-02},
 {-5.70876636e-02, -5.76247871e-02, -6.19380549e-02,  5.67312986e-02,  3.91188860e-02,  4.08239961e-02,  1.12215653e-02, -4.33829576e-02,  9.23281163e-03, -7.98126534e-02, -7.07746074e-02, -8.82943720e-03, -4.88072112e-02,  2.97151208e-02,  5.22023588e-02,  8.27490538e-02,  4.52188551e-02,  2.69573703e-02,  1.72518715e-02,  1.31948069e-02, -5.33637218e-02,  6.47999346e-02, -3.22778858e-02,  5.84878772e-02,  1.60265714e-03,  2.37947702e-03, -3.29397805e-02, -3.58774811e-02,  1.52725279e-02, -2.21907198e-02, -6.17644303e-02, -5.79112992e-02,  1.69168115e-02,  3.73290554e-02, -6.57627210e-02, -7.58487508e-02,  3.95751595e-02,  3.58666554e-02,  6.35638237e-02, -3.23914289e-02},
 {-1.00250319e-02,  3.29796597e-02,  7.00934082e-02,  7.41671771e-02,  4.32300419e-02,  8.10862929e-02, -3.36814895e-02, -5.85399121e-02,  5.80611229e-02,  1.66176856e-02,  2.25124881e-02,  7.26478100e-02,  7.12783635e-02,  3.09588537e-02, -1.24949068e-02, -4.64576483e-03, -3.26175205e-02,  7.47158974e-02, -7.89138079e-02, -4.56336960e-02,  3.33560780e-02, -1.39251426e-02, -1.49234161e-02, -3.44710797e-03, -1.28196850e-02,  6.94580227e-02,  1.72646493e-02,  7.94537365e-02,  6.08618706e-02, -2.11367980e-02, -8.42217281e-02, -2.60238498e-02, -1.78132057e-02,  8.05574507e-02,  2.02583373e-02,  2.88905278e-02, -2.74963230e-02, -6.21052459e-02,  5.02595901e-02, -3.64952087e-02},
 {-6.89342245e-02, -3.11615504e-02,  1.39560401e-02, -4.26171832e-02,  3.19752395e-02,  6.56341761e-03, -6.90067559e-02,  4.21942323e-02, -5.48986718e-02,  8.09561461e-02, -7.35621452e-02, -7.40448385e-02,  2.87264884e-02, -5.66004477e-02, -2.72279344e-02, -3.78583036e-02, -6.53223619e-02, -3.17247100e-02,  5.30671924e-02,  2.51146480e-02, -4.45749387e-02, -2.36192048e-02, -4.95023094e-02,  3.52542400e-02, -5.94976805e-02,  3.10371071e-03,  5.99374175e-02, -8.62226635e-03, -1.20410323e-03, -1.04134530e-02,  6.67576790e-02,  7.45738298e-02, -1.77940354e-02, -8.26436877e-02,  2.30158195e-02,  2.05516219e-02, -5.94160557e-02, -8.25994760e-02,  1.57997459e-02,  6.31268620e-02},
 { 6.66751862e-02,  1.53027028e-02,  4.94667739e-02,  6.99085742e-02, -7.75602460e-02,  7.44121820e-02,  7.94454813e-02, -2.01252997e-02, -9.36806202e-03, -3.38166803e-02,  1.56522840e-02,  1.25380978e-02, -6.75093159e-02, -7.66619444e-02,  3.97611111e-02,  6.25964999e-03,  5.53381145e-02, -1.36510953e-02, -3.35237980e-02, -1.63562968e-02, -5.75585626e-02,  8.43751729e-02,  8.42415392e-02, -8.40036124e-02, -6.34694993e-02,  3.40792686e-02,  2.44528279e-02,  6.43357635e-02, -6.98557794e-02, -3.88505571e-02, -2.34492645e-02, -8.03299844e-02, -2.73554958e-02,  6.00395203e-02,  4.21626568e-02, -7.73009136e-02, -4.26713601e-02, -7.44787306e-02,  5.61563373e-02,  3.70507166e-02},
 { 2.58125737e-02, -6.54982999e-02,  2.89229527e-02,  8.81995261e-03,  6.15348369e-02,  6.70519918e-02, -7.70096630e-02, -7.60274529e-02,  4.51448411e-02,  2.36007124e-02, -3.05920579e-02,  6.31830692e-02, -7.15729594e-02, -3.98115404e-02,  3.33902761e-02,  3.95215079e-02, -7.92801902e-02, -5.90874925e-02,  4.06142473e-02,  8.65961611e-03,  2.58000568e-02, -3.09131816e-02,  1.39236972e-02,  1.85739249e-03,  6.24457300e-02, -9.50807333e-03,  3.93096358e-02, -2.72170082e-02, -8.95882398e-03, -2.39241309e-02,  1.06024742e-03, -2.07310244e-02, -3.88410985e-02,  2.19590962e-03,  5.98131120e-02,  2.15013400e-02,  8.22694600e-02, -8.32356364e-02,  2.90450007e-02, -7.15623796e-02},
 { 3.65831554e-02, -5.76565638e-02,  4.34374064e-02,  3.80294845e-02, -7.27231055e-02,  2.10762322e-02, -8.17874968e-02, -3.59799564e-02, -6.02582283e-02,  5.15238047e-02, -7.27826729e-02, -7.39020184e-02,  3.07417735e-02,  1.35558397e-02, -6.41541481e-02,  2.72501484e-02,  7.99321383e-02, -6.04211316e-02,  6.67788386e-02, -7.75560141e-02,  2.01636553e-03, -6.08730875e-02,  1.02451667e-02,  5.03012240e-02, -1.29988790e-03, -3.86570990e-02,  3.41924503e-02, -3.38682123e-02, -6.67120516e-02, -6.66792691e-03, -3.77110504e-02,  7.22927302e-02,  5.34003675e-02,  6.72633946e-02, -7.14996755e-02,  6.95807636e-02, -1.29967257e-02, -5.68854958e-02, -1.29084513e-02, -7.34118149e-02},
 { 8.74266028e-03,  1.72908083e-02, -5.17649911e-02, -5.32356650e-03,  2.96158344e-03,  6.17887378e-02,  2.42440701e-02, -8.07151720e-02, -5.05418666e-02,  5.19683212e-02,  5.90092242e-02,  3.62839848e-02,  3.81892696e-02,  3.32627743e-02,  7.93907195e-02,  3.83440331e-02, -6.69094324e-02,  2.06892565e-02, -3.19778919e-03, -3.46602350e-02,  4.19125855e-02,  1.48379505e-02, -5.12560681e-02, -2.41137259e-02,  5.10457456e-02, -4.83523235e-02,  8.21238160e-02,  5.71972877e-02,  2.03777403e-02, -7.90486336e-02, -4.97283824e-02, -2.93708444e-02,  5.93918264e-02, -4.78566661e-02, -1.51329637e-02,  3.37545499e-02, -3.12971324e-03,  7.93302655e-02, -2.96507701e-02, -6.86159059e-02},
 {-6.75369799e-03,  1.56222358e-02, -6.38524145e-02,  2.14684382e-02, -4.45882007e-02,  5.60936034e-02,  3.74750495e-02,  3.11830938e-02,  2.36633420e-03,  8.69564712e-03, -4.54807058e-02, -6.67260885e-02,  1.54000744e-02,  8.46492648e-02, -3.10279429e-03,  8.32400173e-02, -6.13475889e-02, -3.93523611e-02, -6.40252382e-02, -8.54985416e-03, -2.29474418e-02, -2.34232433e-02, -3.58357728e-02, -7.29535520e-02, -5.22300117e-02,  2.52811089e-02,  5.72959185e-02,  4.43953723e-02, -4.50751521e-02,  4.91473377e-02,  7.10445344e-02, -5.99073023e-02,  3.75001952e-02,  8.37384164e-02,  2.74253562e-02, -4.83938269e-02,  3.28258127e-02, -3.79760005e-02,  6.88823909e-02, -2.72800177e-02},
 {-1.80830061e-03,  3.54912579e-02, -8.09704363e-02, -7.47587159e-02, -3.61052379e-02,  3.40649486e-02,  3.69567052e-02, -3.50807607e-02,  4.35770303e-02,  4.76826131e-02,  5.76745123e-02,  4.78048623e-03, -3.16371471e-02, -4.57365215e-02, -7.94906393e-02,  8.51690769e-02, -8.23131651e-02, -2.41684504e-02,  6.99765831e-02,  5.43090850e-02, -3.48747298e-02,  2.40754560e-02, -1.20593235e-02,  1.76177695e-02, -6.98742270e-03, -1.42372251e-02,  2.02892199e-02,  1.70346946e-02, -9.75605845e-03,  1.98690370e-02, -6.10608608e-03,  7.87511319e-02,  6.62124455e-02,  6.43817484e-02, -2.38612667e-02, -6.75670132e-02, -4.25374918e-02,  5.52567542e-02,  5.68971187e-02,  3.35094705e-02},
 { 1.51832020e-02, -8.46216008e-02,  1.56118479e-02, -1.62679385e-02,  5.23743406e-02,  6.38254359e-03,  7.55323395e-02,  4.69346941e-02, -3.21644247e-02,  2.42881160e-02,  1.97516102e-03, -4.84593678e-03,  1.51948724e-02,  1.54328225e-02,  6.94435462e-03, -6.50690719e-02,  6.14012480e-02,  5.38566262e-02, -3.90199311e-02,  3.45791294e-03,  4.58087698e-02,  5.13894744e-02, -7.03345463e-02, -3.08658779e-02,  8.26911628e-02,  3.41100059e-02, -4.49372195e-02,  2.23150216e-02,  6.10270761e-02,  5.10871187e-02, -8.25399831e-02,  8.40843990e-02,  3.98498848e-02,  6.13854378e-02, -1.13481181e-02, -4.51880507e-02, -4.13409323e-02,  6.35126308e-02,  6.02093758e-04, -6.48550764e-02},
 {-1.24262823e-02,  4.69377562e-02,  9.80729144e-03, -8.62698629e-03, -2.78012380e-02, -8.39611292e-02,  5.88260889e-02,  6.53204322e-02,  1.39629599e-04,  5.13348468e-02, -4.75808047e-02, -6.79798275e-02, -5.05691916e-02, -1.42133245e-02,  4.26913500e-02, -5.60176000e-02,  2.46880911e-02, -2.87639406e-02,  3.66722047e-03, -3.72876190e-02, -8.48884061e-02, -2.59494651e-02, -7.64128491e-02, -4.44206372e-02,  3.38244773e-02, -8.05608779e-02,  8.37273374e-02, -5.87601438e-02, -4.41582650e-02,  1.61393601e-02,  3.70417573e-02, -4.79738899e-02, -5.10746166e-02, -1.28629524e-03, -2.98520457e-02, -6.26974478e-02, -8.06811452e-02,  5.55662811e-02,  4.49233130e-02, -7.98414182e-03},
 {-5.76522667e-03, -4.69143428e-02,  6.63227364e-02,  4.60413210e-02, -7.31048733e-02, -6.17702259e-03, -3.02020553e-02, -4.12089229e-02, -6.14099801e-02, -3.60701047e-02,  5.66727817e-02, -5.56027479e-02, -4.82281297e-02,  8.30773190e-02, -5.94264381e-02, -5.09022661e-02, -7.64941722e-02,  4.25137859e-03,  3.06527689e-02, -8.42839479e-02, -6.78663328e-02,  1.25678619e-02,  5.71016371e-02,  5.15016951e-02,  2.95411665e-02,  5.54724559e-02,  6.46106107e-03,  7.79072344e-02,  1.64929051e-02, -5.69768772e-02, -2.87089869e-02, -4.67585437e-02, -6.92527592e-02, -7.46753905e-03,  1.90234520e-02,  3.84428278e-02, -7.27386251e-02, -3.54057476e-02,  5.81376106e-02,  2.68739350e-02},
 { 4.46952879e-02, -7.73518682e-02, -3.48714832e-03, -4.36492860e-02,  4.79011312e-02, -2.46557426e-02, -3.81935351e-02, -6.19739108e-02, -4.72143032e-02,  7.22430740e-03,  2.67133564e-02,  6.93602189e-02,  2.30401345e-02, -1.62931662e-02, -8.48941430e-02,  6.67702779e-02,  1.17719462e-02, -8.51722881e-02,  8.01580548e-02, -1.89714581e-02, -4.24823575e-02,  1.88527629e-02,  3.60179581e-02, -3.82828750e-02,  2.89456942e-03, -6.83958754e-02, -6.75699189e-02, -5.72041832e-02, -6.74223155e-02,  6.61251396e-02, -8.49895701e-02,  5.26474901e-02, -3.78842764e-02, -1.92187671e-02, -7.48254582e-02, -9.16174240e-03, -1.48718413e-02, -8.45744461e-02,  2.31226217e-02,  2.22540703e-02},
 {-3.54192927e-02, -7.25577846e-02,  4.20234688e-02, -3.10832504e-02, -7.39434361e-02, -4.80190627e-02,  4.38642912e-02, -7.33232126e-02, -6.43543676e-02, -4.79983650e-02, -2.15622541e-02,  1.72050241e-02, -7.73155540e-02, -2.99531799e-02, -5.24233356e-02, -2.50595994e-02,  1.20796356e-02,  1.65213998e-02, -7.73534849e-02,  5.23920096e-02, -6.18056878e-02, -4.38652672e-02, -2.17651948e-02, -8.20592567e-02, -1.40947672e-02, -7.97101036e-02, -7.22017661e-02,  3.55225615e-02,  3.55611108e-02, -3.15254517e-02,  2.70711575e-02,  1.47439400e-02,  9.06195585e-03, -2.52100267e-02, -8.75019934e-03,  1.57221928e-02, -7.62559325e-02,  3.69414948e-02, -6.64388901e-03, -6.80880696e-02},
 {-6.32840917e-02, -7.01941401e-02, -4.03115749e-02,  9.15530324e-03, -1.68055575e-02,  4.37538512e-02,  3.69091965e-02,  5.16608022e-02, -1.66498702e-02,  8.32497850e-02, -5.67756966e-02,  8.04960057e-02,  5.80130927e-02,  6.41669109e-02,  7.84942433e-02,  7.80588537e-02, -8.08022022e-02, -6.49218485e-02, -3.58982873e-03, -4.15870175e-03,  6.92189485e-02,  1.57831963e-02, -2.06167027e-02,  2.85440274e-02,  1.13697359e-02, -8.50057080e-02, -1.19927488e-02,  8.59817937e-02,  5.15083633e-02,  2.02907342e-02, -4.46825586e-02,  1.15814004e-02, -2.42989864e-02, -6.83908090e-02,  6.49150237e-02,  3.01983953e-02, -3.25403102e-02,  5.22159562e-02,  7.71475881e-02,  6.75320104e-02},
 { 2.65527647e-02, -8.29073936e-02, -7.86714535e-03, -7.40363225e-02,  8.05485714e-03, -1.76231924e-03,  5.18309548e-02, -6.70636520e-02, -3.08131110e-02,  5.96272126e-02,  5.83352409e-02,  5.37190028e-02, -2.05846410e-02,  5.53676784e-02,  2.75549889e-02, -6.98355213e-02, -2.98798103e-02,  7.16042221e-02,  3.65667082e-02,  2.89709661e-02,  2.15336494e-02,  1.68095976e-02,  5.88840917e-02,  4.72287834e-02,  7.75411278e-02,  2.13169493e-02, -6.72844350e-02,  1.48754288e-03, -3.47475708e-03, -3.37163806e-02, -1.63969267e-02, -9.30759532e-04, -5.56113161e-02,  8.41138791e-03,  5.23410253e-02,  2.95565035e-02, -6.87781572e-02,  6.57943562e-02,  6.24350235e-02, -3.77843976e-02},
 { 1.36035290e-02,  4.68310751e-02, -1.47218462e-02,  6.77052066e-02,  1.66658089e-02, -4.03113291e-02,  2.83450950e-02,  1.89232025e-02, -3.17273918e-03, -6.58926442e-02,  6.31811619e-02,  5.16742468e-02, -5.98437078e-02,  6.91800565e-02,  6.93453550e-02,  6.52039200e-02,  2.39219833e-02, -8.81300191e-04,  5.49177378e-02, -2.22208668e-02,  6.57814667e-02, -5.20941503e-02,  7.68295079e-02, -8.52268375e-03,  8.32314193e-02,  8.86514783e-03,  3.81464288e-02,  4.94355895e-02,  5.81395160e-03, -2.46808808e-02,  5.10423295e-02,  7.52030537e-02, -6.94966838e-02,  2.83625759e-02, -8.28922912e-02, -3.50060090e-02, -7.75837526e-02,  7.51508772e-02,  7.34962970e-02, -2.68690158e-02},
 {-6.35214448e-02,  3.41119990e-02, -3.32585834e-02, -2.09871735e-02,  4.33582924e-02,  2.54883133e-02, -1.25782741e-02,  8.38378593e-02, -6.92230165e-02,  3.37310694e-03, -3.82592157e-02, -6.32463321e-02, -8.21586624e-02, -5.91565408e-02, -2.44342983e-02,  7.22514093e-02,  4.08731289e-02, -2.62057595e-02,  3.26755806e-03, -6.87581003e-02,  5.93340658e-02, -2.56672408e-03, -6.51819035e-02,  8.36180523e-02,  7.05205798e-02, -7.01697022e-02,  4.25731242e-02,  3.87725956e-03,  7.01662228e-02,  4.14925329e-02, -3.94037878e-03,  8.19739923e-02, -3.71197308e-03,  6.72032237e-02,  3.02882809e-02, -2.75425031e-03, -6.75691441e-02,  3.58370766e-02,  4.17380333e-02, -8.25845823e-02},
 {-7.11803511e-02,  2.81116981e-02, -4.40654270e-02,  8.33455324e-02,  5.67652052e-03, -1.38303638e-02,  6.68592677e-02, -5.12162820e-02,  7.68732354e-02,  7.49296276e-03,  4.40370711e-03,  3.69216427e-02,  4.31762822e-02, -4.04298166e-03,  2.89397966e-02,  2.07332056e-02, -6.65330887e-02, -2.88326992e-03,  4.00680751e-02, -6.74613118e-02,  4.88784350e-02, -1.56216556e-02, -2.21013557e-02, -4.06880043e-02,  5.85133843e-02,  5.45433983e-02,  2.17541140e-02, -4.04988229e-02, -7.63700083e-02, -5.75812235e-02,  1.91145800e-02,  1.63696695e-03,  5.08124493e-02, -1.42217223e-02, -5.72024100e-02, -1.92777067e-02,  5.84931560e-02,  1.82236303e-02, -4.47946750e-02, -7.46486634e-02},
 {-3.11043803e-02,  1.88379791e-02, -1.36400945e-02, -4.80352715e-02, -4.27697487e-02,  6.54278919e-02, -3.66016738e-02,  5.45891076e-02,  4.40090988e-03, -2.96365563e-02, -3.31477597e-02,  6.77506998e-02,  4.68742177e-02,  1.59651078e-02,  4.74397540e-02,  4.11990285e-02, -3.39629389e-02,  7.11639896e-02,  6.76620612e-03,  1.50236711e-02, -5.30112572e-02, -6.41643181e-02,  6.17970377e-02,  6.17286079e-02, -7.54180774e-02,  2.26231273e-02, -4.31714347e-03, -1.92642920e-02,  4.19099964e-02, -3.20469365e-02, -7.62154311e-02, -7.70486072e-02, -4.10065129e-02, -3.89463976e-02,  5.91104589e-02,  4.41624299e-02, -2.91115958e-02, -6.25602677e-02, -3.54254805e-02, -7.08726943e-02},
 { 4.36328948e-02,  4.18838337e-02,  7.97274709e-02, -7.26679862e-02, -7.95328640e-04, -5.42026982e-02, -1.64925063e-03,  8.02149698e-02, -5.45873307e-02, -7.97482282e-02, -8.25220272e-02, -5.34291118e-02,  5.39496653e-02, -3.96702848e-02, -5.46075068e-02,  2.46123597e-02,  4.04203907e-02, -6.00303747e-02, -2.21276539e-03, -7.65993595e-02,  7.40117058e-02,  1.76692251e-02,  8.17984343e-02, -1.48793077e-02, -3.61657515e-02,  8.21624324e-02, -7.15611130e-02,  5.28840423e-02, -1.27676353e-02, -7.07620233e-02,  3.72473127e-03,  8.33337009e-02,  4.87562120e-02, -7.04539195e-02, -4.36696112e-02, -4.75985259e-02,  2.54550227e-03, -3.93784493e-02,  4.61328700e-02, -6.74432814e-02},
 { 4.41248417e-02, -7.52613246e-02,  5.44833466e-02, -1.37950126e-02, -7.65461773e-02,  7.74021670e-02,  8.48979726e-02, -1.28292488e-02, -2.02045720e-02,  2.30742227e-02, -5.67223020e-02, -1.71795692e-02,  5.74530847e-02,  9.79407225e-03, -3.75608392e-02,  8.74402598e-02, -2.02406328e-02, -4.16237814e-03, -7.83923566e-02,  3.76583524e-02, -8.38710666e-02,  2.97494587e-02,  8.33809227e-02,  6.62600398e-02,  8.31052065e-02,  5.04834615e-02,  2.18821298e-02,  6.45545498e-02, -6.39682189e-02,  3.89768789e-03, -4.61608469e-02, -8.32884479e-03, -4.59509343e-02,  1.22485878e-02,  6.18410520e-02, -1.28899384e-02,  3.93403769e-02,  5.50629981e-02,  7.39128366e-02, -8.37334096e-02},
 {-4.29581776e-02,  8.26040283e-02,  5.04931621e-03,  5.73764667e-02,  2.65777744e-02,  3.64354625e-02,  1.93022341e-02, -8.47370028e-02, -3.19284424e-02, -5.80681041e-02, -7.17779770e-02, -7.37186298e-02,  6.06851205e-02, -5.25163151e-02, -1.70258563e-02,  6.52711317e-02,  3.54485884e-02,  2.39919107e-02, -7.86131248e-02, -2.07281876e-02, -5.88720441e-02,  5.53720631e-02,  1.18666571e-02,  4.50088084e-02,  9.86078195e-03,  8.04882944e-02,  1.11401016e-02, -1.92051511e-02,  1.18832784e-02,  5.62887779e-03, -6.96694404e-02, -5.75032365e-03,  3.45337093e-02,  4.99403104e-02, -6.44157156e-02,  3.78283262e-02, -8.04761425e-02,  3.92662995e-02, -5.75298779e-02, -6.52615540e-03},
 { 7.99275264e-02,  6.81888461e-02, -7.71662667e-02, -3.02870981e-02,  5.24077229e-02,  2.57560257e-02,  7.82798156e-02,  4.59176227e-02,  6.67630285e-02,  4.05600742e-02, -4.79841558e-03,  5.88640533e-02, -8.14197212e-02, -8.44917223e-02,  2.87269503e-02,  3.06638679e-03,  9.49943322e-04, -4.62329686e-02, -1.53958024e-02, -8.10905322e-02, -2.53923666e-02,  7.18394965e-02, -5.20415939e-02, -8.23692381e-02,  3.56989019e-02, -5.54476231e-02,  3.06009650e-02,  4.24189121e-02,  5.11130169e-02, -1.78892836e-02, -6.05215877e-02,  6.75094798e-02, -4.23835441e-02,  1.08207334e-02, -7.95539003e-03, -7.34016001e-02, -7.07979500e-02, -4.59542237e-02,  4.84941341e-02, -3.22097056e-02},
 {-4.91874069e-02,  7.07032308e-02, -2.52328496e-02, -4.85759079e-02, -3.73489149e-02,  4.07119617e-02, -2.20669992e-02, -2.45661456e-02, -2.34182552e-02,  1.28699727e-02,  6.47507235e-02, -5.60989790e-02,  1.71159767e-02, -4.89626750e-02,  6.48173019e-02,  3.76912840e-02, -5.26119694e-02,  3.84249687e-02, -6.10198341e-02, -5.17958887e-02, -5.29068001e-02, -3.38054672e-02,  4.56376970e-02,  2.61828117e-02, -1.34056909e-02,  5.42100891e-02,  3.85392308e-02,  8.17189887e-02, -5.51348366e-03,  7.10296109e-02, -4.46337927e-03,  2.84157190e-02, -3.10494434e-02,  3.05140261e-02,  3.80380563e-02,  6.65286258e-02, -8.63506794e-02,  7.07547739e-02,  4.53927480e-02,  5.07616475e-02},
 { 3.37241702e-02, -1.14714680e-02,  3.23724635e-02, -5.10016978e-02,  2.36503091e-02,  3.83241996e-02, -3.87521624e-03,  2.89421752e-02,  2.26488803e-04,  4.31568548e-02, -8.14132690e-02,  7.04284757e-02,  3.08638345e-02, -4.66598757e-02, -5.23786098e-02, -6.81532845e-02,  3.67253162e-02,  7.36245885e-02,  8.15284923e-02, -3.45663391e-02, -9.32697672e-03, -1.48556363e-02,  6.71969354e-02,  3.55434008e-02, -2.38040537e-02,  4.34024120e-03,  7.11567774e-02, -2.38736011e-02, -5.09185717e-02, -6.43699318e-02,  2.46857926e-02, -3.97827616e-03, -8.05821344e-02, -4.66555469e-02, -5.94860762e-02, -2.11479329e-02,  3.20046656e-02,  8.24762732e-02, -2.93867309e-02, -4.50149328e-02},
 { 6.44838959e-02,  2.96779145e-02, -7.86886141e-02,  5.00192083e-02,  4.68497659e-04,  7.02966452e-02,  7.94340298e-02, -8.24372470e-02,  3.80801000e-02,  2.47625750e-03,  1.00163147e-02, -8.34537745e-02, -8.28765258e-02,  6.15903400e-02,  8.00335333e-02, -5.88044412e-02, -2.98886988e-02,  8.13363418e-02, -3.80274318e-02, -3.49428207e-02, -8.08672458e-02,  2.35199425e-02, -7.68584013e-02, -3.91245075e-02,  8.59709904e-02, -3.20999362e-02,  5.35248443e-02,  5.56714050e-02, -8.72887578e-03,  4.61007729e-02, -3.41690928e-02, -8.41675401e-02, -8.17897171e-02, -7.97031820e-02, -6.80342764e-02,  5.29721081e-02, -8.18701610e-02,  1.13379024e-02, -2.62087323e-02, -3.15947868e-02},
 { 4.55965362e-02, -2.78592594e-02,  1.11441389e-02,  2.46550906e-02,  7.31588602e-02,  1.85178183e-02, -8.39711949e-02,  1.53916907e-02,  6.12092763e-02, -8.13974589e-02, -7.54442289e-02,  6.21240027e-02,  5.00153080e-02,  7.13308975e-02,  6.35320991e-02,  2.05880012e-02,  2.37649269e-02, -1.66241657e-02, -6.47591799e-02,  8.72864109e-03, -8.20026621e-02,  3.98710510e-03, -2.96777077e-02, -3.51426341e-02, -8.57087225e-02,  3.07892039e-02, -4.46990058e-02,  7.59569183e-02,  1.64152887e-02, -3.08212303e-02,  4.23951484e-02, -5.46809845e-02, -5.38057648e-02,  5.13628498e-02,  1.14768464e-02,  3.14934663e-02,  3.29560079e-02,  4.12297028e-04, -2.19896212e-02, -6.88868538e-02},
 {-5.64248823e-02, -1.33906566e-02,  2.74134018e-02, -3.35408561e-02, -4.53671068e-02,  7.84057602e-02,  2.33985167e-02,  1.86596159e-02,  2.75460556e-02, -1.33067425e-02, -6.15688674e-02, -4.52064797e-02, -7.58139491e-02, -2.21821722e-02,  4.73560840e-02,  7.42697120e-02,  3.21317418e-03, -1.46910793e-03,  7.96726421e-02, -2.77182274e-02, -2.74830833e-02, -5.21885753e-02,  4.17552106e-02,  3.95923741e-02, -4.11040597e-02,  3.38745676e-02, -6.68900013e-02,  5.46707809e-02,  5.62517829e-02,  6.61967173e-02,  5.51233776e-02,  2.84036156e-02, -4.20028456e-02,  7.33147040e-02, -6.66158497e-02,  1.09711383e-02, -3.55986655e-02,  3.35256644e-02,  3.90908942e-02, -5.22701517e-02},
 { 3.21912766e-02, -5.63367940e-02,  5.12705892e-02, -1.64315663e-02, -8.11966322e-03, -5.84250763e-02,  1.32305836e-02, -2.18953080e-02, -8.53477940e-02, -6.25484018e-03, -4.37933803e-02, -7.36065134e-02,  3.17706168e-02, -1.19165704e-02, -7.04222247e-02,  7.54526258e-02,  6.69940710e-02, -5.45645691e-02,  4.43856679e-02,  6.60844073e-02, -5.25400490e-02, -2.65668463e-02, -7.35958293e-02, -8.55770707e-02,  5.84359765e-02, -9.94956866e-03,  6.10998087e-03,  2.67250650e-02,  6.99315742e-02, -1.35967173e-02, -1.23543758e-02, -4.33383025e-02, -5.34057198e-03, -8.28356072e-02, -3.26510854e-02, -1.42224431e-02,  8.35293233e-02, -3.92946526e-02, -1.85597758e-03,  1.06389280e-02},
 { 6.20383918e-02, -4.73813526e-02,  4.79207933e-02, -1.79057643e-02,  2.21605655e-02,  8.34225640e-02, -4.71298918e-02,  2.31615845e-02,  4.79539745e-02, -6.41203001e-02,  7.11277798e-02, -8.90093669e-03,  9.36791766e-03,  4.34644669e-02, -6.22081235e-02, -7.75434868e-03, -7.66075626e-02,  2.63513587e-02,  3.78282066e-03, -4.56736656e-03,  6.66004941e-02, -6.97562005e-04,  3.16749625e-02, -4.69535153e-04, -2.22615879e-02,  6.18517436e-02, -7.09615797e-02,  2.82336529e-02,  6.06748229e-03,  4.93350811e-02,  3.99597995e-02, -6.93895742e-02,  6.14114031e-02,  4.33236361e-02, -4.26639710e-03,  6.06522635e-02, -3.58919948e-02,  1.87690724e-02,  8.27700272e-03, -3.03673204e-02},
 {-3.87737062e-03,  6.30391762e-02, -3.76494266e-02, -7.26637691e-02, -1.65726319e-02,  1.62409304e-03, -6.40726984e-02,  5.56917116e-02, -2.85647903e-03, -1.09256478e-02,  2.12794412e-02, -2.21748743e-02,  7.25872293e-02, -4.61885296e-02,  4.32275012e-02, -1.53799821e-02,  7.43959919e-02,  5.63630275e-02,  2.15189550e-02,  7.75945708e-02, -6.21885881e-02,  8.05616826e-02, -5.49913533e-02,  7.93414935e-02,  5.87848946e-02,  1.88649334e-02, -8.55381191e-02, -1.52646238e-02, -4.01910692e-02,  7.18619674e-02, -4.03071903e-02,  6.05975874e-02,  8.44794810e-02, -7.78599232e-02,  5.47196008e-02,  6.15474880e-02, -6.10315660e-03, -3.28310132e-02, -7.83799868e-03, -1.36201046e-02},
 {-5.03239445e-02, -8.49028230e-02, -8.18810910e-02,  8.06968957e-02, -4.23178189e-02,  4.41679247e-02, -3.36995395e-03, -1.68909561e-02, -7.85365105e-02,  5.62720113e-02,  3.50882672e-02,  4.85751703e-02,  2.57477276e-02, -5.11266589e-02, -4.23935950e-02, -1.51914358e-02,  2.35618856e-02,  5.30669168e-02,  3.14228013e-02, -7.94089809e-02,  1.72629394e-02, -8.02950189e-02,  3.87451053e-02, -1.68288965e-02, -7.22291023e-02, -2.51072401e-04, -7.55277798e-02, -5.05792834e-02, -2.76225340e-02,  5.52967153e-02, -3.46390828e-02, -8.47669765e-02, -2.52880920e-02,  2.89648790e-02,  2.38350816e-02,  8.88353959e-03,  1.85715233e-03, -7.02015311e-02, -8.51809513e-03,  3.17677995e-03},
 {-8.18580166e-02,  5.42320274e-02,  2.32909769e-02, -7.48534948e-02, -7.91311190e-02, -1.07840989e-02, -6.45990744e-02, -5.99413961e-02,  4.23996933e-02,  3.74869816e-02, -4.29494530e-02, -4.28156881e-03, -1.45894159e-02, -5.08607700e-02,  7.86341280e-02, -3.63414898e-03,  7.37135112e-03,  5.55166826e-02, -5.15536070e-02,  1.84930507e-02, -1.14682624e-02, -2.61561386e-02,  4.35446389e-02,  4.45978679e-02, -1.66424252e-02, -2.39275601e-02,  5.60085662e-02,  2.24335883e-02,  5.00727147e-02,  4.44992259e-02, -6.93472847e-02, -4.34024855e-02,  2.76074447e-02, -7.95323476e-02,  1.96692850e-02,  4.92118299e-02,  4.35889661e-02, -1.08012054e-02,  2.58601997e-02,  2.81980336e-02},
 { 1.08212680e-02,  1.88239291e-02, -9.88164544e-03,  9.12408531e-03, -1.75427198e-02,  3.53101492e-02,  1.76963434e-02,  7.00148940e-02, -3.16268951e-02, -3.27961072e-02, -5.94628528e-02,  2.87634134e-03,  7.21244961e-02,  4.75428104e-02, -1.63833722e-02, -2.44253054e-02, -9.83287394e-03,  3.03608999e-02,  3.40061933e-02,  5.22409976e-02,  1.91446394e-03, -7.20338821e-02, -2.74667218e-02, -6.45702556e-02,  3.61910760e-02, -2.76870728e-02, -9.75395739e-03,  3.78683135e-02,  2.21617892e-02, -1.63951144e-02, -6.11196235e-02,  5.24345636e-02, -3.81337851e-03, -8.45285431e-02,  3.94969508e-02, -3.97653803e-02,  5.47108352e-02,  3.38037610e-02, -6.83747828e-02,  4.39949930e-02},
 { 5.68892360e-02, -8.24378431e-02, -2.88924202e-02, -5.27551696e-02,  3.42629030e-02,  6.17381632e-02, -4.76834290e-02,  6.67562336e-02, -5.07091396e-02,  1.71766803e-02, -7.37150535e-02, -2.19768360e-02, -7.32897222e-02, -6.02571703e-02,  4.79492396e-02,  2.11892277e-03, -5.73762357e-02,  4.51417267e-02,  6.47699982e-02,  2.77666748e-03, -2.48056091e-02,  5.86621612e-02,  7.28543699e-02, -7.04509243e-02,  4.67594564e-02, -6.97512031e-02,  5.41573018e-03,  6.76256120e-02,  4.84040380e-02, -1.41246021e-02, -8.34794715e-02, -1.93107203e-02, -9.81393456e-03,  9.05344635e-03, -5.52498400e-02, -5.55554628e-02, -8.18136856e-02,  6.64392263e-02,  4.05590981e-03,  5.36743701e-02},
 { 5.03137382e-03, -3.67382169e-02, -3.72581370e-02,  2.80731153e-02, -6.18849508e-02, -7.84676429e-03, -3.11527401e-02, -5.70279872e-03, -3.08957752e-02, -7.75989443e-02, -8.80700257e-03,  1.79184526e-02,  7.57999942e-02, -3.28274742e-02, -8.44785422e-02, -5.71920872e-02, -2.29935404e-02, -1.25805642e-02,  1.91809312e-02,  5.76658659e-02, -8.46223012e-02,  6.57547340e-02,  3.30792814e-02, -5.50650209e-02,  3.32412906e-02, -4.45030518e-02,  1.54900439e-02, -7.30135590e-02,  4.17803461e-03,  4.87583429e-02,  4.73917872e-02, -8.13160315e-02,  5.90647720e-02, -8.43683109e-02,  1.02883764e-02, -1.70836840e-02,  6.40283450e-02, -5.84298857e-02,  5.97610837e-03, -1.60799492e-02},
 {-5.71866613e-03,  9.27696005e-03,  6.07894100e-02,  5.87451421e-02,  8.14453512e-02,  4.43880120e-03,  5.58926091e-02, -2.06794925e-02,  5.65482713e-02, -3.95796299e-02, -3.75909731e-02,  4.93142083e-02,  4.53689098e-02,  7.49203265e-02,  4.30937819e-02, -1.87477972e-02, -5.15643023e-02, -7.49678016e-02, -3.84248197e-02, -6.26281947e-02,  7.42088705e-02, -3.47103924e-02, -4.64509837e-02, -3.32101695e-02,  7.71367103e-02, -5.90213947e-02,  3.55785787e-02, -4.49314229e-02, -7.79606700e-02,  7.93072507e-02, -1.47073045e-02,  1.92557760e-02, -5.91529533e-02, -8.09977725e-02,  4.74441461e-02,  4.97891894e-03, -2.94548143e-02,  4.36122529e-02, -3.12599912e-02,  9.14535578e-03},
 { 8.53163600e-02, -3.93921547e-02,  2.38406435e-02,  7.62184570e-03, -3.24989902e-03, -7.63147473e-02, -2.88821720e-02,  6.09537512e-02, -1.22319693e-02,  2.09294669e-02,  8.10276810e-03, -5.33973873e-02,  4.77377549e-02,  7.92458802e-02, -2.41365116e-02,  3.93757783e-02,  5.47982641e-02,  6.03598729e-03,  1.10927299e-02,  6.82090148e-02, -8.48447345e-03,  1.01410840e-02,  5.99697642e-02,  1.77115127e-02,  3.95971127e-02,  5.66078983e-02, -7.46514797e-02, -7.47094080e-02,  3.65167893e-02,  4.90547419e-02, -5.64086176e-02, -7.61780217e-02,  5.67894541e-02,  1.41203636e-02, -5.90184815e-02,  8.08363259e-02,  3.81737500e-02, -2.43158005e-02,  1.68087929e-02,  2.72970945e-02},
 {-8.11315328e-02,  6.89274520e-02,  4.26548906e-02,  2.70269364e-02, -4.98615354e-02, -7.42213130e-02, -5.00035957e-02, -3.96453030e-02, -1.67780872e-02,  2.65980326e-03, -2.63041537e-03, -5.64500829e-03, -3.74051742e-02, -4.99592461e-02,  4.83268127e-02,  6.11721240e-02,  3.48013341e-02,  5.42450882e-02,  5.08431494e-02, -2.62137391e-02, -2.84615103e-02, -4.24041674e-02,  7.08822459e-02,  7.13530555e-02,  2.49407180e-02,  1.38479862e-02,  2.76238136e-02, -5.17531708e-02, -3.28231156e-02, -6.94040805e-02, -2.91044749e-02, -5.57494834e-02, -8.05697888e-02, -5.10060824e-02,  6.05227835e-02,  5.66949993e-02,  6.17126748e-02, -2.32764408e-02, -4.80975136e-02,  7.42664263e-02},
 { 2.94817761e-02, -5.66623993e-02, -5.10762148e-02, -5.65970391e-02, -6.50845170e-02,  2.58118026e-02, -5.12472019e-02, -8.40804428e-02,  1.79042909e-02,  5.85134476e-02,  3.47216763e-02,  1.79603975e-02, -5.82318269e-02,  3.54205146e-02, -6.82169497e-02,  2.21728571e-02, -1.79445669e-02,  7.08393827e-02, -2.31327023e-02, -2.21032482e-02, -1.53709548e-02, -1.29293930e-02,  5.12740090e-02,  1.17718466e-02,  4.33866307e-02, -3.68109718e-02,  7.54014179e-02, -6.27526268e-02, -4.69354242e-02, -5.22647519e-03, -2.45705880e-02, -1.90582741e-02,  6.33970872e-02, -4.18290292e-04, -2.54659168e-03, -7.38374591e-02,  5.52812293e-02,  1.89699233e-02, -8.61214101e-02, -7.57910404e-03},
 {-3.86309959e-02, -5.74275386e-03, -4.59848270e-02, -1.09193928e-03, -5.59324846e-02,  5.44517785e-02, -3.21673043e-02,  1.50853042e-02, -1.54165309e-02,  3.37396301e-02,  4.37086038e-02, -1.27199832e-02, -3.61754224e-02,  5.16189709e-02,  5.63753061e-02,  2.59159133e-02, -5.66620789e-02, -5.85432583e-03,  7.28255138e-02, -8.22095796e-02,  6.57952875e-02, -2.67356727e-02,  2.75201374e-03,  8.19697827e-02,  4.26386893e-02, -5.41196950e-02,  2.56995857e-02,  5.58040515e-02,  6.65313974e-02,  7.22470060e-02, -7.91234449e-02,  2.73497216e-02, -5.69556467e-02,  5.54347225e-02,  1.57340523e-02, -5.62242046e-02,  4.13025320e-02,  1.46825053e-02,  7.02957660e-02, -3.93679142e-02},
 {-4.87917736e-02,  4.46025655e-03,  5.92071004e-02,  4.58115265e-02,  5.99767342e-02,  5.33514582e-02, -2.57887691e-02, -6.40867800e-02, -7.44184554e-02,  6.81080148e-02,  6.18798770e-02,  3.09785791e-02,  8.39951411e-02, -4.71699089e-02, -2.08088793e-02, -6.16928749e-02, -9.74252820e-04,  3.88485081e-02, -2.10422762e-02, -5.16367331e-02,  6.01368845e-02,  8.59397128e-02,  1.45529499e-02, -7.93757886e-02, -1.52366189e-02,  1.22532398e-02,  4.63360697e-02, -4.52324748e-02,  5.20704947e-02, -4.24734503e-02, -1.27908895e-02, -5.08915037e-02, -7.84329996e-02,  4.56426963e-02, -1.78443547e-02, -4.02343385e-02,  2.06558337e-03, -3.54813971e-02, -1.24458792e-02,  2.97930446e-02},
 { 2.33237469e-03,  3.52230780e-02,  3.32568772e-03,  2.65767630e-02, -5.89686865e-03,  6.71708360e-02,  6.61048517e-02,  5.26073098e-04,  5.06001525e-02,  1.41264056e-03,  5.35992496e-02,  6.06301203e-02, -5.80832399e-02, -1.47315431e-02, -2.28426997e-02,  1.81572270e-02, -1.98819092e-03, -7.95572996e-02, -8.79055634e-03, -1.15387235e-02,  7.65655190e-02,  2.96582710e-02,  5.25942333e-02,  5.90186492e-02, -5.82297193e-03,  7.67634362e-02,  8.24360251e-02,  3.77082713e-02,  1.52800772e-02,  5.44300340e-02,  6.97195828e-02, -3.04831155e-02, -1.39442564e-03, -4.32021171e-02, -1.85495857e-02,  3.02658938e-02, -7.17956200e-03, -7.91681707e-02,  1.74396124e-03,  8.15253332e-03},
 {-1.82935204e-02, -6.57349005e-02, -3.40248086e-02,  4.52556200e-02,  3.44909132e-02, -1.42350188e-02,  7.61195049e-02, -3.31921782e-03, -4.93682735e-02, -1.60458125e-03,  2.24079425e-03,  6.71439841e-02, -6.23121150e-02,  8.31863433e-02, -3.16723585e-02, -6.99790269e-02,  2.24892516e-02, -5.00493385e-02,  1.47629073e-02, -8.05283524e-03,  6.17543831e-02,  3.15673649e-02,  2.48842444e-02,  1.88411109e-03, -1.18744560e-02, -6.76956102e-02, -6.38959035e-02, -5.33834361e-02,  7.66090825e-02, -1.01694958e-02, -6.45689890e-02, -6.23141862e-02,  7.52753094e-02,  5.92045449e-02, -2.72770319e-02, -2.19282713e-02, -5.69776408e-02,  6.15023561e-02, -3.98855619e-02,  6.25860393e-02},
 { 8.72394890e-02,  3.72303016e-02,  3.72154750e-02,  7.93087389e-03,  2.83187721e-02, -5.77195138e-02,  1.32462028e-02, -8.81678164e-02, -1.86599754e-02,  7.43766204e-02, -6.38003349e-02, -5.83717600e-02, -2.75885444e-02, -7.65009075e-02, -6.14034273e-02,  5.29275043e-03,  6.80625811e-02,  6.18095770e-02, -6.56568334e-02, -2.63690222e-02, -1.11222565e-02,  1.78266922e-03, -4.71380614e-02, -1.14609150e-03, -3.98534760e-02, -5.94955906e-02,  4.48668003e-02,  1.24959992e-02, -2.58233491e-03, -9.88335256e-03,  8.17431696e-03, -5.49757183e-02, -1.17783947e-02,  5.52153401e-03,  6.80705011e-02, -5.89555055e-02, -7.07549974e-03, -6.36608526e-02,  4.78206240e-02, -3.84246446e-02},
 {-1.68136898e-02,  6.94108084e-02, -6.54668510e-02, -4.29249741e-02, -7.20809102e-02,  4.54035401e-02, -2.28343327e-02, -2.49870662e-02, -1.55002344e-02,  3.01849935e-02, -3.35302614e-02,  6.94404021e-02,  8.29402134e-02,  3.98749299e-02,  6.06091321e-02, -6.89652637e-02,  6.78886995e-02, -3.28019708e-02, -5.05724549e-02,  4.05678526e-03, -2.00654157e-02, -6.79743662e-02, -7.67329782e-02,  6.71076998e-02, -1.39086023e-02, -2.97056488e-03,  3.25422399e-02,  4.09765579e-02,  6.40735477e-02,  8.18557814e-02, -3.30563337e-02,  3.43230180e-02, -2.16323547e-02,  6.80804104e-02, -6.06432855e-02,  1.81892365e-02,  7.85159916e-02,  1.15529709e-02, -7.37987980e-02,  1.66073181e-02},
 { 3.24507765e-02, -3.40894759e-02, -4.16677333e-02, -3.39541875e-04, -3.35132033e-02, -3.57600022e-03, -6.91333860e-02,  6.45894110e-02, -3.42654027e-02, -1.50780017e-02,  5.71969375e-02,  6.69335499e-02,  7.71581009e-02,  5.89857213e-02,  1.25577562e-02, -7.12706298e-02, -6.23902902e-02, -4.22126651e-02, -4.96671610e-02,  7.15125203e-02, -2.63099317e-02,  7.19310716e-02, -4.56858277e-02, -7.25707132e-03, -1.72893256e-02,  2.57789176e-02, -1.76326707e-02,  3.69761325e-02,  1.80134475e-02, -5.81375919e-02,  6.87049031e-02,  8.89092237e-02, -1.52296163e-02, -6.75097629e-02,  4.44868430e-02, -2.15687547e-02, -4.96792570e-02, -4.98134606e-02,  1.07036671e-02, -6.77946880e-02},
 { 8.40806141e-02,  8.72525270e-04, -2.07873285e-02,  8.97609964e-02, -8.33941847e-02, -4.29632924e-02,  1.76099595e-02, -2.37477124e-02, -1.16719138e-02,  4.29285355e-02,  8.15771073e-02,  6.61485940e-02,  7.01324344e-02,  3.64112854e-02, -5.89791052e-02,  7.49698728e-02,  2.42194496e-02, -3.50770615e-02, -6.85536815e-03,  5.72327152e-03,  6.88171461e-02, -5.97604699e-02, -5.57714468e-03,  5.18956743e-02,  2.83119897e-03,  6.51363656e-02,  8.43798816e-02,  4.39298563e-02, -6.66636787e-03, -6.87680095e-02,  7.05660973e-03,  3.32756564e-02, -2.55558663e-03, -6.10242821e-02,  8.34521502e-02, -7.29927234e-03, -1.87143665e-02,  6.82105497e-02,  7.44432658e-02,  5.72178960e-02},
 {-6.10904135e-02, -2.02536839e-03,  2.21043117e-02,  2.66168406e-03, -8.02500024e-02, -6.46133497e-02,  9.27703548e-03,  4.21899594e-02, -6.59986511e-02, -3.28282802e-03,  5.51699400e-02, -6.67096302e-02,  5.70216216e-02,  2.50234567e-02, -8.01478401e-02,  3.80138378e-03,  4.13930649e-03, -2.57482356e-03,  5.56299835e-02,  8.12313557e-02,  1.40856486e-02,  7.78195411e-02,  8.35612342e-02, -5.72395548e-02,  8.04919470e-03, -4.46869023e-02, -4.08857279e-02, -5.33106588e-02, -4.73323427e-02, -9.15918872e-03,  4.57771868e-02,  2.29287874e-02, -9.58496064e-04, -4.81010750e-02, -3.77523043e-06,  6.11638501e-02, -6.32015765e-02, -5.02809361e-02,  7.35892951e-02, -1.31674791e-02},
 { 3.75384949e-02,  5.45669952e-03, -3.33146118e-02,  1.67162735e-02,  7.29399025e-02, -3.43794003e-03,  5.58988117e-02, -3.06419525e-02, -3.18360999e-02, -7.01564476e-02,  8.05343762e-02, -3.93014476e-02, -2.94315554e-02, -4.50607110e-03, -6.08764961e-03,  3.79008353e-02, -3.20321023e-02,  2.43601594e-02,  4.62898873e-02, -4.83109951e-02,  5.45955151e-02,  7.01344013e-02, -2.91505847e-02, -5.32733314e-02,  4.74916771e-02, -6.66888729e-02,  5.82138933e-02, -6.25866130e-02,  6.57733455e-02, -6.27287924e-02, -6.04808666e-02, -5.22263907e-02, -8.91115293e-02,  2.24197600e-02, -4.88100201e-02, -4.28234879e-03, -9.11261961e-02,  4.93497923e-02,  7.43136406e-02, -9.54515021e-03},
 {-2.98542753e-02,  4.64538746e-02, -6.26073629e-02,  7.58161694e-02,  5.42610064e-02, -5.14303930e-02, -5.57585657e-02,  1.11025600e-02,  2.59267390e-02,  1.05069466e-02, -4.97980788e-02,  4.05228361e-02, -4.12042439e-02, -9.37713757e-02,  3.81737798e-02,  5.11319749e-02,  1.29242167e-02,  1.87552422e-02,  2.04728469e-02,  5.68643808e-02,  3.65401618e-02, -7.14174062e-02, -6.08412847e-02, -2.12621093e-02,  8.03263038e-02,  3.84766050e-02, -3.41955274e-02,  6.92136027e-03,  5.85836843e-02,  2.27556527e-02, -1.64509807e-02, -6.75873384e-02,  6.63142726e-02,  7.03792199e-02,  3.98905911e-02,  2.08259895e-02,  2.18925672e-03, -4.45296764e-02, -1.27796060e-03, -6.29496053e-02},
 { 4.55495417e-02,  5.01280315e-02, -2.20119231e-03, -5.19870259e-02, -7.09833950e-02,  3.65400277e-02,  7.36027199e-04, -7.64584020e-02, -5.48976660e-02,  7.56345764e-02,  5.61167225e-02,  1.81146245e-02,  4.68175672e-02, -5.09519391e-02,  6.38980884e-03, -4.24277857e-02, -4.48747166e-02,  3.59283574e-02,  3.01105925e-03,  4.91218530e-02,  1.21758692e-02,  7.18820617e-02,  9.02473181e-02, -4.96042259e-02, -2.52705859e-03,  7.71942511e-02,  4.13774177e-02, -1.00526161e-01, -5.68151325e-02,  8.92243385e-02,  8.47455463e-04, -7.05009997e-02, -7.18051493e-02,  4.77790460e-03,  3.47821489e-02, -1.21981017e-02, -7.53223598e-02,  6.11135066e-02,  3.75630185e-02, -6.63850158e-02},
 { 8.98371041e-02, -2.06866842e-02, -6.68731928e-02, -5.99992387e-02,  5.67411780e-02, -6.17447160e-02,  4.16667499e-02,  5.79451323e-02,  7.97041804e-02,  2.13843323e-02,  1.44521957e-02,  2.72494601e-03, -7.32068494e-02,  2.92971227e-02, -7.49154389e-02, -3.32600288e-02, -1.18303699e-02,  6.05497882e-02, -1.05799474e-02, -6.01954423e-02, -7.76872635e-02, -4.60939743e-02, -6.10698462e-02,  3.94495651e-02,  7.56230727e-02,  6.86881468e-02,  2.27132104e-02,  1.09223258e-02, -5.23461737e-02, -2.45048124e-02, -6.69008642e-02, -7.06669688e-02,  6.32825121e-02, -7.06264079e-02,  2.52911691e-02,  6.51913509e-02, -8.07882473e-02, -1.56209311e-02,  3.53841335e-02,  6.01427108e-02},
 { 3.88361402e-02,  6.54921457e-02, -4.12895754e-02,  4.20298055e-02,  3.06236529e-04,  6.77431375e-02,  8.32642838e-02, -2.75054313e-02, -8.99551585e-02, -1.73862297e-02,  4.89300080e-02,  2.27465704e-02,  6.70255441e-03, -3.43929790e-02, -2.37737875e-02, -8.49560350e-02, -1.61939412e-02,  3.81438732e-02,  4.29826304e-02, -5.45458123e-02,  3.58370021e-02,  4.64262031e-02, -4.07371111e-02,  6.73998818e-02, -6.78385496e-02, -2.38960632e-03,  3.27504203e-02, -2.45692004e-02,  2.36875797e-03,  3.78493071e-02, -1.71086155e-02,  6.27874061e-02, -4.97312397e-02, -4.22481559e-02,  5.19532710e-03,  4.13068868e-02, -6.78452924e-02,  3.84460799e-02, -7.26052970e-02, -2.09202822e-02},
 { 8.03777725e-02,  7.36761689e-02, -6.07993267e-02, -3.87598500e-02, -3.80547754e-02, -2.18776800e-03,  2.46969424e-03,  5.69070689e-02, -3.36473025e-02, -1.19204363e-02,  7.57468566e-02,  7.51844570e-02,  5.86231910e-02, -2.00601052e-02,  7.67069757e-02,  6.63135946e-02,  1.01312594e-02,  9.05270800e-02, -8.51691328e-03,  5.97886406e-02, -8.18423033e-02,  1.69756915e-02,  5.35624987e-03, -2.04760302e-02,  5.85386939e-02, -2.02761916e-03,  7.65787587e-02, -1.01247393e-02,  5.52565884e-03, -1.68629531e-02,  4.99506555e-02,  2.54441537e-02, -1.52064580e-02,  5.68712428e-02,  6.27662987e-02,  2.38469969e-02, -1.70355197e-02,  4.21404578e-02, -7.15825036e-02, -1.01126637e-02},
 { 4.92934361e-02, -7.52019659e-02, -7.11956471e-02,  6.49803951e-02, -6.05522580e-02,  1.88547410e-02, -7.51565471e-02,  5.47414832e-02,  5.05047366e-02, -8.55934632e-04,  5.17529026e-02, -2.67433259e-03,  3.37444991e-02,  3.44003029e-02,  3.35839316e-02, -7.50432462e-02, -2.64044777e-02,  9.18007717e-02, -1.20517984e-02, -4.74617779e-02, -5.24348132e-02, -3.30763357e-03, -4.69795763e-02,  5.42451628e-03,  1.45324832e-02, -7.10981488e-02, -4.42872681e-02,  4.29405048e-02,  9.73374248e-02, -7.15057403e-02,  3.21252607e-02, -1.90220792e-02,  2.95985602e-02, -4.54130629e-03, -7.21861795e-02,  7.20288530e-02,  2.61784587e-02, -4.61592935e-02,  3.54734287e-02, -2.17617992e-02},
 { 8.22000802e-02,  4.92129587e-02,  8.63155201e-02, -2.12893710e-02, -1.91396531e-02, -1.26939081e-03,  2.43981574e-02, -4.97606723e-03,  6.57849684e-02, -7.82056227e-02, -8.02830160e-02,  5.55785820e-02, -6.49820343e-02,  8.28485414e-02,  1.05363140e-02, -8.71555358e-02,  6.12044074e-02,  8.16881210e-02, -1.41636906e-02, -7.77271166e-02, -7.59864599e-02,  1.51455980e-02,  3.25913355e-02,  2.19366103e-02, -6.80548176e-02, -1.07150357e-02,  6.18286207e-02,  7.26350099e-02,  6.34691790e-02,  3.39316837e-02, -8.37095175e-03,  4.82010879e-02, -5.00601009e-02, -4.75691585e-03, -6.90105632e-02, -7.08142743e-02,  5.68518275e-03,  3.12412921e-02,  5.23279123e-02,  6.45769387e-02},
 {-7.75096416e-02, -7.02382177e-02, -3.25285122e-02, -1.49352932e-02, -8.37171003e-02, -4.64639217e-02, -5.42979650e-02,  4.23476100e-02,  3.04648429e-02, -6.40621856e-02, -2.99785938e-02, -1.22614214e-02, -1.34822475e-02, -1.10706100e-02, -4.80718650e-02, -6.55795857e-02,  9.47323535e-03,  8.24121907e-02, -6.80098608e-02, -6.77574873e-02, -6.98414892e-02, -1.87320020e-02,  7.54583329e-02,  2.86905784e-02, -3.84314135e-02, -3.82723622e-02, -6.46370724e-02,  6.72058016e-02,  2.77270339e-02,  3.67534719e-02, -1.10365963e-02,  1.82450544e-02,  5.00202291e-02, -1.84029583e-02,  3.17283832e-02,  1.12907672e-02,  4.78411131e-02, -4.16352823e-02,  5.51765179e-03,  2.68554557e-02},
 {-2.90479548e-02, -6.30763173e-02, -7.36736357e-02, -3.11504025e-02,  6.42914250e-02, -1.89052857e-02, -5.60601018e-02, -5.27996235e-02, -3.89646292e-02,  7.47748688e-02,  1.97148286e-02,  7.63215199e-02, -2.43662801e-02,  5.70531376e-02,  4.92173135e-02, -6.95158467e-02, -3.61147672e-02,  2.95417121e-04,  7.44091272e-02, -4.68431078e-02, -3.39742713e-02, -2.11379323e-02, -3.07910051e-02, -6.11530542e-02,  4.19292785e-02,  6.25366941e-02, -5.16664870e-02, -6.38294294e-02, -7.39294384e-03, -2.19848845e-02, -1.57910772e-02, -2.61199521e-03, -6.97501749e-02, -7.60134459e-02,  1.79078579e-02, -7.11803287e-02, -5.90346428e-03, -3.28676254e-02, -5.10521345e-02, -6.62565306e-02},
 { 2.44176146e-02,  3.50375809e-02,  7.91429169e-03,  9.55380034e-04, -5.19787893e-02,  7.54823163e-03,  7.40079954e-02, -1.03716385e-02, -3.13553177e-02, -6.06353767e-02, -3.31427567e-02,  7.46139437e-02, -5.30820079e-02,  3.88180129e-02,  1.43982908e-02, -6.25294745e-02, -6.01276755e-02, -5.83392009e-02, -5.64085841e-02,  7.23587722e-02,  7.46207610e-02,  4.32404801e-02, -9.66973836e-04, -3.49174216e-02, -5.82629442e-02,  2.09341403e-02,  6.56653270e-02, -4.93960604e-02, -2.49392800e-02,  7.25841336e-03,  7.57742599e-02, -6.12922125e-02, -1.55838532e-02, -3.79617251e-02,  5.19756190e-02, -2.61781514e-02,  5.74449450e-02,  7.10367188e-02, -5.57476208e-02, -6.26092330e-02},
 { 3.22044455e-02, -7.25466982e-02,  6.52494580e-02, -3.78670059e-02,  5.29415049e-02,  6.91139027e-02, -6.42908886e-02,  2.18056291e-02,  4.38785367e-02,  3.61901559e-02,  3.74971442e-02,  6.22951649e-02, -3.53746004e-02, -3.20715345e-02, -2.67799739e-02,  3.49752791e-02, -2.70147566e-02, -4.11071442e-02, -1.65177956e-02,  6.53613210e-02,  1.43147893e-02,  2.58732028e-02, -5.33709228e-02,  7.38636963e-03, -8.90336279e-03, -4.43298109e-02,  3.52709219e-02, -6.61974698e-02,  3.49990726e-02, -6.14248030e-02,  7.65471905e-02, -4.96323518e-02, -6.37439936e-02, -5.21043688e-02, -6.52130470e-02, -2.99215149e-02, -8.46240446e-02,  6.38532490e-02, -1.35520035e-02,  1.94354411e-02},
 {-3.68255228e-02,  7.77205229e-02, -5.51816449e-02,  1.69405788e-02, -3.72664630e-03, -8.15174058e-02, -7.79364407e-02,  8.20344836e-02,  2.19781175e-02,  1.39897540e-02,  7.53218383e-02, -5.31767756e-02,  2.70087570e-02,  3.46953422e-03,  9.88103449e-03,  4.40539867e-02,  6.91990852e-02,  7.09394068e-02, -1.33042410e-02, -8.19888338e-02,  3.46417204e-02,  3.74469310e-02, -2.30967999e-03,  4.16225195e-03,  6.79650009e-02,  1.09186769e-02,  1.45936683e-02, -7.25315586e-02, -6.19077608e-02,  5.59409261e-02,  1.00926608e-02, -1.27594844e-02,  2.30670497e-02,  7.11009502e-02, -6.15967810e-03, -2.00171471e-02,  1.52686462e-02,  2.23630816e-02,  4.52060699e-02, -8.04016963e-02},
 {-1.08543038e-03, -6.81575388e-02,  5.88418096e-02,  6.55602515e-02,  5.05439043e-02, -1.11353844e-02, -5.42084575e-02, -6.01065159e-03, -8.25133920e-03,  3.88629884e-02, -2.14020163e-02, -2.24884003e-02,  6.36449307e-02, -1.41949132e-02, -2.98592634e-02,  2.62436345e-02,  3.13308761e-02, -1.44688711e-02,  6.66625649e-02, -2.54962519e-02, -6.48013502e-02, -5.26905768e-02,  3.53550240e-02,  1.34104416e-02,  8.10612291e-02,  7.57498592e-02,  1.52062476e-02,  7.23172277e-02,  5.31918555e-02,  5.58934510e-02, -6.08306304e-02,  7.07697272e-02, -5.21061309e-02, -1.90402716e-02, -6.15460500e-02, -6.44214451e-04, -6.73438534e-02, -4.88639623e-03,  6.16299361e-02, -6.97472394e-02},
 {-1.85969230e-02, -6.05095290e-02, -2.83438768e-02,  7.03674555e-02,  3.19932997e-02,  6.13806583e-02,  4.98166271e-02, -1.16047226e-02, -5.27965883e-03, -6.30215853e-02,  7.13170469e-02,  1.64344516e-02,  8.52588937e-02, -1.78972725e-02,  9.49395355e-03,  5.78610078e-02, -7.99111873e-02, -5.40753901e-02, -2.01049745e-02,  7.22685829e-02,  3.52961123e-02,  5.98588102e-02,  3.64222042e-02,  5.96948639e-02,  6.99411705e-02,  5.41628115e-02, -4.18781070e-03,  7.82607645e-02, -3.31688253e-03,  3.35402004e-02,  1.85168162e-03,  4.58152965e-02, -4.16271053e-02, -4.09572572e-02,  6.85575157e-02, -5.12368716e-02,  8.39685574e-02, -9.85719450e-03, -6.17280453e-02,  2.65051052e-03},
 {-8.12629610e-02,  4.93791327e-02,  7.23391101e-02,  3.66749689e-02, -6.16439246e-02, -3.02839000e-02,  6.16517439e-02,  6.78478405e-02, -6.04868829e-02,  6.65336028e-02, -3.76456715e-02, -4.92917411e-02,  6.88882843e-02, -1.46460328e-02, -7.78593868e-02, -8.03861395e-03, -2.77522188e-02,  3.21278013e-02, -6.26556277e-02, -2.16113590e-02,  4.50036628e-03, -8.26165304e-02,  1.78994238e-02, -8.14488158e-02,  1.83869153e-02, -8.14734027e-02,  4.69124801e-02,  5.09253480e-02,  2.38427869e-03, -8.16191658e-02, -9.07361333e-04, -2.31051221e-02, -5.37771955e-02,  3.16201486e-02, -7.53976330e-02,  2.02636584e-03,  3.29568349e-02,  3.97380739e-02,  2.43050549e-02,  3.57657261e-02},
 { 4.86546680e-02,  1.91932414e-02, -5.55765163e-03,  5.19559681e-02, -5.32497987e-02, -1.10866304e-03, -1.37681235e-03, -4.43675034e-02, -6.63062781e-02, -3.75505015e-02, -1.70113208e-06, -5.61651029e-02, -4.63552810e-02, -8.43046829e-02, -2.35045366e-02,  5.75775169e-02,  5.05281016e-02,  5.15501760e-02, -6.34330735e-02,  6.61137002e-03,  4.32195030e-02,  3.73987816e-02, -6.05604313e-02,  8.57800897e-03, -1.67674720e-02,  7.64870495e-02,  6.15637451e-02,  2.42033359e-02, -2.22436208e-02, -6.97671920e-02,  3.99768986e-02, -3.15285884e-02,  3.66800674e-03,  8.30329135e-02,  4.92534004e-02,  8.47980827e-02,  7.14553669e-02,  7.70275518e-02, -1.49484482e-02, -4.36535962e-02},
 {-6.78231120e-02,  1.23638241e-02,  4.08718549e-03,  3.86713184e-02,  1.84825566e-02, -7.27900192e-02, -1.76820047e-02,  3.86908874e-02,  1.81169026e-02,  7.83480406e-02,  3.87059234e-04, -5.94754517e-02, -7.83489347e-02,  7.58743957e-02, -3.91387194e-03,  5.64541779e-02, -7.21010938e-02, -6.16526790e-02,  6.95268065e-02,  1.66595131e-02,  1.08841539e-03,  7.46635646e-02,  5.12353778e-02,  1.88481212e-02, -3.00223865e-02,  7.81573877e-02,  3.55067067e-02,  7.95754641e-02,  7.29671493e-02, -2.60166246e-02,  1.15538687e-02,  6.76419139e-02,  1.77679006e-02, -4.89274748e-02,  1.50286388e-02, -6.70843720e-02,  1.91198550e-02,  1.40255243e-02, -8.19741860e-02, -3.68110947e-02},
 { 6.48096874e-02,  5.99689223e-02, -5.28665520e-02,  5.04644401e-02,  9.51943267e-03,  6.77440166e-02,  1.03329029e-02, -3.75456773e-02,  3.09700333e-02,  4.38612327e-02,  2.25051735e-02, -6.49506152e-02,  6.15486875e-03,  1.47461221e-02, -3.07602026e-02,  7.46292248e-02, -8.37956145e-02, -2.45536305e-02,  3.61902080e-02, -4.27985527e-02, -8.15886557e-02,  8.81327689e-02, -5.78272305e-02, -4.96609770e-02, -3.19714174e-02, -6.35310560e-02,  5.79365566e-02,  8.45684409e-02, -5.37062660e-02,  3.15903127e-02,  4.29195426e-02,  9.21169147e-02, -4.84051108e-02, -6.75081387e-02, -7.43664578e-02, -3.61388363e-02, -6.34479523e-02, -6.32865354e-02, -8.59594792e-02, -6.65326640e-02},
 { 2.30900366e-02, -9.34989750e-02,  5.02979718e-02, -5.10687828e-02,  6.84178574e-03, -1.47409411e-02, -5.44367768e-02, -5.54280728e-02,  2.27246527e-02,  3.27895172e-02, -5.68019366e-03, -5.78785837e-02, -8.55745971e-02,  4.90609631e-02, -8.61780569e-02, -5.71738258e-02, -6.44609183e-02, -7.87124112e-02, -4.12435159e-02,  5.48810624e-02,  3.25994343e-02, -5.14155291e-02,  1.13333045e-02, -7.06769750e-02, -4.55839513e-03, -5.00246370e-03, -1.22177862e-02,  6.15362376e-02,  6.87873289e-02, -6.08740151e-02, -7.52567872e-02,  3.83869186e-02,  2.12617610e-02,  3.70534062e-02,  5.50228469e-02, -3.72535884e-02, -3.07909716e-02,  1.74494693e-03, -8.03500563e-02, -1.61061212e-02},
 { 1.56714534e-03, -7.63601661e-02,  4.63016592e-02,  4.64089820e-03,  2.40199305e-02, -7.69187510e-02, -2.77352873e-02,  3.23072709e-02, -1.53979585e-02,  1.00064255e-01, -1.35488566e-02,  5.85318841e-02, -8.45213011e-02, -2.14815773e-02,  7.65568018e-03, -1.96036641e-02,  1.36485684e-03, -6.80532083e-02, -4.66875806e-02, -3.68758999e-02,  2.35340036e-02,  7.58679816e-05,  2.34672036e-02,  8.22870620e-03, -3.06769256e-02,  4.07586321e-02,  3.46379988e-02,  8.00123662e-02, -5.48644364e-02,  7.32896775e-02,  1.29273450e-02,  9.32159796e-02, -4.53928970e-02,  2.63374448e-02,  7.23266974e-02,  9.27594453e-02,  6.31583109e-02, -7.64307976e-02, -6.60235807e-02,  3.59558873e-02},
 {-5.63654453e-02,  4.96453196e-02, -1.66302361e-03, -4.29252088e-02,  2.45146304e-02, -9.98060778e-02, -2.78931037e-02,  2.38442812e-02, -5.15173227e-02, -3.16037014e-02, -8.72252733e-02, -5.32024354e-02,  1.29015930e-02,  4.03156644e-03, -8.68552085e-03,  7.19849393e-02, -7.25630671e-02,  6.59601092e-02, -8.73450860e-02,  5.28979376e-02, -3.46610835e-03,  2.91408296e-03,  1.80825274e-02,  4.81578000e-02,  4.86595295e-02, -2.33618058e-02, -6.70352951e-02,  2.38420125e-02,  8.14757794e-02, -7.66135901e-02, -6.80589154e-02,  8.61358866e-02,  3.85836810e-02, -9.84976441e-02,  5.44020347e-03,  6.89959228e-02,  7.50670284e-02,  4.31181565e-02,  2.26997826e-02, -6.25292063e-02},
 {-4.44393530e-02, -2.62132268e-02,  5.28611839e-02, -4.75703403e-02,  7.07305968e-02, -2.54671276e-02,  2.68440470e-02,  4.96281199e-02,  1.10927643e-02, -2.20755693e-02,  1.63616575e-02, -1.41693130e-02,  5.07944613e-04,  1.66196481e-03, -5.80292754e-02,  1.30249572e-03, -5.24108633e-02,  2.64175516e-02, -1.01487748e-01,  2.72631971e-03,  7.86350146e-02,  1.99207924e-02,  4.11283560e-02, -5.47270328e-02,  5.17378561e-02,  7.21855611e-02,  3.41744348e-02,  1.56984478e-02, -3.82945128e-02, -8.19554776e-02, -1.99069027e-02, -1.59563832e-02, -1.17505621e-02,  2.81564221e-02,  5.53166904e-02, -4.02603857e-02, -8.60882029e-02,  5.45248725e-02,  1.76473223e-02,  3.12935375e-02},
 { 5.62702566e-02,  2.92605422e-02,  5.06419502e-02,  5.76316416e-02,  5.64348288e-02,  6.27784757e-03,  9.18471292e-02, -8.61019045e-02, -2.87143122e-02, -2.40742378e-02, -5.47148995e-02, -2.32578684e-02, -5.70869111e-02, -4.44395244e-02,  6.55607432e-02, -2.68986225e-02, -7.58096576e-04, -2.42770556e-02, -5.49641550e-02, -2.63209902e-02,  5.80911376e-02, -5.55553995e-02,  7.80964345e-02,  5.62847480e-02, -2.56141331e-02, -2.39505656e-02, -3.76908481e-02,  1.10821441e-01,  5.44543415e-02, -9.25214123e-03,  3.63051184e-02,  1.11962937e-01, -5.98888658e-02, -2.04304289e-02, -7.62403160e-02,  5.55722266e-02, -7.24921227e-02,  8.41012970e-02, -9.49406028e-02,  3.49667594e-02},
 {-3.98447812e-02, -1.00816237e-02,  1.96022564e-03,  3.14460732e-02,  1.06438743e-02, -3.02584358e-02,  3.58786471e-02,  3.79944108e-02,  3.58361527e-02, -3.02878506e-02, -4.41487916e-02,  4.41874526e-02,  2.49807797e-02, -5.96300773e-02, -4.49802242e-02, -1.36994570e-02, -4.99780104e-02,  6.11693710e-02,  4.49136877e-03,  3.99306081e-02, -2.77712718e-02,  5.89115638e-03,  5.41155040e-02, -4.38958965e-02,  9.49913077e-03, -7.34265074e-02, -2.31969617e-02, -4.49198410e-02, -7.98148736e-02, -8.10086504e-02, -7.91849643e-02, -1.89256147e-02, -9.43085402e-02,  5.86186238e-02,  1.52283823e-02,  1.03843980e-01,  4.10420774e-03, -6.73466027e-02,  6.16617464e-02, -3.22089083e-02},
 { 6.29273579e-02, -1.72944460e-02, -8.41282234e-02,  5.98449446e-02,  3.94079238e-02, -7.82901887e-03, -3.18136474e-04,  2.18639020e-02, -9.73412246e-02,  9.80175808e-02, -8.45712796e-03,  5.15973307e-02,  5.55544421e-02, -4.43196334e-02, -4.35227491e-02,  9.39540491e-02,  1.29665257e-02, -1.15041956e-01,  2.60805134e-02, -3.06006968e-02,  3.82367335e-02, -4.85159792e-02,  6.22395128e-02, -1.13856811e-02,  2.86838189e-02, -7.42929727e-02,  4.42035962e-05, -6.30984753e-02, -1.00809271e-02, -6.69624358e-02, -4.01856117e-02,  5.28468527e-02,  3.34921591e-02,  1.45625593e-02,  5.97738177e-02, -5.96607476e-02, -6.92802370e-02,  6.59866706e-02, -6.97366055e-03, -6.86387122e-02},
 {-3.61688957e-02,  4.70385514e-02,  3.36376280e-02, -3.46410051e-02,  4.42468598e-02,  4.23297659e-02,  9.78642777e-02, -5.14876060e-02, -6.80136308e-02, -3.95156909e-03, -1.55030806e-02,  6.42138422e-02,  5.79500608e-02, -4.75810170e-02,  1.23355479e-03, -6.29124744e-03, -3.38779911e-02, -1.14469863e-01,  1.26564698e-02,  1.01195358e-01,  7.85947219e-02,  7.22504929e-02, -6.55380934e-02, -3.06960475e-02,  3.88560928e-02,  6.31360412e-02,  1.33567574e-02, -9.23561230e-02, -1.22716203e-02,  5.64137101e-02, -2.68320106e-02, -5.91023685e-03,  4.82093096e-02, -5.31416722e-02,  6.01464584e-02, -5.31000271e-02,  4.19627167e-02, -8.64749476e-02, -6.37643710e-02, -4.30878624e-03},
 { 6.15175404e-02,  2.88786981e-02,  1.71639435e-02,  7.16555342e-02,  7.95697197e-02, -5.27490713e-02, -5.86488936e-03, -3.71984281e-02,  3.35162476e-04,  3.96700874e-02,  5.60595952e-02,  3.81335914e-02,  1.21715730e-02, -8.49173367e-02,  1.71647873e-02,  8.98899790e-03, -1.97898448e-02, -5.59435040e-03,  9.63227171e-03,  5.75694479e-02,  1.43660780e-03, -8.85558724e-02, -3.49736474e-02,  1.38317933e-02,  1.47321045e-01, -4.59462702e-02,  3.47743034e-02,  3.09255011e-02, -1.16181880e-01, -1.07601881e-02, -8.35362896e-02, -6.58043697e-02, -2.71587148e-02,  1.05687134e-01,  5.76880053e-02,  8.42415169e-02,  2.44988631e-02, -8.93924199e-03, -1.23606855e-02,  4.84441146e-02},
 { 5.34037761e-02, -4.22615968e-02,  1.97014268e-02,  7.64532685e-02, -6.71402216e-02,  4.43042861e-03,  8.63588527e-02, -5.54333776e-02, -1.39122214e-02,  7.46085048e-02,  3.41845490e-02,  7.67427161e-02,  7.89919645e-02, -9.12944451e-02,  8.93433914e-02,  1.17378958e-01,  1.08177759e-01, -1.24140427e-01, -1.18722178e-01,  8.50985795e-02,  8.31019878e-02,  2.78655458e-02,  6.25726283e-02,  3.60692441e-02,  3.60766356e-03,  1.00573199e-02,  4.80590761e-02, -8.18835050e-02, -1.08787410e-01, -6.46865070e-02,  1.24228336e-02, -5.41784354e-02, -3.76225412e-02,  7.50520080e-02,  8.60672444e-02,  1.40815927e-02, -6.35038167e-02, -1.02962270e-01,  9.34446156e-02, -4.89966851e-03},
 { 3.77946161e-02, -9.40752551e-02, -6.09335117e-02,  1.30748197e-01,  1.38786365e-03, -7.20140189e-02,  2.16013324e-02, -7.11830854e-02,  4.17672507e-02,  6.48412332e-02, -3.02409707e-03, -8.30946676e-03,  2.27577407e-02,  5.42526245e-02, -1.58961974e-02, -9.05147567e-03,  5.19272834e-02, -8.64222944e-02, -1.99517123e-02, -3.49502712e-02,  7.23222271e-02, -4.28926088e-02,  3.80155370e-02,  4.66559129e-03,  1.76733173e-02,  1.12149706e-02,  6.60767127e-03,  2.25178879e-02, -1.30300811e-02, -1.68647151e-02,  1.89373679e-02,  4.26914319e-02, -7.89041594e-02,  7.91576356e-02,  1.12605756e-02,  4.52876613e-02, -1.19485177e-01, -1.03492223e-01,  8.60485137e-02, -5.24784774e-02},
 {-2.80506406e-02, -8.21684375e-02, -2.78291409e-03, -4.01951931e-03,  2.27994118e-02, -7.53366798e-02,  7.94802308e-02,  2.75754579e-03,  7.49780834e-02,  7.32291117e-02,  3.97876762e-02, -5.83048053e-02, -3.91829759e-02, -7.88295940e-02, -1.74104553e-02,  6.34139627e-02,  1.06004730e-01, -8.64549875e-02, -7.79214501e-02,  7.47902095e-02,  4.98949699e-02,  4.81850021e-02, -5.15583307e-02,  7.14693293e-02,  1.14795975e-01, -7.34194070e-02,  4.37624641e-02, -5.23057096e-02, -6.14284948e-02,  8.44743624e-02,  2.60851756e-02,  3.61378081e-02,  5.05046174e-03,  4.17830124e-02,  3.57845947e-02, -2.99299695e-02, -3.10341753e-02, -1.13598024e-02,  8.40543211e-02, -1.30832149e-02},
 {-6.87013865e-02,  3.88841629e-02, -1.96525399e-02,  2.65117045e-02, -2.68189125e-02,  4.91924817e-04,  9.14241932e-03,  1.15039097e-02,  2.63009798e-02, -2.79537831e-02, -1.27655396e-03, -2.80256886e-02,  7.26070479e-02, -1.60025563e-02,  8.30502957e-02,  5.04356064e-02, -2.84806185e-04, -1.04594335e-01, -1.59494244e-02, -8.09210527e-04,  4.99479771e-02, -3.01247109e-02,  3.48867886e-02,  3.89976688e-02,  9.58438218e-02, -7.78855979e-02, -4.65044305e-02,  3.29588652e-02,  6.63112849e-02, -4.22468781e-02,  4.29847240e-02,  1.33121023e-02,  1.57377264e-03,  8.12512264e-02, -5.25396094e-02,  9.74966912e-04, -7.45317936e-02, -5.53975292e-02, -5.00860065e-02,  1.27141373e-02},
 {-3.64638790e-02,  1.10750264e-02, -7.07513243e-02,  7.05062822e-02, -1.95096470e-02,  4.99083996e-02, -3.54161635e-02, -1.86219402e-02, -4.59252931e-02, -2.00596042e-02, -4.68005016e-02, -5.07926866e-02,  2.18595807e-02,  5.82096502e-02,  4.04063351e-02, -9.33264792e-02,  4.38156538e-03, -6.17979802e-02, -2.16975790e-02, -6.69317320e-02, -4.82767783e-02, -3.86993475e-02,  7.81361163e-02, -9.56850722e-02,  2.33320985e-02, -8.01142603e-02,  1.50051829e-03,  1.73120275e-02, -2.11970191e-02,  5.71589246e-02, -1.87097080e-02, -8.92844331e-03, -8.21742415e-02, -3.82257216e-02,  5.74125797e-02,  8.97753611e-02, -1.95123330e-02, -2.61307843e-02, -1.99129749e-02, -5.05201109e-02},
 {-9.35274661e-02, -1.41926827e-02,  3.33991386e-02, -3.46132517e-02, -3.25683765e-02, -9.88633037e-02, -4.63217013e-02,  5.83262295e-02, -6.08824706e-03,  7.10268989e-02, -2.57318560e-02,  7.76376948e-02, -5.44840144e-03, -3.92069034e-02,  6.16107173e-02, -5.13612889e-02, -6.00959435e-02, -5.55921607e-02, -2.15266570e-02,  1.40334088e-02, -8.43682736e-02,  8.19596574e-02, -6.57757968e-02, -1.75503064e-02,  7.57954344e-02,  4.62047718e-02, -1.77392475e-02,  5.18226735e-02, -8.90957844e-03, -5.19182831e-02, -2.29893122e-02,  2.13331915e-02,  5.35111018e-02, -7.59943277e-02, -7.37828687e-02,  6.68934062e-02, -6.44044876e-02,  6.22265115e-02, -1.17083741e-02,  8.75637867e-03},
 {-3.60376053e-02,  4.22582589e-02, -2.66666468e-02, -1.09877368e-03, -5.58879226e-02,  4.59493957e-02, -2.62296796e-02,  5.74344583e-02,  4.87163477e-02,  4.66436893e-02,  3.01571731e-02,  6.85903803e-02, -2.85061989e-02,  7.89612532e-02,  5.14681712e-02, -7.51980469e-02, -3.31684500e-02,  1.02260627e-01,  7.60959685e-02, -4.75633629e-02, -6.20836876e-02, -1.89873308e-03,  6.91457391e-02, -1.01839744e-01,  7.59949833e-02, -7.36697167e-02, -4.27593589e-02,  1.57974940e-02,  1.97238047e-02,  4.75751795e-02,  2.04902347e-02, -6.36125952e-02,  1.06531074e-02, -5.16198128e-02,  7.44037628e-02,  7.10534118e-03, -9.31927562e-02,  6.56658504e-03,  5.43782972e-02, -1.45925619e-02},
 {-6.06883243e-02, -6.74933866e-02,  3.06005217e-02,  5.62048294e-02, -3.54781710e-02, -1.06429636e-01,  4.02285196e-02,  1.79484729e-02,  3.89973028e-03,  2.70874351e-02, -6.36940673e-02, -5.55163063e-03,  6.67292774e-02,  3.70744839e-02, -7.21716657e-02, -4.12947312e-02,  2.51082750e-03,  5.26103936e-02,  6.15833420e-03, -4.93044294e-02, -4.27451171e-03, -3.28816287e-02, -1.16306990e-02, -9.27468762e-03, -7.15702474e-02,  7.76215596e-03, -7.90914819e-02,  1.14652924e-01, -3.16218995e-02, -1.45446304e-02,  3.73379476e-02,  2.01797262e-02,  6.10656887e-02,  4.56362106e-02,  1.46543107e-03,  9.23678949e-02, -2.66182199e-02, -2.96083465e-02,  6.76205307e-02,  4.87211123e-02},
 { 5.41324988e-02, -5.47857676e-03,  7.33748451e-02, -1.21499524e-02, -6.49476796e-02, -1.02712512e-01,  4.32961173e-02,  3.29236798e-02, -1.80126657e-03, -7.47589916e-02,  2.20146067e-02, -4.91028763e-02, -5.53222448e-02,  7.27582350e-02,  3.28680873e-02,  8.55893828e-03,  5.50292954e-02,  3.63547057e-02, -2.35171728e-02, -7.31264725e-02,  5.27219921e-02, -6.54352531e-02,  7.06565976e-02,  2.87323240e-02, -5.56632131e-02,  8.97558257e-02,  4.88535836e-02,  8.66350532e-02, -4.99714091e-02,  5.26504107e-02, -6.35565221e-02, -6.86408719e-03,  3.25076021e-02,  4.08717208e-02,  3.87046896e-02,  5.22225723e-02,  2.97284890e-02, -4.65910994e-02, -4.25381996e-02, -8.57460946e-02},
 {-2.92433295e-02,  2.66340636e-02,  4.88477834e-02, -5.33351004e-02, -7.60167688e-02, -1.83959827e-02, -3.81738991e-02,  5.38514815e-02,  4.68890257e-02,  2.57120393e-02,  6.31294996e-02,  1.35071361e-02, -7.21779391e-02, -1.75106451e-02, -5.72286658e-02, -7.25732297e-02, -7.98307955e-02,  1.48960110e-02, -2.44821073e-03, -1.38996765e-02, -8.49799141e-02,  2.61111390e-02, -4.41883653e-02,  2.10751947e-02,  3.32360069e-04,  1.76810883e-02, -4.31930423e-02,  2.12381538e-02,  8.91535804e-02,  2.41904315e-02,  8.33770260e-02,  7.07160234e-02, -8.47036242e-02, -6.55151010e-02, -4.20192108e-02,  2.35997550e-02, -3.98300849e-02,  7.83311352e-02,  8.09333101e-02,  2.71767583e-02},
 {-5.54385334e-02,  7.97568709e-02, -1.93384048e-02, -8.44379961e-02,  1.27188750e-02, -8.11770335e-02,  2.47778259e-02, -3.85852605e-02, -6.80663735e-02,  7.86964595e-02, -5.89744486e-02,  3.23870815e-02, -4.24466049e-03, -1.30897313e-02, -1.16119487e-02,  1.11050522e-02, -2.33419910e-02, -1.28397346e-02, -7.61898085e-02, -8.22684392e-02, -3.34568545e-02,  3.29699204e-03, -1.53926266e-02,  5.89814559e-02, -1.59025018e-03,  4.00966555e-02,  6.48763403e-02, -2.10949313e-02,  2.22831387e-02, -7.55424052e-02, -3.25642829e-03,  1.12936879e-03,  3.99599895e-02, -6.62686229e-02, -3.38492990e-02,  3.06248236e-02,  8.03581625e-02,  3.07702310e-02, -5.68562821e-02,  5.61095998e-02},
 {-1.75594669e-02,  3.52654606e-02,  6.07584883e-03,  1.61808040e-02,  7.26416111e-02,  2.74400576e-03,  3.16663720e-02,  6.00905679e-02,  3.41475271e-02,  2.87629720e-02,  2.21438985e-02,  7.43304491e-02,  6.95785061e-02, -9.56808496e-03, -2.37017777e-02,  7.88149387e-02, -3.45973782e-02, -2.86089722e-02,  4.27831896e-02, -6.16949834e-02,  7.11177438e-02,  4.51232214e-03,  3.73835936e-02,  8.44022259e-02, -5.99008147e-03,  8.46939757e-02, -3.92949022e-02,  5.11317402e-02, -1.95129644e-02, -6.98987097e-02, -7.15207979e-02,  1.72528308e-02, -4.70323749e-02, -2.44787764e-02,  3.56049254e-03,  5.32932617e-02,  3.72639745e-02, -3.86810936e-02, -3.34117338e-02, -2.79981643e-02},
 { 1.29832625e-02,  3.60962078e-02, -3.31078097e-02, -2.12955698e-02,  2.93066353e-02, -7.00705498e-03, -5.47083244e-02,  5.12218922e-02, -4.68592457e-02,  6.63425773e-03, -8.51860046e-02, -2.76288055e-02,  3.83671448e-02, -4.64600809e-02, -5.37682772e-02,  1.25948191e-02, -4.10724282e-02,  2.50387564e-02, -7.49903172e-03,  5.90801835e-02, -7.58421123e-02,  5.26356846e-02,  7.00295419e-02,  4.96513695e-02,  4.35275584e-03, -8.21939483e-02,  7.75312036e-02, -6.18044510e-02, -6.74115568e-02, -6.81267828e-02, -5.09515405e-03, -4.99745309e-02, -9.95360315e-03,  1.05147287e-02,  3.70691493e-02,  1.77432597e-03,  5.31598032e-02, -3.67242880e-02,  6.80271685e-02, -5.14786988e-02},
 {-4.68987748e-02, -1.22353062e-02,  4.40641046e-02,  7.91306198e-02, -6.07354753e-02,  4.32595015e-02,  3.86832803e-02, -7.09113479e-02, -3.83499563e-02, -6.25937879e-02,  3.54535356e-02, -6.87020048e-02, -2.60462724e-02, -3.35428789e-02,  7.77489841e-02, -1.69178098e-02, -2.60005780e-02,  5.93100637e-02, -6.67144656e-02,  4.44802940e-02,  6.91592544e-02,  4.05164659e-02, -5.10331094e-02,  2.47100294e-02,  7.72420615e-02, -5.57907075e-02, -4.68395725e-02,  8.27148259e-02, -7.87486881e-02,  1.89088285e-02,  5.13805002e-02, -4.78401668e-02,  4.31177318e-02, -1.61726028e-02, -2.84462981e-02,  5.84259033e-02, -8.24288502e-02, -2.71509103e-02,  5.47758937e-02,  5.13849556e-02},
 { 6.38644397e-02,  1.77959464e-02,  5.97600639e-02, -5.63496985e-02, -1.41055528e-02,  1.31648630e-02,  3.69392596e-02, -4.30741906e-03,  4.42648828e-02, -2.37222519e-02,  7.13200346e-02,  1.27378218e-02,  3.49465348e-02, -2.25697849e-02, -2.89744828e-02, -6.37776554e-02,  9.18288529e-03, -3.79294865e-02, -6.82272539e-02,  6.95562884e-02, -3.71042788e-02,  8.24754089e-02,  8.03210363e-02,  3.05411741e-02, -2.84482036e-02, -3.22463806e-04, -7.83580355e-03, -1.01972511e-02,  7.30031952e-02,  7.10708052e-02, -3.06141917e-02, -6.26041070e-02, -1.61121693e-03,  4.27922346e-02, -8.03194183e-04, -2.59304047e-02,  7.09992126e-02, -4.49022651e-02, -6.32892549e-02, -2.14843582e-02},
 {-5.25080413e-02, -7.20349699e-02,  7.15077743e-02,  6.19680434e-02, -1.20057790e-02,  7.23277926e-02, -3.15026790e-02, -7.81978369e-02,  5.19178584e-02, -4.19497564e-02,  6.52356967e-02,  4.69188159e-03, -4.80968691e-02, -4.28631827e-02, -8.48855525e-02, -1.11593371e-02, -3.59403752e-02,  2.80890614e-02,  6.81575164e-02, -6.41859369e-03, -5.30371033e-02,  8.42245445e-02,  5.31778932e-02,  2.21622046e-02, -1.09239314e-02, -3.48833203e-02,  2.86735371e-02,  7.77314678e-02, -7.37867802e-02, -5.72075434e-02,  4.89894934e-02,  2.99933273e-02,  8.26432183e-02,  2.67947223e-02, -3.93515266e-02,  3.96382771e-02, -1.15773955e-03,  2.84330081e-03,  6.53367788e-02, -1.83274951e-02},
 {-2.35167518e-02,  7.60410205e-02,  2.67341603e-02, -2.61651799e-02,  2.93678194e-02,  3.97393890e-02,  4.35304157e-02,  7.87844434e-02, -1.55468406e-02,  1.38192521e-02,  6.15845099e-02, -4.86953557e-02, -3.57448542e-03,  3.01656201e-02,  1.21380826e-02,  2.33039204e-02,  2.29514167e-02,  6.20926358e-02, -6.12883791e-02,  2.57815290e-02, -3.05481739e-02,  2.28518136e-02, -8.31022337e-02, -2.58627981e-02,  3.65124084e-03,  3.84033397e-02, -7.92791694e-02, -6.29144311e-02,  2.29592305e-02,  3.30512449e-02,  3.79089750e-02,  5.15323281e-02,  4.84902114e-02, -7.40781054e-02,  1.63520314e-02,  5.67020215e-02, -1.34922303e-02, -8.02015364e-02,  4.29268256e-02,  5.56175634e-02},
 {-6.44192621e-02, -7.24509656e-02,  2.55693980e-02, -7.39077665e-03, -2.48505604e-02,  5.98352216e-02,  2.80881710e-02, -1.39826313e-02, -5.30870631e-02,  3.95194292e-02, -1.50925852e-02, -3.27925570e-02,  4.77829017e-02,  7.86507800e-02, -1.90654825e-02, -3.02160694e-03,  6.59667701e-02,  6.93523372e-03,  3.54305357e-02, -2.10839678e-02,  5.66278212e-03,  2.82563604e-02, -3.82909179e-02, -2.33465750e-02, -3.85891683e-02,  6.90675601e-02,  7.63434172e-02, -2.32547671e-02, -1.28561007e-02,  4.57906863e-03, -4.96028401e-02,  1.64617170e-02,  3.93480174e-02, -1.63088050e-02, -2.44360585e-02, -2.04367675e-02, -8.69458467e-02,  2.03071982e-02, -3.32524739e-02, -8.58900473e-02},
 {-3.69583666e-02,  7.76732387e-03, -7.71569973e-03,  8.22693259e-02, -1.06272660e-02, -1.03386119e-01,  1.29588982e-02,  1.93850938e-02,  1.89533010e-02, -6.64875656e-02,  3.65773849e-02,  7.30662346e-02, -6.82687610e-02,  8.62874910e-02, -7.57977292e-02,  7.76029527e-02, -1.32626696e-02,  7.38942474e-02, -7.53820166e-02, -6.00068681e-02, -7.49552324e-02, -4.93910424e-02, -8.63568783e-02,  1.05232289e-02,  6.76477402e-02, -7.93595612e-02, -7.02764839e-02, -2.17110068e-02,  2.65005846e-02,  2.71240361e-02, -7.47955441e-02,  2.20245607e-02,  4.20476403e-03, -9.76240188e-02, -3.55808511e-02,  3.93280946e-02, -8.93177651e-03, -6.29058555e-02, -3.56738120e-02, -9.40007940e-02},
 {-2.64613014e-02,  5.08484840e-02, -3.86178750e-03, -6.47751316e-02,  1.46826133e-02, -7.36049190e-02, -4.44168672e-02,  4.48010787e-02, -8.11386406e-02,  7.54522979e-02, -7.12495521e-02, -2.75066942e-02,  1.01103522e-02,  5.87354563e-02, -6.45732358e-02, -6.35949671e-02,  3.87548879e-02, -9.62569639e-02,  4.49293815e-02,  5.23046069e-02,  1.41120916e-02, -2.80166231e-02,  3.54041532e-02,  2.27627698e-02,  3.71744931e-02, -1.46782408e-02, -7.09082782e-02,  8.63664690e-03,  3.54652442e-02,  2.58337636e-03,  4.20811819e-03, -5.88962249e-02,  7.08600357e-02,  2.88674552e-02,  8.53918567e-02,  1.05767965e-01,  3.15211760e-03, -4.79007605e-03, -8.35694745e-02,  8.56307987e-03},
 { 1.07289450e-02, -3.48115042e-02,  3.25314105e-02,  2.01168749e-02,  5.49032502e-02,  1.76504795e-02,  1.96221359e-02,  5.13874833e-03,  4.21517380e-02,  3.47535275e-02, -4.53744009e-02,  6.35525808e-02,  5.73630594e-02, -3.56903113e-02, -2.57424917e-02, -2.70323977e-02, -1.78702921e-02, -1.26229320e-02, -4.70132381e-02, -1.01908050e-01,  9.37197059e-02,  4.76477705e-02,  5.44569045e-02,  7.71668879e-03, -1.97909214e-02, -7.73039740e-03, -2.58628000e-02,  3.03207766e-02, -5.65179586e-02, -1.76594313e-02,  4.71172221e-02, -8.07353947e-03,  2.89837141e-02, -8.33807662e-02,  2.90708859e-02,  9.24033374e-02, -9.37560201e-02,  2.35930290e-02,  3.52760381e-03, -1.39983306e-02},
 { 1.63011197e-02,  5.48485033e-02, -7.74349719e-02, -4.25190479e-02, -2.52294317e-02, -6.34021387e-02,  4.25567944e-03,  6.29042238e-02, -7.92279318e-02, -3.05879451e-02, -1.15350209e-01, -7.93849677e-02,  9.12764203e-03,  6.37038052e-02, -1.86868422e-02,  3.37877870e-02, -6.95397854e-02, -1.36182103e-02, -7.98031241e-02, -1.01315796e-01,  7.10146083e-03,  3.12895365e-02,  2.84977201e-02,  5.00860065e-02,  2.06753761e-02,  5.20728640e-02, -5.77365421e-02,  7.85215758e-03, -1.30603714e-02,  4.75971662e-02, -7.77116045e-02,  5.66983782e-02, -3.74017134e-02, -1.11193374e-01, -1.22217778e-02,  5.47519885e-02, -7.44615644e-02, -5.21114245e-02, -2.24417616e-02, -1.26409605e-01},
 {-2.02584919e-02,  5.16625121e-03, -8.24771851e-05, -1.44335898e-02,  8.20718647e-04,  1.44586200e-02, -1.10849636e-02,  9.87961516e-03,  4.68477868e-02,  4.38598841e-02,  4.73038964e-02,  5.28396806e-04,  3.66359651e-02,  7.45151341e-02,  4.47369600e-03, -4.66618836e-02, -9.77053717e-02, -5.20566963e-02, -8.33712593e-02, -8.01825747e-02, -3.92278992e-02,  9.35004801e-02, -8.20274279e-03, -1.22740418e-02, -1.63954112e-03,  2.46320777e-02, -3.01356371e-02,  8.23689550e-02, -6.69226125e-02,  1.21818325e-02, -1.16252368e-02,  9.45398211e-03, -8.81849751e-02, -6.44293055e-02, -5.33840023e-02, -2.62028649e-02,  3.57667394e-02, -3.28420214e-02, -7.42667690e-02, -7.81613868e-03},
 { 8.19977298e-02, -5.57164773e-02, -1.83332525e-02,  1.65291242e-02,  6.46734387e-02, -9.23849270e-02,  7.38659427e-02, -5.87584116e-02,  5.06299697e-02,  1.06417485e-01, -5.70935830e-02, -1.23695787e-02,  3.72418463e-02,  8.02786462e-03, -4.64119948e-02,  4.44664359e-02,  5.34714609e-02, -1.59501769e-02,  6.81516947e-03, -9.12262201e-02,  4.73831929e-02,  6.69068173e-02,  5.77046759e-02, -3.22193727e-02, -7.45375380e-02, -1.66027397e-02,  4.96629812e-02,  1.18962988e-01,  1.39221894e-02,  2.38205045e-02, -5.19066863e-03, -2.77529620e-02, -9.07711312e-02,  5.58342896e-02,  6.04848340e-02,  6.00413159e-02, -8.28451812e-02, -8.26734230e-02, -1.00664876e-01, -6.16828017e-02},
 { 8.24113861e-02, -7.87798762e-02, -2.82614958e-02, -4.83751185e-02,  8.93781632e-02, -5.36720008e-02,  8.05947036e-02, -2.21352354e-02,  3.54571417e-02,  7.76947364e-02, -3.74256745e-02,  6.81314478e-03,  7.14142993e-02,  8.49718526e-02, -3.82382572e-02, -2.43537333e-02,  3.17412242e-02,  4.25510630e-02, -2.28190608e-02, -4.79259230e-02,  1.04311638e-01,  6.06251461e-03, -1.22893453e-02,  2.44612843e-02,  2.15554815e-02,  8.05007573e-03, -1.30710658e-02, -4.58468199e-02,  4.31402624e-02, -7.29527324e-02, -4.05357666e-02,  1.37519613e-02, -7.32010379e-02, -5.60095757e-02,  1.58888977e-02, -2.09170245e-02,  2.73044389e-02, -2.34049503e-02,  4.60190997e-02, -5.75645454e-03},
 { 4.96404618e-02, -3.99503447e-02,  4.51783650e-02, -6.13545766e-03, -2.07633432e-02, -6.72181919e-02,  9.19692626e-04,  4.98030931e-02, -1.49382604e-02, -5.64231761e-02,  1.12470286e-02,  8.55424479e-02, -3.79056185e-02, -3.53293872e-04, -4.44177315e-02,  7.22771585e-02, -5.09802699e-02, -8.11888948e-02, -4.32841964e-02,  3.96691933e-02,  1.63314044e-02,  4.25158776e-02,  6.68839961e-02,  3.95807140e-02,  7.20354095e-02, -9.92436111e-02,  1.01434879e-01, -4.45159487e-02, -4.94331345e-02,  6.27751574e-02, -6.62607178e-02, -2.12003663e-02, -9.17209964e-03,  4.97738421e-02,  8.15785257e-04,  5.49862273e-02, -3.39908549e-03, -1.07415773e-01, -9.56702456e-02, -6.71185702e-02},
 {-7.32906610e-02,  3.23705003e-02,  5.01405224e-02,  1.02166615e-01, -1.65654942e-02, -2.49140393e-02,  6.30141571e-02,  8.35090503e-03,  3.02393623e-02,  3.62794288e-02, -6.98752031e-02,  8.26638639e-02, -7.58832693e-02, -6.54481798e-02,  5.10225631e-02, -4.95557450e-02, -5.53106591e-02,  4.81335213e-03, -7.64699429e-02,  2.39057634e-02, -2.92498302e-02, -3.10304742e-02,  7.32849687e-02, -2.76522506e-02,  8.39767382e-02,  4.14153896e-02, -5.58215491e-02, -4.87830155e-02, -8.79003406e-02, -3.82411294e-02, -3.08078099e-02,  7.37834796e-02, -6.23487942e-02,  8.50459263e-02,  9.08979401e-02,  9.66885835e-02, -2.43894495e-02, -5.29474728e-02, -1.94353629e-02,  3.05239130e-02},
 { 5.69163188e-02, -1.99166387e-02,  7.57849775e-03,  3.62586067e-03,  4.67715859e-02,  3.20659652e-02, -2.88026233e-04,  4.95121852e-02, -9.06367376e-02,  4.36824448e-02, -1.48863774e-02,  2.26537399e-02, -3.04480959e-02, -2.08667032e-02, -4.80930582e-02, -3.20029519e-02, -1.12900240e-02,  6.41240086e-03, -1.50751308e-01,  6.94046468e-02,  6.33974373e-02,  4.74939570e-02, -5.40234894e-02,  6.81147575e-02,  7.54251108e-02, -6.52334914e-02, -4.37804461e-02, -5.26290536e-02,  4.01705243e-02,  6.67723641e-02, -2.21809670e-02,  6.06283285e-02, -3.89271863e-02,  2.30807438e-02,  1.55877843e-02, -3.63546945e-02,  4.47945707e-02,  3.14337462e-02, -4.02249210e-02, -4.88294624e-02},
 { 3.86667671e-03, -1.39348684e-02, -2.41719447e-02,  6.57537654e-02,  2.33699102e-02,  1.96660291e-02,  6.37665167e-02,  3.37847061e-02, -7.55192265e-02, -6.39648130e-03,  8.34717974e-02,  6.02543503e-02, -6.85384125e-02,  5.23613431e-02,  4.65621129e-02, -5.48665784e-02,  7.62408003e-02, -5.47160804e-02, -5.48527986e-02, -5.08062243e-02,  3.64351906e-02, -6.88664541e-02, -1.41463755e-02,  4.82649133e-02,  5.43784574e-02, -8.93830042e-03, -5.23300990e-02,  3.59473042e-02, -7.11497739e-02,  6.42666817e-02,  3.98415104e-02,  8.27293694e-02, -5.22304624e-02, -6.00628592e-02,  3.88095677e-02,  1.02237090e-01, -5.11168577e-02,  3.78264561e-02,  2.94999890e-02,  7.50392070e-03},
 { 2.87765991e-02, -5.95501699e-02,  6.07027300e-02,  2.50828713e-02, -1.20791662e-02, -1.56775042e-02,  5.30607365e-02, -5.58389463e-02, -2.78245453e-02,  2.80625597e-02,  6.82042614e-02,  9.84683111e-02,  1.55261194e-03, -5.31041063e-02,  9.81729105e-02,  9.75054316e-03, -3.15916017e-02, -9.38055106e-03, -4.00731005e-02, -3.92317139e-02,  3.93650718e-02, -2.58702487e-02, -6.12866729e-02,  7.20806867e-02,  7.56735057e-02, -2.39289645e-02, -4.19500209e-02, -4.74541970e-02, -6.33616894e-02,  5.86763993e-02, -3.39704491e-02,  6.92123920e-02, -6.47088885e-02,  5.60411718e-03,  5.84388748e-02,  3.26242857e-02, -8.06423128e-02, -5.89297600e-02, -6.89601451e-02, -1.01862125e-01},
 {-3.44508444e-03, -7.15126917e-02,  2.47042123e-02,  1.44328577e-02,  2.66742017e-02, -6.41489029e-02, -1.20778149e-02,  1.69482213e-02,  1.11312578e-02,  8.21048021e-02,  3.86520363e-02,  5.39230779e-02, -6.54670745e-02,  6.66541532e-02,  1.95154827e-03,  2.85004433e-02,  6.10526241e-02, -6.83037341e-02, -4.75217886e-02,  3.89778428e-02, -2.66998988e-02,  5.80695048e-02,  8.54252651e-03, -3.19783911e-02,  9.02125910e-02, -8.36672485e-02, -3.95106152e-04,  3.94887142e-02,  4.98862863e-02,  7.15861991e-02,  2.95968968e-02, -3.72177660e-02, -6.53910339e-02, -2.11392976e-02,  2.29883213e-02,  6.98332563e-02, -3.97859365e-02,  3.83323729e-02, -4.18805033e-02, -5.81465922e-02},
 { 3.72901298e-02,  2.04409752e-02, -2.75107492e-02, -2.98241917e-02, -2.58431919e-02, -4.19955179e-02, -1.59275681e-02,  1.53618651e-02, -8.26114863e-02, -5.03952913e-02, -2.19991505e-02,  1.37343386e-03,  4.30533774e-02, -1.57058425e-02,  9.99804214e-02,  7.63612241e-02, -3.03816851e-02,  5.26132137e-02, -2.93872450e-02,  7.38242269e-02, -7.39536732e-02,  6.77627604e-03, -1.11239832e-02,  4.08559404e-02,  1.01408161e-01,  1.76730361e-02,  7.66061246e-02,  2.68112533e-02,  2.25611161e-02,  4.23124172e-02, -2.43363623e-02, -1.57296117e-02, -2.88384631e-02,  3.98056805e-02, -3.57022546e-02,  3.19182426e-02,  3.93007789e-03, -7.19361752e-02,  6.19463511e-02, -8.18476826e-02},
 { 4.62342091e-02,  5.02562070e-05,  2.98873652e-02,  1.59587506e-02,  8.52951184e-02, -3.33765745e-02,  4.54852134e-02, -1.27927978e-02, -4.99072187e-02,  5.62975258e-02,  6.75674081e-02,  6.21392652e-02, -7.49696866e-02, -6.94798259e-03,  2.34397631e-02,  5.76123632e-02,  5.77554703e-02,  3.83315422e-02, -5.29949330e-02, -8.21200833e-02,  6.22828901e-02,  6.27930313e-02, -8.49853978e-02, -1.01004560e-02, -5.02097532e-02,  6.39674291e-02,  5.25414720e-02, -1.16924784e-05, -1.21060796e-02, -2.76963562e-02, -8.85162782e-03,  7.36545324e-02, -7.71705210e-02, -7.05882534e-02, -3.49765085e-02,  3.02226767e-02,  7.32721202e-03, -5.16399145e-02, -4.02960591e-02, -4.79332507e-02},
 { 3.72476950e-02,  2.69600265e-02, -7.16778189e-02, -6.21615984e-02,  5.66875748e-02, -7.74941314e-03, -9.81622003e-03,  7.67954662e-02, -7.64762759e-02,  7.76057946e-04,  3.79918590e-02, -5.54905869e-02, -1.29376063e-02, -6.91640889e-03, -4.90168110e-02, -1.56783443e-02,  1.67374201e-02, -2.98636574e-02,  7.76025057e-02, -1.09969229e-01, -2.36742757e-02,  4.17766050e-02,  6.81732520e-02,  5.82163371e-02, -6.39431700e-02, -2.04506982e-02,  3.65599096e-02,  1.33660436e-01, -4.35622409e-02, -4.63999845e-02, -1.06805019e-01,  6.05656430e-02,  1.60716120e-02, -1.19627547e-02,  6.46888912e-02, -2.39840522e-02,  2.68930793e-02, -8.89416412e-02,  1.55959064e-02,  1.49360318e-02},
 { 7.42652453e-03, -8.66073966e-02,  3.99286747e-02, -8.01937953e-02, -7.05659911e-02, -1.00022435e-01, -2.22838651e-02, -2.77074929e-02,  2.37170933e-03,  1.20795332e-02,  2.17648763e-02, -7.39460513e-02, -1.63416006e-02, -1.78984310e-02, -2.17081849e-02, -3.52404267e-02,  6.53709397e-02, -4.80470713e-03,  1.34641575e-02, -7.12751150e-02, -2.08303006e-03, -2.68303826e-02, -1.22832255e-02,  5.21037802e-02, -3.86641920e-02,  4.73289043e-02, -3.64357494e-02,  2.52533089e-02, -3.19559649e-02, -8.16615000e-02,  8.13047122e-03,  3.50762382e-02,  2.14182753e-02, -6.35462925e-02, -4.22004052e-02,  5.71059436e-02, -6.28963113e-02, -7.71987662e-02, -3.27270180e-02, -7.75821507e-02},
 { 6.19052574e-02, -3.53230610e-02, -5.81361391e-02, -5.80398701e-02,  3.63114364e-02,  2.97153722e-02,  1.13548161e-02,  6.82309130e-03, -1.01262152e-01, -1.78321768e-02,  8.63745585e-02,  5.03214188e-02,  3.30812152e-04, -4.15832661e-02,  2.28305515e-02, -1.06189914e-01, -2.94724591e-02,  9.57571343e-02, -4.92062680e-02, -1.09691650e-01,  1.61447264e-02,  3.93369868e-02, -2.33293418e-02, -3.50463353e-02, -6.99837357e-02, -2.86720190e-02, -3.86870094e-02,  5.36985919e-02, -6.30933791e-02, -3.79008465e-02, -1.24900974e-03, -3.24266218e-02,  1.78198740e-02, -4.94197756e-02,  3.81126218e-02,  5.04224561e-02,  1.93894319e-02,  4.80460264e-02,  3.29753608e-02,  4.54602856e-03},
 { 7.87634701e-02,  7.94277042e-02, -4.01734002e-02,  4.15065698e-02,  4.00985889e-02, -7.56512880e-02, -3.07727195e-02,  7.56505057e-02,  1.48064923e-02, -3.81596796e-02,  5.74950203e-02, -4.56932113e-02, -2.39436850e-02, -4.99513447e-02, -3.98873091e-02,  1.73328482e-02,  8.44213553e-03,  3.58920880e-02,  3.92072052e-02, -1.43181775e-02,  6.30599484e-02, -7.38771707e-02, -3.29827406e-02,  4.09333780e-02, -4.09635939e-02, -3.32935341e-02, -1.51578458e-02,  1.19361974e-01,  4.60900515e-02, -6.97311834e-02,  2.71664653e-02, -2.83258278e-02, -5.22644492e-03, -5.49408719e-02,  8.76862109e-02,  3.30684297e-02, -7.12155253e-02,  5.43365888e-02,  3.54902446e-02,  6.28137961e-02},
 { 3.62350568e-02, -2.58864798e-02, -6.36344915e-03, -7.39298612e-02,  5.24426252e-02,  3.25838029e-02, -5.19616827e-02, -6.62378445e-02,  4.07025926e-02,  7.86331203e-03, -3.55185755e-02,  6.21838160e-02,  8.33369978e-03, -3.81506905e-02,  7.61623532e-02,  3.14436369e-02,  4.50572884e-03,  3.53110246e-02,  5.54036200e-02,  6.60541281e-03, -8.23161677e-02,  2.74508167e-02, -7.22258836e-02, -8.64359960e-02,  1.51217207e-02,  9.87415239e-02, -8.56432319e-03,  2.31016669e-02, -3.73074412e-02,  5.95772788e-02, -4.51168157e-02, -3.57545428e-02,  3.71870026e-02, -8.04872885e-02, -6.88787624e-02, -2.69981716e-02, -5.19897556e-03, -4.23162431e-03, -7.57491365e-02,  2.04771142e-02},
 {-5.52038290e-02,  4.03894186e-02, -1.25803789e-02,  7.56250545e-02,  4.42174748e-02,  4.46567088e-02,  6.05096854e-02, -1.98247731e-02, -1.13167781e-02, -8.00825283e-02,  5.65665215e-02, -4.33323383e-02, -7.69544095e-02,  3.64946760e-02, -5.02297692e-02, -7.36993104e-02,  8.51110965e-02,  1.00705266e-01, -1.27260406e-02, -8.43148828e-02, -5.72601892e-03, -7.87624717e-03, -1.48383640e-02, -1.87341943e-02,  4.43028770e-02, -2.36979071e-02,  5.75526915e-02,  7.99288973e-02, -7.43485689e-02,  2.15698238e-02, -2.15215515e-02,  4.43971828e-02,  5.08222394e-02, -1.54727399e-02, -4.96274680e-02,  1.44210523e-02,  1.71134323e-02, -3.42407897e-02, -5.26955910e-02,  8.19088332e-03},
 { 3.41169611e-02,  7.09515810e-02,  2.96847224e-02,  5.87994121e-02,  8.49436522e-02, -1.92075502e-02,  6.93616867e-02,  5.60834445e-03,  6.30061608e-03,  6.73760176e-02, -3.22877504e-02, -8.20133910e-02, -1.46444952e-02,  6.89666271e-02,  3.60158235e-02, -5.72447479e-02,  9.30717029e-03,  8.11021850e-02, -3.29260342e-02,  1.40562924e-02, -1.11786304e-02,  3.40926759e-02,  1.26940757e-02, -4.88294661e-02,  8.12328681e-02, -9.30943154e-03, -3.19055356e-02,  4.82569262e-02, -4.62011509e-02, -7.70727769e-02,  5.78521490e-02, -7.30052367e-02, -7.30765387e-02, -9.86286905e-04,  1.42940348e-02, -6.40536007e-03,  4.81834300e-02, -4.03962471e-02, -8.17497820e-02, -3.88271399e-02},
 { 3.16508636e-02,  6.08340055e-02,  6.63405508e-02,  4.02659476e-02, -3.35453637e-02, -3.01178843e-02, -6.37084320e-02,  6.99651539e-02, -8.14723969e-02,  3.80687714e-02, -6.58356175e-02, -8.42844099e-02,  2.98316553e-02, -1.54642761e-03, -2.50408761e-02,  2.70536393e-02,  7.80965835e-02,  3.96507382e-02,  6.34656399e-02, -1.11189485e-02,  5.84483147e-02,  1.55375451e-02, -5.55906594e-02, -7.83832520e-02,  2.72350535e-02,  2.50328407e-02,  3.56323272e-02,  1.62126794e-02, -7.51960054e-02,  5.13156205e-02,  7.07478076e-03,  7.29704797e-02,  4.18038219e-02, -8.04916173e-02,  2.84962654e-02, -4.84750047e-02,  5.86350858e-02, -1.45087317e-02, -6.16787188e-02, -1.82717741e-02},
 {-6.52761236e-02, -5.32428129e-03, -5.89116067e-02, -7.24694505e-02,  7.29176477e-02, -7.57717043e-02,  5.15781753e-02,  3.43139619e-02, -7.13398084e-02, -7.15294033e-02,  7.92101100e-02,  3.63308936e-02,  1.41305318e-02,  5.00874259e-02,  5.67801222e-02,  5.05786985e-02, -6.87885359e-02,  5.45985736e-02, -6.99364841e-02,  6.55035228e-02,  8.16444904e-02,  4.23760973e-02, -5.52820340e-02, -4.23449464e-02, -6.39791787e-02, -2.70618070e-02,  4.15245742e-02, -4.39638831e-02,  1.85035728e-02,  4.64421604e-03,  1.84703656e-02, -3.69335115e-02, -3.48320156e-02, -2.37308759e-02, -4.16981876e-02,  2.29937695e-02, -5.65742888e-02,  7.78620690e-02, -5.94627857e-02,  4.83136438e-02},
 {-3.16393934e-02,  6.48130700e-02,  2.53219660e-02,  4.23453338e-02, -1.76471341e-02,  7.63235316e-02,  1.90157664e-03, -4.10917923e-02, -7.00497180e-02,  5.73721156e-02,  3.53696644e-02,  2.56100185e-02,  7.32848570e-02,  7.37034455e-02, -2.33249944e-02, -6.19584545e-02, -5.65278418e-02, -7.54880235e-02, -4.98987688e-03,  7.66336098e-02,  4.29207161e-02,  5.01013212e-02, -2.69932952e-02, -5.38748950e-02,  3.87717523e-02,  1.31221982e-02,  1.15983002e-03, -7.79741183e-02, -3.56702432e-02,  3.44002922e-03, -4.92734322e-03,  5.62319830e-02,  6.92601651e-02, -4.24382016e-02,  4.89925146e-02,  2.71892305e-02, -9.79824830e-03,  3.06457244e-02, -7.05374852e-02,  7.47327805e-02},
 {-3.10731865e-02,  6.61852863e-03, -4.40385342e-02,  5.42350635e-02,  6.39721826e-02, -2.40103900e-02,  1.37865981e-02,  3.78481895e-02, -6.24512658e-02,  7.25886002e-02,  1.12660192e-02,  8.25728178e-02, -6.85400292e-02,  3.61189395e-02, -1.64256652e-03,  1.95586085e-02,  3.10580805e-02, -3.97729687e-02, -5.63610643e-02, -6.08853251e-02, -7.90117607e-02,  3.84256020e-02, -5.79918176e-02, -4.65436419e-03, -1.43753225e-02, -3.03639732e-02,  4.50038686e-02,  8.70270804e-02, -2.16117315e-02,  8.39447379e-02,  1.46067608e-02, -2.81685088e-02,  8.45316797e-02, -5.29032387e-02,  6.97380528e-02, -7.99631625e-02, -8.30913782e-02,  7.70434216e-02, -1.41988816e-02, -2.63922010e-02},
 { 2.94859279e-02,  2.08799113e-02,  4.10256907e-02,  5.38258962e-02, -1.02920579e-02,  1.15244277e-02, -7.76135325e-02,  7.51956254e-02,  3.92942354e-02,  1.49299549e-02, -8.40332583e-02,  7.45292306e-02,  2.62218919e-02,  1.90025079e-03, -8.34909528e-02, -3.69414575e-02, -1.83393955e-02,  7.28401393e-02, -4.64606956e-02, -2.66213994e-02,  7.19888657e-02, -7.44657777e-03,  3.79484557e-02,  8.24450180e-02,  8.19733217e-02, -2.80095879e-02,  9.54231434e-03, -4.33022566e-02,  1.18098902e-02, -4.51124795e-02, -9.16673243e-02, -5.38627356e-02,  7.39666596e-02,  4.29324172e-02, -3.72213684e-02,  3.37289907e-02,  3.13017070e-02, -4.41485383e-02,  6.45366609e-02,  7.16305524e-02},
 { 8.27776119e-02,  3.45163159e-02, -4.95003201e-02, -3.23068239e-02, -3.78328785e-02,  1.32426424e-02,  3.27193439e-02, -8.30372199e-02, -1.57162026e-02, -3.96882333e-02, -5.15117645e-02,  2.13837773e-02, -2.31085718e-02,  7.84990415e-02,  1.07207242e-02, -4.43538576e-02,  2.29744744e-02,  6.58339113e-02, -5.58104478e-02,  4.99765575e-02,  6.79659471e-02,  5.70358112e-02, -2.77422462e-02, -3.13090011e-02, -8.17489773e-02, -1.81873646e-02,  9.41782165e-03,  1.75415576e-02,  1.23739941e-02, -4.79494445e-02,  4.67740037e-02,  3.23211774e-02, -1.21271703e-02, -3.57025787e-02,  7.96049759e-02,  7.58381039e-02,  7.62450919e-02,  5.78248650e-02,  5.71008362e-02, -7.52152652e-02},
 { 7.70243779e-02, -5.16164862e-02,  4.54089977e-02,  7.83740655e-02, -2.07569245e-02, -3.90712060e-02,  1.13511160e-02, -7.87414238e-02,  2.40123440e-02,  9.95970741e-02,  6.13903925e-02, -8.10543746e-02,  4.02129777e-02,  5.86803481e-02, -2.97174361e-02,  5.49229644e-02, -1.87709183e-02, -3.88801703e-03, -3.94746587e-02,  6.01793379e-02,  4.26118113e-02,  8.06346759e-02,  5.11576422e-02,  8.87512565e-02, -4.28582877e-02,  5.91596365e-02, -5.13205454e-02,  7.70146549e-02, -1.61256976e-02, -2.55822893e-02, -7.62358010e-02,  3.14663686e-02,  7.33682439e-02, -4.08194177e-02,  2.23450493e-02, -3.15486975e-02,  6.44779801e-02, -3.19918357e-02, -3.61315836e-03, -7.11119473e-02},
 { 1.50619149e-02, -1.86923817e-02,  3.50024998e-02,  7.47230053e-02,  1.08346090e-01, -4.30308320e-02,  2.49311980e-02, -3.84010002e-02, -6.01256713e-02,  3.53968069e-02, -7.92674422e-02,  2.78745703e-02,  3.62916626e-02, -8.91112629e-03,  1.34339258e-02, -2.09486466e-02, -4.73593798e-04,  4.98415790e-02,  3.68714705e-02,  1.54767549e-05,  7.22564533e-02,  6.56350330e-02, -1.81602295e-02, -5.55146392e-03, -3.50282975e-02,  3.13041396e-02,  8.71040523e-02,  5.38493991e-02,  3.80513333e-02,  7.27639422e-02, -5.12587354e-02,  7.92761222e-02, -1.16153760e-02,  3.94468717e-02,  3.38989198e-02, -3.26654315e-03, -4.48024310e-02, -9.93233267e-03,  3.61644365e-02, -5.90132140e-02},
 { 7.13510960e-02, -3.67732532e-03,  6.32986501e-02,  3.90608273e-02, -3.03558316e-02, -1.21229284e-01,  8.61623138e-03, -6.18256293e-02, -2.38060746e-02,  1.02103397e-01, -3.04374713e-02,  8.04616436e-02,  2.91910432e-02,  7.99743235e-02, -2.38110684e-02, -7.42516965e-02, -6.18945360e-02,  4.28800136e-02,  7.13992957e-03,  5.27450591e-02,  2.28170548e-02,  3.03340629e-02, -2.68139243e-02,  6.41934853e-03, -2.04703771e-02, -3.98169905e-02,  6.52076825e-02,  3.59908566e-02,  1.73972361e-02, -9.31466594e-02, -3.06277499e-02, -2.12138556e-02, -1.21450787e-02, -5.89814708e-02,  7.30178580e-02,  8.07501674e-02, -7.95494318e-02, -9.59098265e-02, -8.30585435e-02,  7.84535054e-03},
 {-1.54163232e-02,  1.96818709e-02,  4.30744439e-02,  2.11266894e-02, -2.44323369e-02, -7.96127971e-03, -3.57138887e-02, -6.66682273e-02, -1.52213592e-02,  5.16586974e-02,  4.98826765e-02, -2.62402333e-02, -6.84229508e-02,  1.93725061e-02, -1.28224669e-02,  3.10601275e-02,  1.09897284e-02,  6.10805079e-02, -6.47214428e-02, -2.65855435e-02,  2.45741643e-02,  5.79861067e-02,  4.26908992e-02,  7.82314315e-02, -7.06395656e-02,  6.21032491e-02, -4.67817560e-02, -2.01525763e-02,  9.39050764e-02,  6.69836849e-02,  2.93065254e-02,  6.74039731e-03,  5.96889742e-02, -1.56875886e-02, -1.97378360e-02,  9.04789418e-02, -1.92826446e-02,  6.16983324e-02,  1.46107553e-02,  3.08833960e-02},
 {-4.04674113e-02,  6.11955486e-02,  3.42320837e-02,  9.09368172e-02,  5.30830175e-02, -3.23834233e-02, -6.23667501e-02, -2.13344079e-02,  5.57508022e-02, -3.78874801e-02, -3.03213485e-02, -4.82951254e-02, -4.19748947e-02, -4.73675542e-02, -4.18018401e-02, -5.79166487e-02, -8.87644514e-02, -8.50477740e-02, -8.33259150e-02, -1.68338940e-02,  7.82531127e-02,  3.12916823e-02,  2.47359164e-02,  4.34688590e-02,  6.47343546e-02,  5.78142926e-02, -4.66574263e-03,  6.09830618e-02, -7.78519213e-02, -3.36378627e-03,  2.27089785e-02,  9.12004858e-02, -5.81107698e-02, -7.02513233e-02,  5.73677048e-02, -2.78163776e-02, -5.21641672e-02, -7.89248198e-02, -2.54256204e-02, -8.81497860e-02},
 { 1.26035791e-02, -9.27711353e-02, -3.72712761e-02,  5.98362386e-02,  3.34286466e-02,  3.73463780e-02,  4.16496303e-03, -3.13613489e-02,  1.53923482e-02,  4.85762320e-02,  2.02969369e-02,  3.46633643e-02,  2.13197209e-02, -4.78460789e-02,  7.28704929e-02,  7.60857016e-02,  6.60698637e-02, -6.79742843e-02, -1.84573550e-02, -7.65127242e-02, -2.07347758e-02,  7.59318238e-03,  7.70284459e-02,  3.25970985e-02,  4.54185531e-02, -4.49863076e-02, -1.85648445e-02,  8.63522738e-02, -3.76838669e-02, -5.59803583e-02, -4.93607670e-03,  4.39395607e-02, -4.41931151e-02, -2.43563447e-02,  4.59086075e-02,  5.14820442e-02, -6.07442185e-02, -9.53439157e-03, -8.64594504e-02, -7.68342689e-02},
 { 1.32000092e-02, -9.62197781e-02, -8.11780542e-02,  7.09066018e-02, -6.19596727e-02, -3.76230553e-02,  7.36036524e-02, -2.93366667e-02, -2.45917998e-02,  5.89115694e-02,  2.55250912e-02,  1.65776554e-02, -5.71874864e-02,  6.60314932e-02,  3.99179198e-02,  5.95357791e-02,  7.01232627e-02,  5.33963218e-02, -3.72347534e-02, -3.73836160e-02,  7.89355710e-02,  2.46915594e-02, -3.17182131e-02,  2.58253962e-02, -3.42905782e-02, -6.99880049e-02, -1.53200310e-02, -1.63811333e-02, -5.63844927e-02, -3.17426547e-02, -5.14059067e-02,  1.11245200e-01, -7.87653401e-02, -8.61032866e-03, -1.49239562e-02,  7.46539980e-02, -8.88030753e-02,  3.55016515e-02, -1.56719722e-02, -3.82139236e-02},
 {-4.55399789e-03,  1.52305011e-02,  3.18764783e-02, -5.02892025e-02, -5.07524125e-02, -1.22928480e-02, -3.99892740e-02, -6.78590536e-02, -7.16808513e-02,  4.90783788e-02,  5.09588467e-03,  7.00269043e-02, -1.94398090e-02, -9.60209034e-03,  6.13795742e-02,  7.04445317e-02,  4.29439582e-02,  4.29268889e-02, -4.39547636e-02,  4.94210757e-02, -6.09140433e-02,  1.04520544e-02,  2.44929269e-02,  4.59931158e-02,  9.34361517e-02,  2.93471329e-02,  1.33620752e-02, -3.04627940e-02,  5.01882343e-04, -2.25269478e-02, -5.78983948e-02,  5.21703809e-02, -1.02616690e-01,  6.24469249e-03,  6.86750337e-02,  3.26397866e-02, -3.36336084e-02,  1.57404467e-02,  5.88045232e-02, -6.87557459e-03},
 {-4.85678352e-02, -6.10162988e-02,  4.42541987e-02,  1.04681877e-02,  5.02528027e-02, -7.92688578e-02,  1.74305048e-02,  9.31699201e-03, -3.80789340e-02,  4.01042961e-02,  6.24040291e-02, -4.43266854e-02, -5.91195449e-02,  6.24847859e-02,  8.53330195e-02,  9.31096300e-02, -8.10328200e-02, -1.36085181e-02, -1.00828081e-01,  3.89396511e-02,  8.17342401e-02,  8.90682340e-02,  5.92647120e-02, -1.53002236e-02,  1.94648467e-02,  1.17594341e-03, -6.44307435e-02, -2.07330864e-02, -4.00627777e-02, -6.79043159e-02, -5.57338111e-02, -3.19175199e-02,  1.86732486e-02, -5.70365868e-04, -4.56946716e-03,  4.11293358e-02, -6.60342723e-02,  1.79109927e-02, -8.62050802e-02, -1.24894790e-01},
 { 4.03330363e-02, -5.63729592e-02, -5.02848998e-02,  3.44261229e-02,  6.58108294e-02, -6.85801730e-02,  8.93651471e-02,  4.28244248e-02,  5.82543761e-02,  8.28248858e-02,  1.08182244e-02,  1.09262377e-01,  6.16303086e-02, -3.11249737e-02,  6.34321012e-03, -3.41901816e-02, -3.45273279e-02, -9.27261040e-02, -1.87113248e-02,  3.90950702e-02,  3.37483292e-03, -4.42056544e-02,  2.70627160e-02,  3.03879417e-02,  1.06891587e-01, -1.12313434e-01,  3.14883180e-02, -5.41429520e-02, -1.27540715e-02, -2.15106644e-02,  2.72834264e-02,  1.16578102e-01,  9.15758498e-03,  3.26640718e-03, -8.39896780e-03,  5.86617664e-02, -7.69522563e-02,  6.14017388e-03, -8.71420577e-02, -1.12921663e-01},
 { 1.21074207e-02, -1.11682557e-01,  4.84362356e-02,  9.70330089e-02,  1.41767059e-02,  3.11897583e-02, -5.00243306e-02, -6.85095191e-02,  4.63820696e-02,  2.46395934e-02,  7.03097647e-03,  4.23289500e-02, -2.97667254e-02,  7.70305693e-02,  3.34553644e-02,  1.54794306e-02, -4.31944570e-03, -8.66035596e-02,  2.88748555e-02,  4.67184745e-02,  8.23220313e-02, -8.32107365e-02,  7.09867626e-02,  4.71521392e-02,  6.01535626e-02,  1.42120020e-02, -3.56494472e-03, -2.17826217e-02,  1.54144261e-02,  5.24979793e-02, -1.26288071e-01,  2.66801789e-02, -9.59043484e-03,  5.60416728e-02,  7.36710355e-02, -3.43811326e-02, -4.43707220e-02, -1.02452204e-01, -5.30536100e-02, -9.73517075e-03},
 {-6.70810342e-02, -8.60406756e-02,  4.67044190e-02,  7.46069178e-02,  5.98956319e-03,  3.56985591e-02,  1.05829118e-03, -1.92166269e-02,  1.29332086e-02,  4.96687219e-02, -8.20293371e-03,  3.86057496e-02,  3.33013237e-02, -4.53337319e-02, -2.21176669e-02,  3.13374624e-02,  2.19344646e-02,  2.23062988e-02,  1.59318503e-02,  5.88246956e-02, -1.16646923e-02, -2.21986193e-02, -9.07008722e-03,  6.53749034e-02,  8.55941847e-02, -1.11979112e-01,  8.52438621e-03, -5.63819744e-02, -7.19186440e-02,  8.86704680e-03, -1.01730630e-01,  4.64705490e-02, -3.72619629e-02, -7.35291094e-02,  4.43473458e-02,  2.41631325e-02, -4.30126078e-02,  3.56208719e-02,  2.09153518e-02,  2.01470293e-02},
 {-3.21416464e-03,  4.38728370e-02, -8.92580301e-02, -2.06549955e-03,  3.35155241e-02, -9.14934352e-02, -3.18092331e-02, -9.86719504e-03, -8.53582770e-02, -4.46416698e-02, -4.06261384e-02, -1.95711646e-02,  1.68360192e-02, -3.79313715e-02,  2.73292493e-02,  7.17503279e-02, -5.52330278e-02, -3.03912442e-02,  4.36105467e-02, -8.01766142e-02,  7.54005238e-02,  5.04448861e-02, -8.02881047e-02, -4.95078526e-02, -3.30509543e-02,  1.33244903e-03,  6.97658882e-02,  6.02067299e-02,  4.42584418e-03,  3.11703254e-02, -9.17654112e-02, -1.82557795e-02,  1.64728775e-03,  5.22384644e-02, -5.66061996e-02,  3.20292488e-02, -7.04428554e-03, -9.39378422e-03,  3.51734459e-02,  4.35757590e-03},
 {-7.41813555e-02, -1.45886894e-02, -4.41207960e-02,  5.23835868e-02,  5.32535762e-02,  2.77589671e-02,  4.65132557e-02, -4.77421731e-02, -7.21421912e-02,  3.66585553e-02,  6.23270161e-02, -1.29520625e-03, -3.40270437e-02,  7.22192302e-02, -2.31063995e-03, -7.46615380e-02, -8.55239760e-03, -2.21364223e-03,  7.75631368e-02, -7.08426237e-02,  1.55734029e-02, -4.01547551e-03,  1.08845467e-02,  7.63927866e-03,  6.87519461e-02,  4.55781072e-02,  3.59251425e-02,  6.21589273e-02, -2.30386620e-03,  4.19974513e-02,  8.11443944e-03,  3.21057178e-02, -7.98617005e-02, -5.77290915e-02, -1.88761614e-02,  3.12132891e-02,  2.72964407e-02,  4.64866981e-02,  4.75031137e-02, -1.07403107e-01},
 { 3.65930423e-02, -4.01380882e-02,  7.29170209e-03,  7.52289742e-02, -7.76775405e-02, -9.05724242e-02,  8.62926152e-03,  5.79897240e-02,  5.43789268e-02,  4.14773263e-02, -6.14509508e-02,  7.29932263e-03,  6.97573274e-02, -1.71587765e-02,  1.55906826e-02, -2.56311037e-02, -5.61666228e-02,  8.68331119e-02,  3.36937271e-02, -8.84151906e-02, -1.70597192e-02,  5.91560900e-02,  4.87335622e-02, -9.19473707e-04, -2.09439024e-02, -2.12003831e-02,  4.12844941e-02,  6.89326748e-02,  1.28360046e-02,  1.54982321e-03, -1.94311887e-02,  3.21655683e-02,  5.73131107e-02, -6.40368313e-02,  8.22651535e-02, -9.07955691e-03,  2.08685026e-02, -6.27774075e-02, -3.31843346e-02, -2.07587387e-02},
 {-2.63247080e-02, -9.07177106e-02,  7.22767487e-02, -5.69903143e-02,  5.30691929e-02,  3.32800783e-02,  1.61184259e-02,  3.22708972e-02, -3.34691219e-02,  1.45110749e-02,  7.88192544e-03,  6.06760532e-02, -5.76340081e-03,  1.40789729e-02, -4.51868735e-02,  1.44406408e-02,  2.64684912e-02,  3.84780504e-02, -5.40536493e-02, -5.62525354e-03,  6.72849342e-02, -8.61903839e-03,  3.17116156e-02, -1.68553367e-02, -3.71443864e-04, -9.62672848e-03, -2.29257774e-02, -1.53690362e-02, -2.86616497e-02, -6.32003099e-02, -6.49434328e-02, -4.92098648e-03, -2.42763776e-02, -2.71350741e-02, -3.87369096e-02,  1.04900919e-01, -3.31710652e-02, -6.02844032e-03,  1.81476288e-02, -6.52460232e-02},
 {-5.02510322e-03, -9.15286317e-02,  6.82403101e-03,  4.97511588e-02, -6.99943909e-03, -3.21428291e-02,  5.67701161e-02, -1.75889339e-02, -1.86677650e-02, -2.67456137e-02,  2.20589265e-02, -4.66620363e-02, -4.51972000e-02,  2.82009318e-02, -1.66573077e-02,  4.24594693e-02,  4.38178889e-02, -3.24025191e-02,  7.47796297e-02,  4.06558327e-02, -4.46078740e-02,  8.46507624e-02,  7.70576000e-02, -9.18816999e-02,  5.67045703e-04,  6.31995201e-02, -1.56782940e-02,  1.08276112e-02,  7.43970424e-02, -5.30535076e-03,  4.38254997e-02, -5.26709445e-02, -9.23612639e-02, -9.83897597e-03,  4.69627045e-02,  2.73705591e-02,  1.48268901e-02,  6.22753017e-02,  9.22236685e-03,  3.95383351e-02},
 {-1.23389354e-02, -2.06232723e-02,  3.87763493e-02,  8.20319802e-02, -4.98426072e-02, -1.02592699e-01, -9.98119265e-02,  6.27809763e-02, -3.13993208e-02,  8.69519338e-02, -2.19197273e-02, -2.47648032e-03, -3.17246504e-02, -4.70334925e-02, -9.20979958e-03, -1.22495621e-01, -2.88188476e-02, -1.96122993e-02,  8.37670043e-02, -1.05862811e-01,  7.71155506e-02,  5.35978600e-02,  8.45842659e-02, -7.12238066e-03,  3.88330929e-02, -4.47734445e-02,  4.54735681e-02,  7.15134516e-02, -2.12401245e-03, -4.30292003e-02,  8.53823221e-05,  4.07611728e-02, -2.49151923e-02, -8.36466476e-02, -9.49987676e-03,  1.34278638e-02, -7.31785521e-02, -3.36507149e-02, -4.85130586e-02, -4.67618592e-02},
 {-5.64783104e-02, -6.45658821e-02,  3.22309025e-02, -3.09871864e-02,  1.38885248e-03, -4.13197987e-02,  1.43878972e-02,  5.14482595e-02,  5.85410791e-03, -5.09990100e-03, -5.54666966e-02,  6.97435811e-02, -3.08238156e-02, -3.61186042e-02, -1.15024904e-02, -7.65784383e-02, -6.71274439e-02,  3.28616537e-02, -3.92772183e-02,  3.34697403e-02,  9.86792892e-03,  2.44169962e-02,  6.63744360e-02, -6.75186738e-02, -8.23767914e-04,  3.02770101e-02, -6.40105903e-02,  3.65169719e-03,  4.88891304e-02, -1.70376059e-02, -4.66296636e-02, -8.31680521e-02, -4.81797270e-02,  3.33251245e-02,  6.61486164e-02, -2.59821210e-02, -2.06259936e-02, -7.98241571e-02,  7.20224604e-02, -1.17625058e-01},
 {-3.03793792e-02, -2.59496644e-02, -4.48355190e-02,  3.92287672e-02,  1.22574437e-02, -6.85861930e-02, -4.45535108e-02, -3.50454003e-02,  4.81066965e-02, -1.10736291e-03,  5.81269264e-02,  5.68032116e-02,  1.56056080e-02,  7.29894340e-02,  2.15267576e-02, -8.28224793e-02,  5.02684377e-02,  9.52330604e-03,  4.98044752e-02,  4.58518323e-03,  1.09381666e-02,  7.52507970e-02, -1.15708625e-02,  4.82508838e-02, -1.67827029e-02, -1.12420712e-02, -8.45003799e-02,  3.73749845e-02, -7.33918399e-02, -5.07725105e-02, -2.52104737e-02, -8.07507187e-02, -6.68281391e-02,  6.41536936e-02,  3.65490839e-02,  4.49418314e-02,  3.90213579e-02,  3.40250097e-02,  7.31026903e-02,  2.60971654e-02},
 { 7.93319121e-02,  6.99623972e-02,  4.48207818e-02, -3.70154232e-02, -1.44215943e-02,  5.83503880e-02, -9.44665819e-02, -2.36599315e-02,  5.67720868e-02,  7.04176351e-03,  6.53866529e-02, -1.09460857e-02, -1.75392367e-02, -4.84991074e-03,  6.72912002e-02,  2.01374181e-02,  1.98405311e-02, -3.92507128e-02, -6.00135475e-02, -4.24349681e-02, -7.76876286e-02, -3.66573595e-02,  4.63632196e-02, -7.67765939e-02, -1.23497592e-02,  7.63182044e-02,  3.65648940e-02,  5.55773266e-02, -4.23805565e-02,  5.81392571e-02,  8.78958851e-02,  2.97454000e-02,  7.54540935e-02, -8.53447244e-02, -6.39844313e-02,  5.86417764e-02,  9.87150054e-03, -2.60567535e-02, -1.99887268e-02, -4.97598536e-02},
 {-6.90465420e-02,  6.50495961e-02, -5.02770618e-02,  1.39251966e-02,  2.98897289e-02,  3.83008681e-02,  1.25876544e-02, -1.14596356e-02,  1.52381090e-02,  3.37767787e-02, -5.06067462e-02,  1.90313086e-02,  4.24562097e-02,  2.18316726e-02,  8.09886828e-02,  1.60979584e-03, -2.14368701e-02, -5.23219677e-03, -7.14197382e-02, -2.52908431e-02, -3.82007062e-02,  7.00500533e-02, -5.49944527e-02, -7.17507023e-03, -6.00836501e-02,  8.61774534e-02,  4.81700413e-02, -2.42530815e-02, -4.78892140e-02,  7.29099708e-03, -7.42329936e-03,  7.22290650e-02, -4.67431806e-02,  2.95029301e-02, -5.82637861e-02,  7.66384155e-02,  9.42965224e-03,  5.56433089e-02,  8.05808678e-02, -5.29572815e-02},
 {-5.02598882e-02,  2.52219439e-02,  2.18471810e-02,  1.60736293e-02,  8.19610059e-02,  1.61264837e-03, -5.22017926e-02,  3.42260972e-02, -3.53377126e-02, -5.72523549e-02, -2.37991139e-02, -5.22440076e-02,  2.94305161e-02,  4.45073098e-02,  5.67911863e-02, -6.96795285e-02,  2.94901505e-02,  6.52048886e-02,  5.14390320e-03, -4.48624082e-02, -4.44124043e-02, -3.86993773e-02, -1.19506046e-02, -8.27839226e-02, -7.38939643e-02, -5.83299771e-02, -5.04218712e-02,  7.72040188e-02, -6.92370310e-02, -3.67386937e-02,  1.10830441e-02,  8.27011466e-02, -5.50568514e-02,  1.07655004e-02,  3.80631164e-02, -3.00835632e-02, -4.31405939e-02,  7.69720227e-02,  8.43336433e-02,  7.13851750e-02},
 { 5.61052412e-02,  6.42839745e-02,  1.00583779e-02, -7.26588219e-02, -7.25639015e-02, -4.14275005e-02, -2.97232848e-02,  7.69638494e-02, -7.10716471e-02,  7.71443695e-02, -4.50643431e-03, -2.45550927e-02,  6.47284016e-02, -7.01841116e-02,  1.67381559e-02,  3.97508293e-02,  1.87601727e-02,  7.79348761e-02, -5.95407672e-02, -2.64702402e-02, -8.49788561e-02, -2.06427816e-02, -8.26604068e-02,  1.97813060e-04,  7.96616003e-02, -3.45946569e-03, -7.97894970e-02, -5.71009070e-02,  7.22766593e-02,  5.16234413e-02,  3.89524512e-02, -7.51959682e-02,  5.32386526e-02,  5.44155873e-02,  6.25157878e-02,  7.96037465e-02,  2.31813751e-02,  6.64999187e-02, -3.03510241e-02,  5.68029098e-02},
 { 2.30255201e-02, -5.99362142e-02, -5.84511161e-02,  5.27613536e-02, -4.78979200e-02, -2.58538444e-02, -3.77394371e-02,  5.65982498e-02,  6.91326410e-02, -1.48270922e-02, -8.16560388e-02, -4.24191132e-02,  5.92149980e-02, -1.50522199e-02,  7.24834502e-02,  2.64587309e-02,  2.88108699e-02, -6.09156676e-02, -4.39506359e-02,  3.73161174e-02, -8.50055292e-02,  4.70938608e-02,  1.41479643e-02, -5.25205657e-02,  7.68043101e-02, -6.99323118e-02,  1.14045141e-03, -3.20910173e-03, -1.72831230e-02, -4.52184826e-02,  1.78998057e-02, -2.81802043e-02, -3.81508321e-02,  1.28425863e-02,  4.94994521e-02,  1.79404262e-02, -6.89233318e-02, -6.90203831e-02, -7.78443785e-03, -5.75687736e-02},
 {-7.07031339e-02, -3.50260213e-02, -8.46119747e-02, -3.90642993e-02, -7.62983635e-02, -5.15816249e-02, -3.34708728e-02,  1.37099000e-02,  6.32687658e-02, -2.96384729e-02, -7.82096535e-02,  3.74783687e-02, -1.96272954e-02,  2.60752495e-02, -5.08262776e-02,  7.67107978e-02,  7.76550844e-02,  2.74435692e-02, -9.80206113e-03, -5.02253696e-02,  7.10323779e-03, -4.66699377e-02, -7.82968849e-02,  3.30524109e-02, -6.35941103e-02, -4.28026542e-02, -7.45062009e-02, -6.21644631e-02,  2.57656295e-02, -3.95460576e-02,  3.57191227e-02, -5.04668504e-02, -7.03580827e-02,  4.58209440e-02,  6.72501177e-02, -1.99439730e-02, -7.23667741e-02,  7.99590498e-02,  1.54366754e-02,  1.69647537e-04},
 { 7.31508508e-02,  7.23059922e-02, -2.20357832e-02,  7.42106587e-02,  2.64351238e-02, -1.58971567e-02,  1.94000378e-02,  8.16576183e-02,  7.62530714e-02, -4.61205803e-02, -7.85515457e-02, -1.34539064e-02,  5.99726178e-02,  6.29767850e-02,  4.81785871e-02,  7.08675086e-02, -4.36876789e-02,  6.08430095e-02, -7.31913224e-02,  7.15438649e-02, -1.86729580e-02,  3.78473140e-02,  5.47116250e-02,  2.11521015e-02,  4.44892049e-02,  1.97920743e-02,  7.30537847e-02, -5.60051352e-02,  9.31388792e-03, -1.53902061e-02,  4.58331183e-02,  4.79538785e-03,  4.89590652e-02, -1.51163054e-04,  6.52055889e-02, -5.78187630e-02, -8.41400623e-02,  6.33273199e-02,  4.14735787e-02,  2.74401493e-02},
 {-4.65074852e-02, -7.54911602e-02, -2.68266462e-02,  1.95685998e-02, -9.71023552e-03,  2.76577994e-02, -1.76822282e-02,  6.88370168e-02,  6.68350235e-02, -1.55648664e-02,  2.05547344e-02,  7.88465068e-02, -4.32829447e-02, -1.79847199e-02,  5.08733951e-02,  4.73832292e-03,  4.41840887e-02, -2.60576401e-02, -7.43970200e-02,  4.82041799e-02, -1.65248346e-02, -6.39057904e-02,  6.39123097e-02,  3.44854151e-03,  8.50260705e-02, -7.52119496e-02, -3.07809729e-02,  7.54492655e-02, -2.71277744e-02,  1.89940687e-02,  7.62932226e-02,  1.53288699e-03, -7.21034631e-02, -9.01904777e-02,  4.17392105e-02, -8.20476562e-03, -4.65211971e-03,  5.27662858e-02, -1.74601991e-02,  2.04097014e-02},
 { 7.62539823e-03,  7.15759918e-02,  7.24201947e-02, -4.52016667e-02, -4.67754193e-02, -8.97884518e-02,  5.12742773e-02,  5.99117689e-02,  5.79470862e-03,  4.88648415e-02,  3.38077769e-02, -6.95886239e-02,  6.49896190e-02, -7.21061230e-02,  1.29389968e-02,  6.33614883e-02, -9.96943191e-02, -8.24608281e-02,  9.47147142e-03,  6.88198581e-02,  7.91788474e-02, -2.36123558e-02,  6.95619360e-02,  3.80257778e-02, -1.76050495e-02, -4.97816177e-03,  5.78865781e-02, -5.76232485e-02,  3.85863632e-02, -2.92393528e-02,  7.33643398e-02,  1.64567363e-02,  1.45112937e-02, -5.64453043e-02, -7.63695512e-04,  6.43007010e-02,  4.72878441e-02,  4.10553999e-02,  3.33502777e-02,  4.44648303e-02},
 { 2.03979276e-02, -5.43690920e-02,  1.68007091e-02,  3.48408110e-02,  1.06909961e-01,  3.60328928e-02,  1.32875424e-02, -3.44187836e-03, -6.92173140e-03,  2.97714188e-03,  2.29029898e-02,  5.63063323e-02,  6.99783787e-02,  3.44021060e-02,  6.01187721e-02, -4.53908108e-02, -6.35563768e-03, -3.14341672e-02, -3.38131771e-03,  5.90304397e-02,  2.07309239e-03,  6.49900660e-02,  6.63403049e-02,  3.04928012e-02, -3.69877438e-03,  4.46500182e-02,  5.54515086e-02, -5.54652847e-02,  3.03368922e-02,  1.56584792e-02, -4.28413749e-02,  7.08912984e-02, -1.99489594e-02, -7.19047263e-02, -4.04846668e-02,  1.00157589e-01, -1.67250466e-02,  4.36350778e-02, -7.59788901e-02, -4.51546395e-03},
 {-4.77883779e-02,  3.16351913e-02,  4.60800901e-02,  9.58076585e-03, -2.02413946e-02,  2.61837617e-02, -2.87400838e-02, -8.36944431e-02,  3.43998661e-03,  7.26924464e-02, -6.02079667e-02,  2.71781459e-02,  2.69717816e-02,  7.73326531e-02,  1.55877694e-03,  2.67717410e-02, -2.56383177e-02,  6.17705844e-02,  3.52310427e-02, -4.28750478e-02,  1.99247245e-02,  3.69320512e-02,  6.83840811e-02,  5.87030314e-04,  7.91148320e-02, -1.16542878e-03, -6.54276386e-02,  4.00940925e-02,  6.80547804e-02, -6.70675188e-02,  1.15822861e-02,  5.63421361e-02,  4.96295765e-02,  5.27373469e-03, -8.50953236e-02, -4.94928211e-02, -6.47749379e-02, -5.02798595e-02,  2.46538185e-02, -1.05305267e-02},
 { 6.19790554e-02, -7.71537870e-02, -5.75199574e-02, -1.37736397e-02,  4.14594784e-02, -1.20178841e-01,  5.24379425e-02,  4.00828160e-02, -8.11778903e-02,  3.40452157e-02,  7.19974861e-02,  2.25106161e-02, -6.52163997e-02, -1.91600155e-02, -2.86504142e-02, -2.91208513e-02,  3.07223108e-02,  4.99704573e-03,  3.64357568e-02, -2.39999723e-02,  1.15908824e-01,  2.18492784e-02, -4.24181595e-02, -6.51296228e-02,  7.39560872e-02, -2.74197459e-02,  6.86276853e-02,  1.39153907e-02,  1.81766115e-02, -5.78263365e-02,  7.22295344e-02, -4.25387137e-02, -7.89279789e-02,  8.36633425e-03, -2.45543830e-02,  4.43039760e-02, -6.75433055e-02,  5.39647117e-02, -8.91141146e-02,  1.27004553e-02},
 { 3.51341404e-02,  1.23920552e-02,  9.46713332e-03, -1.92704238e-02,  1.04469948e-01, -4.18831920e-03,  7.98624977e-02, -7.93609917e-02, -6.21533096e-02,  9.11851153e-02,  4.51887697e-02,  9.01699439e-03, -6.33186325e-02, -6.70303255e-02, -9.03887302e-03, -7.58240074e-02, -6.59499168e-02, -7.14800954e-02,  1.52790379e-02, -1.26847215e-02,  4.54149880e-02, -6.72266558e-02, -7.85702914e-02, -4.37425151e-02,  5.92432469e-02,  2.20440105e-02, -1.85346231e-02,  9.00904909e-02, -3.50965187e-02,  5.87842651e-02,  4.80679348e-02,  2.14816723e-02,  2.90732086e-03,  2.22522323e-03, -6.36222661e-02, -4.54883352e-02,  5.21759987e-02, -2.90192906e-02, -2.32649082e-03, -4.28590178e-02},
 {-4.32118587e-02, -8.15515406e-03, -4.38781641e-02,  6.61914721e-02,  8.48177373e-02, -6.18326776e-02, -4.33283038e-02, -7.35441297e-02, -1.37321102e-02, -4.73365001e-02,  1.99095197e-02,  7.47819990e-02, -1.44927623e-02, -7.85354748e-02,  8.44304338e-02,  7.28803799e-02,  7.70119857e-03,  6.29027188e-02,  5.78893162e-02, -5.42684086e-02,  2.88506169e-02, -5.96143014e-04,  3.39723043e-02, -1.13126310e-03, -1.90164638e-03, -1.21123046e-02, -4.83315438e-02,  6.51832148e-02,  8.68874975e-03, -5.81803136e-02,  2.33004652e-02, -4.09641415e-02, -1.00080948e-02, -7.13373721e-02, -5.41894846e-02,  2.71170195e-02, -7.45824352e-02,  4.76772860e-02, -1.96589902e-02, -5.46776429e-02},
 {-4.37483341e-02,  1.61522755e-03, -2.42097080e-02, -5.90950884e-02,  3.34740966e-04,  2.37558875e-02,  8.99831876e-02, -1.21076731e-02,  9.85306036e-03, -3.89431976e-02, -5.65579273e-02, -7.21558258e-02, -4.27094251e-02, -2.75387987e-02, -4.94955927e-02,  7.31638819e-02, -2.71557905e-02, -1.03074476e-01, -1.07858442e-01,  6.07159361e-02, -6.11526109e-02, -3.71560752e-02, -6.67910948e-02,  4.49251942e-02,  2.90443730e-02, -1.12017160e-02, -3.30244079e-02,  3.81884053e-02, -7.31433854e-02,  2.63807811e-02, -7.12980404e-02,  7.76257664e-02, -9.20933783e-02, -2.90590245e-02,  6.18985370e-02, -7.52300769e-03,  3.76203214e-03,  4.61899899e-02,  3.51116098e-02, -6.37285560e-02},
 { 5.50734475e-02, -7.57555217e-02, -3.37261073e-02,  5.53442575e-02,  8.36639553e-02, -7.80079560e-03, -2.38682982e-02,  7.06249252e-02,  3.87161486e-02,  3.19160298e-02, -3.27407047e-02,  7.82276317e-02,  8.48465264e-02,  7.95464292e-02,  5.93049526e-02, -1.05202328e-02, -2.88428683e-02,  6.13135193e-03, -2.89369915e-02, -7.41653964e-02,  5.82608730e-02, -6.51964471e-02, -2.30871364e-02,  1.98230352e-02,  9.29982588e-02,  3.01388577e-02,  3.13431434e-02,  5.98416477e-02, -2.30170395e-02,  7.60473981e-02, -5.82620203e-02,  4.32972610e-02, -1.30915660e-02,  1.71542149e-02,  2.15635751e-03,  7.46907433e-03, -7.31625855e-02, -8.89055803e-02,  3.43210883e-02,  4.31022188e-03},
 {-4.74623032e-02,  1.31997280e-02, -1.67845865e-03,  8.00792724e-02,  1.83429196e-02, -7.57106394e-02,  3.78504060e-02, -2.16826703e-02, -1.86157320e-02,  1.41075831e-02, -6.01045676e-02,  4.27547321e-02, -6.47546053e-02,  2.35246103e-02, -2.65047662e-02, -5.44030331e-02, -2.06995159e-02, -9.31071397e-03, -9.32778269e-02, -2.21571196e-02,  8.31069052e-02,  1.30771473e-02, -2.10245978e-02, -9.34485160e-03,  1.67200826e-02,  1.31317805e-02,  7.79668987e-02,  5.17450273e-02, -2.43477654e-02,  1.85085014e-02, -4.61062007e-02,  7.14637116e-02,  2.19470281e-02, -5.95131256e-02, -6.20642491e-02, -1.64993643e-03, -5.01303412e-02,  3.57647724e-02, -1.02187671e-01, -5.97399287e-03},
 { 1.01165809e-02,  5.72374032e-04, -3.41391074e-03,  1.74710508e-02,  6.89798295e-02,  6.17655329e-02, -2.62625329e-02,  8.47625583e-02, -4.86952662e-02, -4.23736051e-02,  5.00365272e-02,  5.16667850e-02,  2.33448017e-03, -2.72582751e-02, -3.04106735e-02,  5.46774501e-03,  3.66555713e-02, -4.67742197e-02,  2.94715874e-02, -6.23085350e-03,  2.64034830e-02,  4.15315628e-02,  3.95827480e-02, -4.00780886e-02,  1.02891987e-02, -1.04726918e-01,  3.01606189e-02, -1.29410310e-03, -1.36092314e-02, -4.03641872e-02, -9.35897976e-02,  3.43494006e-02, -8.40332881e-02,  3.30228023e-02, -2.97195353e-02,  1.05945870e-01,  2.69446615e-02, -2.04725489e-02, -8.42035487e-02, -8.09061080e-02},
 { 1.95063986e-02,  4.06379811e-03, -5.54052331e-02,  3.69377434e-02, -2.99360380e-02,  1.48527920e-02,  3.03536039e-02,  1.63987894e-02,  7.67613426e-02,  4.67046984e-02, -1.75640117e-02, -3.47420648e-02,  7.54240826e-02,  6.43357262e-02, -3.81764509e-02, -3.22233588e-02, -4.24564928e-02, -4.91614789e-02,  2.29671169e-02, -7.87264481e-02,  8.93186107e-02,  6.53359592e-02, -7.04881698e-02, -3.85195971e-03,  8.49245489e-02,  7.69926887e-03,  8.27689618e-02,  5.67173399e-02, -9.97363869e-03, -6.87130913e-02, -4.02895622e-02,  9.30320844e-02,  3.52322422e-02,  6.70887083e-02,  1.14511829e-02,  1.09316826e-01, -5.72126359e-02, -5.19467145e-02, -6.75744340e-02, -4.83447220e-03},
 {-9.19834673e-02, -8.25094357e-02,  1.85678583e-02, -6.21439219e-02, -2.37235874e-02, -1.64762791e-02,  4.92651053e-02,  7.47483373e-02, -3.61275822e-02, -6.78818375e-02, -3.65221053e-02,  1.72814168e-02, -2.30680816e-02,  6.04399778e-02, -1.07962787e-02, -4.08394709e-02,  6.05889633e-02,  9.92759168e-02,  6.35328740e-02, -9.25888866e-02,  8.99014100e-02,  2.64517963e-02,  7.10247783e-04,  2.37716250e-02,  3.90498363e-03, -1.00602046e-01,  9.16498527e-02, -8.12067371e-03, -5.05964756e-02,  6.26775399e-02, -3.98292840e-02, -2.83321757e-02,  1.84715334e-02, -1.75404213e-02, -5.23230135e-02,  8.65208507e-02,  1.14190429e-02, -2.83530802e-02, -1.01501070e-01, -4.84605245e-02},
 {-2.59288959e-02, -3.57526392e-02,  8.25958326e-02,  2.29252912e-02, -5.15438169e-02, -5.70544526e-02,  5.75662144e-02,  6.45660236e-02,  6.39921427e-02,  5.06806299e-02, -4.65086512e-02, -3.88942324e-02,  2.12347088e-03, -5.50657026e-02,  6.73610196e-02,  3.35192569e-02, -6.90378249e-02, -1.52842179e-02, -1.95758361e-02, -8.66813436e-02,  6.92107752e-02, -4.31259349e-02, -3.48727517e-02,  4.34133559e-02, -5.63227087e-02,  6.38905615e-02,  6.04804903e-02, -1.70363300e-02, -4.37781401e-02,  4.42423150e-02, -7.55495578e-02,  2.31069908e-03,  5.16469441e-02,  5.20432293e-02, -3.69479740e-03,  3.89651768e-02, -3.71711366e-02, -4.56747077e-02,  1.45287830e-02, -5.44568002e-02},
 {-1.42049547e-02,  5.35776019e-02, -6.08103238e-02,  3.39287594e-02,  2.62571983e-02,  9.71056579e-05, -4.87072282e-02, -1.83144510e-02, -6.83132857e-02,  2.83015762e-02,  6.14509061e-02,  1.00342363e-01,  9.01712403e-02, -4.47909199e-02,  8.58183205e-02,  4.95452359e-02, -6.23433031e-02, -1.44491456e-02, -3.41282524e-02,  2.32216846e-02, -6.73287734e-02,  3.20637822e-02,  2.59717144e-02, -2.80774273e-02,  6.29549054e-03, -8.34592581e-02,  1.49529716e-02,  3.50407604e-03,  5.06132953e-02,  1.89887844e-02, -3.62060294e-02,  3.03252507e-02, -3.97303142e-02, -5.37814165e-04,  1.42491413e-02,  1.79890338e-02, -2.75537614e-02, -1.66231152e-02,  1.81253087e-02,  5.77809587e-02},
 {-1.17035463e-01,  5.49932104e-03,  3.81101780e-02,  5.79254813e-02,  5.45259267e-02,  4.82163094e-02, -5.77916130e-02, -5.72763532e-02, -2.44177715e-03,  5.96888140e-02, -6.24478273e-02, -2.49982271e-02, -1.70228090e-02, -5.31354547e-03,  1.07293352e-01, -2.94479616e-02,  7.66401663e-02,  2.79863477e-02,  2.33743750e-02,  1.89452944e-03,  6.38206005e-02, -3.65974614e-03, -2.79732477e-02,  1.25459665e-02, -7.54413530e-02, -1.36972219e-02, -3.14925201e-02, -2.70961435e-03,  4.98238467e-02,  5.59196062e-02, -6.06539026e-02,  2.21159253e-02, -1.87526215e-02,  2.35649627e-02, -5.84103502e-02,  7.39015862e-02, -8.14469680e-02,  4.80215661e-02, -5.77482060e-02,  2.31632143e-02},
 { 2.85260770e-02, -8.21992755e-02, -6.97317123e-02, -5.77687435e-02,  4.94480208e-02, -8.43755379e-02,  6.85924515e-02, -7.56490827e-02, -4.23231348e-02, -6.61542192e-02, -4.26436998e-02,  5.45892194e-02,  2.98174210e-02,  1.05436882e-02, -4.24950272e-02, -9.16770622e-02,  3.74615453e-02,  4.02310006e-02, -7.80632645e-02,  2.69845175e-03,  5.08575924e-02, -5.14293052e-02, -2.77534258e-02,  1.85023844e-02, -1.17612695e-02, -8.25411677e-02,  8.33013430e-02,  7.90311694e-02, -5.20686544e-02, -7.44369999e-03, -1.95280463e-02, -3.52879912e-02,  4.02816460e-02, -8.67543835e-03, -4.40573208e-02, -3.04537639e-02,  1.52104972e-02,  3.24073620e-02,  5.62177487e-02, -6.26382977e-02},
 {-3.29161528e-03,  1.17838895e-02,  1.20429778e-02,  7.13449642e-02, -3.68662253e-02, -6.88169152e-02, -1.56369433e-02, -6.89785704e-02, -9.38788429e-02,  8.94730240e-02, -1.06069269e-02,  2.71095149e-02,  2.76159053e-03, -7.41963685e-02, -4.83951345e-02, -1.27043491e-02, -8.68618563e-02,  9.14310738e-02, -8.33649039e-02, -1.64719634e-02,  1.17499977e-02, -2.15990655e-02, -5.61709423e-03,  4.65641432e-02, -1.43646207e-02,  7.77544826e-02,  1.77078340e-02,  3.09488438e-02, -9.50173568e-03, -2.03443542e-02,  1.05249193e-02,  1.47478748e-02, -5.31311007e-03, -9.69359651e-02,  8.36689994e-02,  7.30271116e-02, -1.48153002e-03, -9.12730545e-02, -7.55818747e-03,  3.18442769e-02},
 { 2.79196221e-02,  4.51816432e-02, -7.38984421e-02,  2.87746475e-03, -2.20567770e-02, -2.16555069e-04, -5.32267019e-02, -5.62157370e-02, -9.15050134e-02, -2.70715188e-02,  8.61215293e-02,  4.85296138e-02, -4.73839603e-03, -9.54995677e-03, -1.29386000e-02, -6.01631738e-02,  2.96771117e-02,  6.75793588e-02, -9.32179391e-02, -8.01735148e-02,  8.88870955e-02, -6.66859299e-02, -5.85584641e-02,  7.64050558e-02,  6.28783628e-02, -4.22305949e-02, -6.67523369e-02,  7.26470500e-02, -4.54807431e-02,  2.42936928e-02, -6.67477921e-02,  8.57521147e-02, -3.36764641e-02,  4.46250476e-02,  3.32624242e-02,  2.96463650e-02, -9.47438106e-02,  7.57325664e-02, -5.88507466e-02, -1.42803984e-02},
 {-1.97202596e-03,  2.26978734e-02,  2.69567557e-02, -5.10525219e-02,  2.56217644e-02, -1.00409105e-01, -7.00882152e-02,  3.39472946e-03, -7.11435005e-02, -4.96003889e-02,  4.49854396e-02,  6.81979349e-03,  1.62536278e-04,  9.74653736e-02,  7.29587153e-02, -3.65354754e-02, -6.03616759e-02,  6.38353154e-02, -6.88052624e-02,  3.91853228e-03, -3.28001343e-02, -3.24589610e-02, -1.31948050e-02,  2.10796371e-02,  8.46418291e-02,  4.57401238e-02,  7.47439340e-02, -3.22260559e-02,  2.95357350e-02, -6.92825299e-03, -4.02265340e-02, -6.89714700e-02, -6.29511848e-02, -8.66821930e-02, -6.01498261e-02,  9.14804935e-02,  1.22084161e-02, -2.29092478e-03,  6.58065528e-02,  1.11598242e-02},
 { 4.99589108e-02, -5.55527322e-02, -3.34465466e-02,  7.87417591e-02, -4.59091924e-02, -1.10899352e-01, -3.99662182e-02,  1.14528672e-03,  1.13117006e-02, -5.68999760e-02,  3.61893233e-03, -4.43823598e-02, -6.67281151e-02,  5.94898425e-02, -2.29457058e-02,  4.22264822e-02,  6.59036413e-02, -9.84111335e-03,  4.76645865e-02, -9.62576568e-02,  1.02108940e-02,  8.30050409e-02, -2.52870005e-02,  2.18621385e-03,  6.15792088e-02,  7.89355263e-02, -3.71003933e-02,  7.89258853e-02,  7.57134845e-03,  5.31230634e-03, -3.94720472e-02, -4.97193858e-02,  2.01020949e-03,  2.75656022e-02, -2.87364814e-02,  5.91137037e-02, -7.28019476e-02, -2.70165801e-02,  3.36691737e-02,  1.51186530e-03},
 { 3.20606716e-02, -8.12554434e-02, -3.55008468e-02,  1.13578942e-02, -4.14817184e-02, -1.90391424e-04,  3.15242447e-02,  4.27422812e-03, -4.90562990e-02, -8.24148878e-02,  3.73697169e-02,  1.97090935e-02, -1.83307193e-02,  2.74143685e-02, -4.73932028e-02,  6.94675669e-02, -5.30763566e-02,  5.46370819e-02, -7.74306655e-02, -1.93782039e-02,  3.41784172e-02, -5.95747642e-02,  7.59455636e-02, -6.77675977e-02, -2.92614251e-02, -5.12087084e-02,  4.77343313e-02,  2.17005014e-02,  1.65217631e-02, -8.67879689e-02,  6.43186793e-02,  4.75451834e-02,  1.18295569e-02,  4.97196615e-02, -3.15540507e-02, -4.82763909e-02, -4.31448855e-02, -7.59908855e-02,  3.84548642e-02,  3.84544246e-02},
 {-6.48627579e-02, -3.51649560e-02, -2.58392971e-02,  2.02471241e-02,  2.44788304e-02,  6.85925176e-03,  1.99981127e-02,  9.05035902e-03, -1.70285664e-02, -7.33602345e-02, -4.40313742e-02,  6.69533983e-02, -3.58870476e-02,  3.47533599e-02, -1.74499489e-02, -7.99890608e-02, -9.67057305e-04, -4.15398628e-02,  6.09956682e-02, -6.37283549e-03, -7.13019744e-02,  1.47546949e-02, -3.99824977e-02, -4.06347588e-02,  5.24643809e-02,  1.94080360e-02, -9.34534799e-03,  1.84407812e-02,  7.82708526e-02,  1.03089986e-02, -6.79343715e-02,  4.02508453e-02, -1.46653885e-02,  2.92898770e-02,  3.35485674e-02, -6.46249354e-02,  5.63910194e-02,  2.17953958e-02, -1.12927333e-02,  4.06400859e-02},
 { 7.39502758e-02,  1.22064352e-02, -7.40186125e-03,  6.75305575e-02, -7.41313249e-02,  6.49250299e-02,  1.61051005e-03, -5.63795045e-02, -8.20920169e-02, -7.24114403e-02, -4.83840816e-02,  2.01428160e-02,  7.41719306e-02, -5.66133112e-03,  6.80754036e-02,  3.84845957e-02,  3.40155512e-02,  1.28935575e-02, -7.59124756e-04,  2.31568888e-02, -3.35192606e-02,  1.42970383e-02,  1.01076737e-02, -6.09972104e-02,  6.54905140e-02, -2.33646519e-02, -2.50273049e-02,  7.00926185e-02,  7.01361895e-02,  5.19232303e-02, -2.49896273e-02,  6.07960373e-02,  1.51696503e-02,  6.15659058e-02,  2.73508802e-02,  6.51635677e-02, -2.36135498e-02, -8.53309408e-02, -4.14855480e-02,  5.91958463e-02},
 { 2.28108093e-02,  5.54174185e-03,  6.92844391e-03,  1.96768641e-02,  8.21400434e-03,  5.45865595e-02,  9.89427418e-03, -3.53760235e-02, -1.38518140e-02, -2.29262821e-02, -2.14769244e-02,  3.95160317e-02, -7.24254400e-02,  8.11366737e-03, -6.99975640e-02, -6.43483326e-02, -7.74532184e-02,  7.49373436e-02,  4.64203507e-02,  1.91598013e-02, -8.52554291e-03,  7.62494355e-02,  6.72778934e-02, -7.79417977e-02,  7.44150281e-02,  3.70671600e-02,  1.74663439e-02, -1.03582814e-02,  5.36254793e-03,  4.52504903e-02, -3.79661322e-02,  6.83178008e-02,  1.59338191e-02,  4.33147848e-02,  7.17045665e-02, -7.02408403e-02,  1.77329034e-03, -4.49184179e-02,  3.07838619e-03, -3.64701822e-02},
 { 8.91895872e-03,  4.11485285e-02, -1.79827362e-02,  5.34756333e-02,  1.91399250e-02, -1.62983425e-02,  4.48894054e-02, -7.79346824e-02,  8.83305259e-03,  1.03186313e-02,  8.08337852e-02, -4.63317521e-02,  4.72289547e-02,  2.39147115e-02,  6.06682152e-02,  3.84467617e-02, -7.00799227e-02, -3.13547440e-02, -6.09574690e-02, -4.43727151e-03,  1.17198955e-02, -5.96899018e-02,  2.42120102e-02, -2.58415062e-02, -9.11622681e-03, -1.00726411e-02, -2.99135018e-02,  6.08226135e-02, -2.14417409e-02,  3.11343372e-02,  6.33790940e-02, -4.02734801e-02, -7.43034855e-02, -1.75260343e-02,  9.63499211e-03, -3.96437123e-02,  8.00526291e-02, -6.60425276e-02,  5.90176284e-02,  1.14442939e-02},
 {-4.80787903e-02,  7.54740611e-02,  8.47714618e-02,  3.52222547e-02,  7.67256171e-02,  1.75015796e-02, -2.94116009e-02,  7.84752816e-02,  8.04942772e-02,  4.63526510e-02, -1.29932892e-02,  4.71509807e-02,  3.61221544e-02,  5.13933077e-02,  5.19841984e-02,  4.68646362e-02,  3.49023938e-02, -3.45733538e-02, -7.42529780e-02, -7.61094466e-02, -5.94862290e-02,  7.87280500e-02,  6.91359565e-02, -7.99210221e-02, -3.28836739e-02, -6.01657555e-02,  7.32255355e-03,  7.71975145e-03,  1.35707585e-02, -3.22265029e-02,  5.62834516e-02, -4.38562036e-02,  7.82821774e-02,  3.37995647e-04, -5.21084629e-02,  3.65325809e-02, -5.05446233e-02,  6.09864667e-03,  6.71198741e-02, -2.36683171e-02},
 { 5.04401512e-02,  7.54297245e-03, -2.60021277e-02,  1.73851084e-02, -3.60870734e-02, -9.62984860e-02, -4.95917797e-02, -2.00828500e-02, -5.51018119e-02, -2.79468037e-02,  3.33247855e-02, -2.15819236e-02,  3.32274055e-03,  7.40763247e-02,  7.50223324e-02, -6.79050833e-02, -1.36177437e-02, -4.05001901e-02, -5.39465435e-02, -3.16626504e-02,  3.94766033e-02,  3.82839851e-02, -8.27971175e-02,  2.20233370e-02,  6.31037680e-03, -5.89136034e-03, -1.98111963e-02, -4.80544614e-03,  6.76110983e-02,  3.93639207e-02,  3.12359426e-02, -2.35191640e-02, -6.56672418e-02,  1.64025128e-02, -7.60314148e-03, -3.37110907e-02, -2.40807049e-02,  1.63906459e-02, -2.82966141e-02, -6.95255473e-02},
 { 6.68729022e-02,  7.20138401e-02, -1.37696613e-03, -1.38580585e-02,  9.05957669e-02, -1.52666811e-02, -2.94820238e-02,  3.46806012e-02, -6.83026090e-02,  2.35219933e-02, -8.85220394e-02, -5.55448048e-02,  7.82928914e-02, -2.62987558e-02, -7.21663237e-02,  4.86512519e-02,  2.87471917e-02, -7.72437546e-04, -9.65144560e-02, -2.09998004e-02,  7.46111795e-02,  8.13857093e-03, -3.79967019e-02, -3.75486277e-02,  2.87455805e-02, -3.60747091e-02, -8.05987939e-02, -1.32733062e-02,  2.45672595e-02,  8.15176368e-02,  8.54172185e-02, -1.15534225e-02, -6.21745251e-02,  3.42109129e-02, -8.28114972e-02,  3.02286502e-02,  1.41590657e-02,  7.63013959e-02,  4.00908925e-02,  1.09137306e-02},
 {-4.50260043e-02, -6.84909970e-02, -7.64982775e-02,  4.47481535e-02,  7.49676768e-03, -1.06322899e-01,  5.03480434e-02,  6.68022856e-02,  2.43031569e-02,  5.69925644e-02, -2.99077686e-02,  1.89117473e-02,  6.91606775e-02,  6.90528080e-02,  5.95996492e-02, -6.43101782e-02, -2.29574274e-02, -2.01922618e-02, -1.75712891e-02,  1.49118444e-02,  5.51120527e-02,  2.49908734e-02,  7.55527020e-02, -9.49975476e-03, -4.45572622e-02, -3.26813711e-03,  7.08668977e-02,  9.12942924e-03,  2.09353417e-02,  6.98904544e-02,  1.90594215e-02, -5.03913052e-02,  1.58504490e-03,  2.84727127e-03, -3.47314891e-03,  5.31297103e-02, -2.47006509e-02,  4.61083874e-02, -6.11275733e-02, -9.44770500e-02},
 { 5.42756990e-02, -6.68300986e-02, -7.66262114e-02, -4.10278440e-02,  1.03468627e-01,  1.26057100e-02,  7.43121654e-02, -3.20058092e-02, -8.04588720e-02,  2.26670224e-02, -5.65066449e-02, -5.46886250e-02, -2.95636691e-02,  5.45937428e-03,  1.31161325e-02,  7.25293532e-03, -1.82383154e-02, -2.25453880e-02, -3.19687985e-02, -6.87063038e-02,  9.01132897e-02, -2.18687262e-02,  5.54793142e-02, -2.73059849e-02, -7.65565112e-02, -7.73171112e-02, -4.06771041e-02, -3.07531618e-02,  8.96924958e-02, -1.15937777e-02,  8.73340368e-02, -7.38613605e-02,  3.15980054e-02,  4.96369563e-02,  6.79654554e-02,  2.56015230e-02, -2.33020503e-02, -6.51345178e-02, -8.71190354e-02, -8.05328861e-02},
 { 6.38165772e-02,  5.16883321e-02,  1.25534385e-02,  7.29584694e-02,  7.29463845e-02, -2.25724140e-03,  6.25167564e-02, -4.42055240e-02,  7.24515840e-02, -2.73515489e-02, -7.53792152e-02, -7.75237083e-02,  4.34278175e-02,  3.37925628e-02, -5.83817437e-02,  7.60463178e-02,  4.46151234e-02, -3.32665145e-02, -1.59125309e-02, -3.53157613e-03, -3.43705248e-03, -1.32191991e-02, -4.60321642e-02, -6.48956522e-02,  3.62565070e-02,  7.87523538e-02,  5.85022718e-02,  4.68052588e-02,  2.13978402e-02, -8.28326941e-02, -4.03995514e-02, -4.00527418e-02, -7.81060606e-02,  3.33620002e-03, -7.08638728e-02, -2.56473646e-02, -4.72347206e-03, -3.37563492e-02, -7.58554563e-02, -7.11575300e-02},
 { 1.52616985e-02, -1.25530604e-02,  6.02245070e-02, -2.52487604e-02, -5.42453490e-02, -8.43133777e-02, -5.63880615e-02, -5.00305668e-02, -7.97000527e-02, -9.43882484e-03, -6.08951272e-03, -6.47138283e-02, -1.68870762e-02, -1.46272648e-02, -5.21272905e-02, -7.52910823e-02, -1.79246236e-02, -6.15854487e-02,  1.04184765e-02,  1.08635444e-02, -3.56063209e-02, -6.72108009e-02,  8.37228596e-02,  6.42288327e-02, -6.35390170e-03, -4.96155135e-02,  5.04391603e-02, -6.18725754e-02, -1.30063584e-02,  8.05981010e-02,  7.89338052e-02, -7.87031054e-02, -8.96456316e-02, -1.02020234e-01, -6.42122701e-02,  1.43251419e-02, -5.26579767e-02, -2.59369370e-02, -8.76239389e-02, -4.14254777e-02},
 { 3.92525345e-02, -9.44103897e-02, -9.78550017e-02,  7.68035352e-02,  7.88475126e-02, -9.20196995e-02,  7.75857717e-02,  4.54980098e-02, -7.44369626e-03, -6.16560085e-03,  5.13673164e-02,  4.37797196e-02, -7.28576034e-02,  6.72773197e-02,  3.18321101e-02, -2.45352592e-02,  1.49198566e-02,  4.83219624e-02,  2.10385118e-03,  5.48808835e-02, -7.06213340e-02,  7.66365044e-03,  8.82785171e-02, -3.85196358e-02, -4.46808897e-02,  9.07782987e-02, -2.08273977e-02,  2.33847946e-02,  5.95294051e-02,  1.29040098e-02,  6.94428757e-02, -2.84770224e-02, -1.76905487e-02, -6.56955540e-02,  6.80894554e-02,  3.58633697e-02, -7.22725764e-02, -4.78157885e-02, -9.50209424e-02, -3.67895700e-02},
 { 1.38010466e-04, -2.20660791e-02,  1.65823475e-02,  5.05270716e-03,  1.04882322e-01, -8.67259353e-02,  2.87840031e-02,  5.48636466e-02,  3.62367146e-02,  5.15012396e-03, -5.04821204e-02, -6.64221048e-02,  2.96146404e-02, -1.79538950e-02, -5.09026013e-02,  1.39092822e-02,  6.37270287e-02,  6.11305609e-02, -1.00362012e-02,  4.82079312e-02,  2.34141480e-02, -6.97475970e-02,  1.55735072e-02,  2.46073939e-02,  2.12452654e-02, -3.76580581e-02,  1.80120301e-02,  9.59761217e-02,  7.90136546e-05, -2.30846577e-03,  8.03566873e-02,  4.34486941e-02, -1.04868310e-02, -5.43476455e-02,  3.33259851e-02, -5.98749593e-02, -1.04553171e-01, -4.89431210e-02, -7.46971220e-02, -2.48258580e-02},
 {-4.30389456e-02,  6.23683780e-02, -3.73224989e-02, -5.39931171e-02,  7.24007785e-02,  1.08995000e-02, -7.45924935e-03, -7.66895860e-02, -5.91379739e-02,  5.92602640e-02, -1.74640492e-02, -9.92814265e-03, -3.89908031e-02,  4.11028042e-02, -6.64946139e-02, -1.87969524e-02, -6.16488280e-03, -4.78592291e-02, -9.46973190e-02,  1.04633728e-02,  6.07338771e-02,  1.80514809e-02,  1.21448543e-02,  2.27903798e-02,  5.11863641e-02, -2.49011274e-02,  3.40901390e-02,  2.36131065e-02,  6.95044771e-02,  5.01393974e-02, -2.79825181e-02, -5.97629044e-03,  5.63957579e-02, -5.11333048e-02, -5.66152669e-02,  8.40349272e-02, -7.18770847e-02,  3.79236117e-02, -8.50751549e-02, -1.11140259e-01},
 {-3.26835848e-02, -9.20841917e-02, -1.56699084e-02,  6.75448924e-02, -4.11397032e-02, -3.00628059e-02,  7.81369209e-02,  7.71866888e-02, -6.78078160e-02,  3.29317749e-02,  4.26531769e-03,  1.02148652e-01, -1.63371097e-02,  4.61857812e-03,  5.39746173e-02,  4.90886718e-02,  2.49783602e-02,  8.68856790e-04,  5.60837053e-02,  7.05541000e-02, -6.73716068e-02,  2.09283028e-02,  4.66792583e-02,  3.84456269e-03,  6.70037344e-02,  3.99093479e-02,  5.46842180e-02,  8.54098350e-02, -3.90006378e-02, -6.55953065e-02, -8.28749239e-02, -5.04162833e-02, -2.84899585e-02, -3.75295393e-02,  8.38101134e-02, -2.02530175e-02, -7.07891360e-02,  3.97076532e-02, -1.11532390e-01,  2.11637989e-02},
 {-4.22468297e-02, -1.00792013e-01,  7.46501535e-02, -7.34320357e-02, -7.53866434e-02, -7.96342120e-02,  9.62313041e-02,  4.16288376e-02,  4.80572954e-02, -5.64792901e-02, -3.18466164e-02, -3.46765667e-02, -4.38536219e-02, -5.57520753e-03,  8.88450667e-02,  8.32493156e-02,  1.97789893e-02, -6.15900569e-02,  3.46883163e-02, -3.00793722e-02,  5.37572578e-02,  7.50718638e-03, -6.26324788e-02,  5.40093072e-02, -6.43720552e-02,  2.97029391e-02,  8.17602649e-02, -3.47836167e-02,  1.34152956e-02,  3.39070186e-02, -7.61608556e-02, -4.69099917e-02, -3.38678546e-02, -7.33232945e-02,  9.31196138e-02,  1.02334201e-01, -7.50545189e-02,  4.23713662e-02,  1.30733885e-02,  1.51824346e-02},
 {-2.77154557e-02, -4.56484258e-02, -5.61854057e-02,  6.54123817e-03,  3.83326188e-02, -7.44455159e-02,  8.48844796e-02,  5.54331578e-04,  4.60620522e-02,  5.01309000e-02,  2.48455554e-02,  1.15812279e-01, -9.32687521e-03,  9.02328566e-02, -4.64410670e-02,  1.27463592e-02, -2.72564851e-02,  4.64223959e-02, -2.48580910e-02, -6.64904416e-02, -2.24031508e-02,  2.95942668e-02,  3.84968370e-02,  3.44840027e-02, -6.13665394e-02, -1.11179605e-01,  9.79356468e-02, -1.08823208e-02, -8.28277096e-02,  5.29551432e-02,  1.66416075e-02,  6.76220432e-02, -9.72912926e-03,  3.95240299e-02, -1.98802110e-02,  5.25281839e-02,  6.30298033e-02,  4.04108129e-02,  4.22703661e-02, -6.40234277e-02},
 { 2.96296785e-03,  3.06511018e-02,  1.89248612e-03,  8.94497614e-03, -6.65873960e-02,  4.08137869e-03, -8.76136404e-03, -2.22336035e-02,  3.82775217e-02,  4.37474921e-02, -5.14782220e-02,  6.22326396e-02, -6.98103905e-02,  2.41595991e-02,  1.08476102e-01,  4.27630991e-02, -1.51448771e-02,  6.78822026e-02, -5.87000363e-02, -8.75604302e-02,  1.40327197e-02,  6.38311803e-02,  7.78181404e-02,  8.57045949e-02,  5.66918217e-02, -4.86530252e-02, -4.29444462e-02,  2.82722944e-03,  2.61388328e-02, -5.16223796e-02, -8.83075148e-02,  1.08980183e-02, -2.87281014e-02, -6.64707273e-02,  7.57433325e-02,  7.79650584e-02,  4.70645204e-02,  4.09179628e-02, -2.31886320e-02, -7.28840232e-02},
 {-1.33789241e-01,  3.72197852e-02, -6.61689509e-03, -3.86358649e-02, -5.93381785e-02, -3.39496285e-02, -1.64383259e-02,  2.68877503e-02,  5.00573479e-02,  7.63606131e-02,  2.13976833e-03,  9.08674747e-02,  8.00417066e-02,  1.83347682e-03,  8.48842505e-03,  4.91543412e-02,  1.65730957e-02,  8.11158344e-02,  2.08878634e-03,  5.47070950e-02,  7.96205774e-02, -2.05407124e-02, -1.23376036e-02, -4.49494086e-02, -4.33295742e-02, -5.39528914e-02,  5.61584644e-02,  8.32919106e-02, -3.38852182e-02,  4.65700366e-02, -1.18016060e-02, -3.23087238e-02, -6.62446320e-02, -6.06199689e-02,  1.51871573e-02,  7.85803944e-02,  6.54715598e-02,  5.23169301e-02, -5.11443727e-02, -1.52245909e-02},
 {-1.03655778e-01, -4.76778001e-02,  2.60851234e-02,  4.50928882e-02, -2.84791831e-02, -5.78666478e-02,  8.86936858e-02,  3.76245864e-02, -5.23493998e-02,  6.41417727e-02,  2.12760214e-02,  3.81032750e-02,  3.87615934e-02, -5.14600128e-02,  3.30061838e-02,  1.77040771e-02,  6.87992945e-02,  4.76112403e-02,  1.26443978e-03,  2.20636465e-02, -3.12674418e-02, -1.54166305e-02,  3.72084696e-03,  5.25629967e-02, -8.52443054e-02, -6.87804148e-02, -2.08457615e-02, -1.43272867e-02, -4.34537306e-02,  1.39482543e-02, -4.97518443e-02, -4.68311533e-02,  5.64851165e-02, -6.91244602e-02,  2.15349928e-03, -2.61295680e-02, -4.60387133e-02, -2.54040435e-02, -6.97508827e-02, -5.62162139e-02},
 { 1.44516863e-02, -7.40407454e-03,  2.85675451e-02, -3.04415319e-02,  5.90033829e-02, -3.81844752e-02, -4.72559445e-02, -6.45627305e-02, -1.00784108e-01,  6.74077570e-02, -2.50109588e-06,  8.07330012e-02,  2.57643703e-02, -3.43813971e-02, -5.19979559e-02, -3.17213908e-02, -1.09437238e-02, -8.70544985e-02, -6.35206848e-02, -3.02377027e-02, -2.94208750e-02, -8.79691318e-02, -3.52683216e-02,  1.15774348e-02,  6.64901361e-02,  1.40211824e-02,  1.16482293e-02, -1.85983453e-03, -3.02386377e-02,  1.61606278e-02, -4.04034704e-02,  5.52691743e-02, -3.47883552e-02, -2.01891959e-02, -4.64657024e-02, -1.72406938e-02, -3.29418201e-03,  4.41026650e-02,  1.60521232e-02, -9.92435738e-02},
 {-6.52902341e-03,  4.90752868e-02,  3.05548757e-02,  3.19525488e-02, -9.05773640e-02, -1.80461183e-02, -3.63859609e-02,  5.57743236e-02, -1.12583563e-01, -3.98927107e-02, -5.99510707e-02,  8.02257061e-02, -7.04036932e-03,  7.60334358e-03, -3.85393873e-02, -5.60922101e-02, -6.86916709e-02, -4.22111414e-02,  5.69133572e-02,  3.55479345e-02, -1.42313279e-02, -3.07169054e-02,  5.37682734e-02, -6.82791322e-02,  1.82222668e-02,  3.20797302e-02,  3.22962925e-02,  1.56923961e-02, -3.25463153e-02, -2.00799834e-02, -9.64783207e-02,  2.86675692e-02,  2.89420374e-02, -3.65105085e-02, -5.03547639e-02,  3.42671759e-03, -5.01128994e-02,  4.77641001e-02, -6.85137138e-02, -1.01414673e-01},
 {-5.14022373e-02, -8.55398551e-02, -2.57113539e-02,  2.06373110e-02, -6.99762851e-02, -1.21145695e-02,  6.03682138e-02,  3.87257375e-02, -3.24064232e-02,  4.40870877e-03,  1.32542541e-02,  2.78517548e-02,  4.79299761e-02, -1.42015321e-02,  1.03164993e-01,  2.49284394e-02,  6.70959009e-03,  4.69857790e-02, -4.90800291e-02,  1.14882307e-03,  5.44987284e-02,  5.32855652e-02,  6.32646382e-02,  6.06903695e-02,  1.11672052e-04,  4.99358587e-02,  9.10825580e-02,  9.60767418e-02, -3.29787433e-02,  8.71470943e-02,  1.56117335e-03, -3.67034897e-02, -3.59340236e-02, -4.45047617e-02,  1.33242812e-02,  1.02609597e-01, -1.99276507e-02, -2.36532185e-03,  1.56779345e-02, -1.14180669e-01},
 {-7.64998943e-02, -1.00583874e-03, -3.23523395e-02,  9.39673707e-02,  1.00316443e-02, -8.60006064e-02,  6.18155301e-02, -1.00151543e-02,  1.17424270e-02, -1.37132723e-02, -2.38558482e-02,  7.84638897e-03,  1.12284226e-02, -6.91326708e-02,  5.70814572e-02, -4.78533795e-03, -4.65897620e-02,  5.49174808e-02, -7.98490196e-02, -7.69225582e-02,  3.29885967e-02,  1.52305812e-02, -4.37669829e-02, -3.19429375e-02,  2.94278152e-02, -5.95109686e-02,  1.06141523e-01, -1.34009607e-02, -5.96695915e-02,  1.85205985e-03, -2.08353996e-02, -4.83531915e-02, -5.86584732e-02,  5.18686995e-02, -2.55510807e-02, -1.15108890e-02,  4.46276106e-02, -2.43715825e-03,  5.33824489e-02, -1.05893314e-01},
 { 9.11534671e-03,  5.45465611e-02, -1.48983495e-02,  5.59638366e-02, -6.12355024e-02, -3.48363407e-02, -3.90766300e-02,  4.41870131e-02,  8.35562125e-03, -6.21693879e-02,  3.86768626e-03,  2.97346395e-02, -2.90881982e-03,  3.77158187e-02,  9.08574238e-02, -2.29840800e-02, -1.47580886e-02,  9.14918259e-02,  4.78121154e-02,  2.19111871e-02,  5.21221533e-02, -1.01062365e-01, -1.43669313e-02,  9.15648416e-03, -8.30683392e-03, -6.97066560e-02,  9.03833881e-02, -1.68852769e-02,  3.03245820e-02, -2.09193025e-02, -1.03737541e-01,  1.91291701e-02,  2.82326136e-02, -1.56031642e-02,  5.95296063e-02,  1.10264029e-02,  1.51543897e-02,  5.45622222e-02, -8.09127539e-02,  2.60019749e-02},
 { 4.03579250e-02,  2.18233485e-02, -6.84688915e-04,  1.12676501e-01, -8.96357652e-03, -4.27355431e-02,  1.01347743e-02,  4.94761467e-02, -7.48429373e-02,  7.40387663e-02,  7.45540932e-02, -3.41782309e-02,  7.90628046e-02, -6.02125516e-03,  3.43998196e-03, -8.87189731e-02, -8.66236761e-02,  9.84529406e-02,  4.21955213e-02, -1.20048830e-02, -6.55801268e-03, -5.76042198e-03,  5.91939986e-02,  7.96727836e-02,  4.85311933e-02,  3.51211987e-02,  6.84087947e-02,  2.55770702e-02, -2.04929686e-03,  2.02448387e-02, -8.93803015e-02, -1.62027329e-02, -5.86093143e-02, -3.84114459e-02, -6.01085462e-02,  1.66714061e-02,  3.56878228e-02, -4.23013009e-02, -8.53517205e-02, -1.05941474e-01},
 {-4.40807343e-02, -6.17052838e-02, -2.60047186e-02,  3.16805467e-02, -4.04209197e-02,  3.68085690e-03,  4.33365954e-03, -6.32894337e-02, -4.82136533e-02,  6.08945191e-02,  2.68932823e-02, -8.50256234e-02,  5.01976535e-02,  2.87132058e-02, -5.91033362e-02,  6.65709972e-02,  7.97686074e-03,  9.49306712e-02,  2.30961889e-02, -8.37337822e-02,  4.64079864e-02,  9.29753389e-03,  7.25656340e-04,  1.03271157e-01, -3.13182101e-02, -6.84280172e-02, -6.91531450e-02, -5.34623004e-02, -3.07943076e-02, -3.64082865e-02,  3.45649868e-02,  1.91830844e-03, -1.07585855e-01,  6.24147505e-02,  6.88696578e-02,  8.17447752e-02, -4.12644073e-02,  6.46055788e-02,  1.05280243e-02, -7.57131055e-02},
 { 6.10712543e-02,  7.76264146e-02, -6.90513058e-03,  4.23320103e-03, -5.03622703e-02, -8.31872672e-02, -4.12173346e-02, -6.17439412e-02, -4.72198650e-02,  5.21299690e-02, -5.21999076e-02, -2.29609367e-02, -7.59455264e-02,  9.06580538e-02,  2.37704907e-02,  6.07229210e-02,  7.17710936e-03,  6.12002164e-02, -5.63423932e-02, -3.35442685e-02,  8.23143274e-02,  4.53426801e-02,  5.31087331e-02, -2.31797714e-02, -6.69950172e-02, -2.18427535e-02,  1.32134175e-02, -7.73319677e-02, -4.34348769e-02, -2.89530437e-02, -1.24350442e-02,  4.95657958e-02, -5.58769144e-02,  5.20214159e-03,  2.83209402e-02,  5.24553470e-02, -8.44821110e-02, -8.13578516e-02, -1.87257188e-03,  5.02097830e-02},
 {-4.72761728e-02, -5.85499555e-02,  4.22562361e-02,  7.93151781e-02, -1.74108911e-02, -8.31083730e-02, -5.89801632e-02, -7.65366182e-02, -4.26623523e-02, -7.80199363e-04, -7.37778991e-02,  7.71379620e-02,  6.10234477e-02, -1.52774211e-02,  9.68531705e-03, -2.76996437e-02,  7.12379515e-02,  1.90553199e-02,  7.94519037e-02, -4.91086766e-02,  5.40495552e-02, -3.07891448e-03, -6.06142245e-02, -3.05346306e-02,  3.38530354e-02, -4.40387316e-02,  5.53219616e-02,  5.21815419e-02,  7.50360414e-02,  3.45140770e-02,  3.85319814e-02, -7.37174302e-02, -1.50178075e-02,  2.62638070e-02,  5.99884167e-02,  4.11005504e-02, -3.52201536e-02, -6.93688467e-02,  7.27872774e-02, -2.68750414e-02},
 {-8.51868391e-02,  8.24935585e-02,  3.29560041e-03,  2.23377943e-02,  7.80941099e-02, -3.64591777e-02,  3.00112367e-02, -3.50811668e-02, -3.62978615e-02, -3.84771712e-02,  7.96144605e-02, -7.20222294e-03, -3.34583893e-02, -7.26366565e-02,  4.16147560e-02, -5.72460890e-02,  7.60734975e-02,  6.40666038e-02,  9.50536877e-03, -2.19349265e-02, -2.40419693e-02,  4.28367406e-02,  6.77414984e-03,  3.19928378e-02, -3.89953703e-03,  5.58682829e-02, -6.83198273e-02,  1.10194832e-02,  7.05675781e-03,  1.61359236e-02,  6.14868104e-02,  6.32357597e-02, -8.13344419e-02, -3.95839438e-02, -1.49506405e-02, -5.58771938e-02,  7.28853345e-02,  5.22273034e-02, -3.40671837e-02, -4.29583639e-02},
 { 4.64154631e-02, -6.96279779e-02, -1.85421854e-03, -1.71597525e-02, -1.32697970e-02,  1.64307579e-02,  2.05087960e-02, -5.08793443e-02, -5.57335578e-02,  4.57702130e-02,  6.79607689e-02,  8.30930620e-02,  7.51741827e-02, -2.60096900e-02, -7.72103667e-05,  8.18957984e-02,  5.23145795e-02, -2.26922408e-02, -6.90744817e-02, -7.52386674e-02, -8.02739710e-02, -9.89059359e-03,  2.11989135e-02, -5.81222773e-02,  7.55307376e-02, -3.93272340e-02,  7.59698153e-02, -2.01332569e-02,  3.46517488e-02,  4.87788171e-02,  5.15696555e-02,  2.85746157e-03, -6.78717792e-02, -6.48221076e-02,  1.28547028e-02, -3.80743667e-02,  8.29316229e-02,  5.70945591e-02,  2.16565281e-02, -5.66002056e-02},
 { 6.71949834e-02, -8.31812918e-02,  7.92827830e-02, -2.08637360e-02,  1.94497202e-02, -3.95071618e-02, -2.89676432e-02, -2.84200516e-02,  4.98290211e-02, -2.64433902e-02, -4.59493324e-02, -6.94393367e-02, -5.91079183e-02, -9.30366013e-03, -1.69218481e-02, -5.23125120e-02,  4.88409474e-02, -3.60870757e-03, -1.92336533e-02, -3.89504712e-03,  1.25917578e-02, -4.00940478e-02,  1.38848042e-02,  3.53342108e-02, -4.27303985e-02, -6.69891685e-02,  2.19676849e-02,  1.95223093e-02, -3.71876918e-02,  8.24355334e-02, -3.63901332e-02,  4.48259674e-02, -7.50756934e-02, -2.06583627e-02, -3.21873762e-02, -7.65836537e-02, -4.08681333e-02, -6.14390261e-02, -3.57019040e-03, -2.35922681e-03},
 {-4.69956137e-02,  2.16654539e-02,  5.51681370e-02,  4.62904647e-02,  8.13038349e-02,  1.53021747e-02,  5.48127666e-02, -7.82765076e-02,  3.97323072e-02,  8.95515922e-03,  3.95952463e-02, -8.05637464e-02,  8.37776586e-02, -6.77283555e-02,  1.22662885e-02, -6.34880885e-02, -6.89055817e-03,  6.66938201e-02, -4.80794301e-03, -6.68810457e-02, -2.39197630e-02, -3.44904698e-02,  1.56188337e-02,  7.33708292e-02, -1.41870342e-02, -7.64088780e-02, -4.06202599e-02, -4.55633812e-02, -2.93330625e-02,  2.52587851e-02,  3.14923003e-02, -7.15999529e-02,  3.10920570e-02, -2.51636282e-02, -1.00404797e-02,  8.16645697e-02,  7.10309744e-02,  6.94148839e-02, -7.27031678e-02,  2.18743854e-03},
 {-5.18930927e-02,  9.52976756e-03, -2.87507884e-02,  3.60368900e-02,  1.27550699e-02, -5.04407519e-03, -3.17040943e-02, -5.52456826e-02,  5.60730249e-02, -6.48687705e-02, -3.03066112e-02,  6.78538978e-02, -5.34874760e-02, -5.71439452e-02, -7.94482827e-02,  5.81258871e-02, -2.57801674e-02, -4.74452600e-02, -7.31225610e-02,  7.94611648e-02, -4.17905785e-02, -5.65002263e-02, -1.31641300e-02, -5.73502108e-02, -2.55993158e-02, -5.18098548e-02, -4.77707619e-03,  2.48148702e-02, -2.85098869e-02, -8.60467106e-02, -6.39378130e-02, -3.02827638e-02,  1.61497407e-02,  2.25190558e-02, -7.01677799e-02,  2.79494263e-02, -6.97800666e-02,  6.71789944e-02, -2.43530124e-02, -2.56024450e-02},
 {-1.67021307e-03,  5.34431674e-02,  1.33537380e-02,  5.53011149e-02,  5.34358546e-02,  2.33167950e-02,  5.70451245e-02,  6.73645991e-05,  1.35970684e-02,  5.67649156e-02, -6.43290207e-02, -5.73598295e-02,  8.88041928e-02,  2.70286482e-02, -4.69301222e-03,  1.93901658e-02,  5.47913508e-03, -6.45712093e-02, -1.01446798e-02,  4.47937474e-03,  6.58127144e-02,  3.49523053e-02, -1.36556327e-02,  4.15414087e-02, -2.02129763e-02, -3.32248397e-03, -5.88483922e-03, -1.88451428e-02,  4.94141243e-02,  3.98095995e-02, -4.51961309e-02,  6.39398322e-02,  5.61199151e-02,  1.72486715e-02, -1.06618768e-02, -1.09378751e-02, -4.22511809e-02, -6.09604530e-02,  3.42424610e-03, -7.05383569e-02},
 { 1.89448856e-02, -2.07704995e-02, -3.20413820e-02,  3.97085324e-02,  7.43754283e-02, -3.15815993e-02,  7.20511526e-02,  7.94046372e-02, -4.14810404e-02,  2.57446412e-02,  7.95089081e-02,  7.50122517e-02, -4.56747450e-02,  8.63074660e-02, -5.43702617e-02, -7.78964460e-02, -4.23498750e-02,  3.54704969e-02,  4.57916930e-02, -6.12835865e-03, -6.49689734e-02,  3.06593813e-02, -1.87914632e-02, -5.47527485e-02, -2.17617163e-03,  7.78344274e-03, -3.53418291e-02, -6.06584176e-02, -3.00801378e-02,  4.44788970e-02, -4.18610275e-02, -6.12501763e-02, -5.75319976e-02,  4.48360853e-02,  6.34838715e-02, -3.94512489e-02, -6.39968738e-02, -3.37194242e-02,  5.11261448e-02,  3.44006978e-02},
 { 1.53444242e-02, -6.72383681e-02,  3.69964652e-02, -4.14099253e-04, -1.54323243e-02, -1.07361302e-02, -5.02708107e-02,  7.32608065e-02,  4.93950434e-02,  5.32908924e-02, -6.33791387e-02,  1.07951052e-02,  8.04947969e-03,  5.71818724e-02,  2.69772392e-02, -1.53597146e-02, -2.24172864e-02, -8.77788663e-02,  9.36843920e-03, -5.79984412e-02,  3.11840866e-02, -4.76143695e-02, -6.85199872e-02,  3.45384665e-02,  3.09944674e-02, -3.90533395e-02,  2.40491107e-02, -6.28627017e-02, -4.34666090e-02,  2.66672969e-02, -2.06953008e-02, -2.92493328e-02,  2.55940873e-02, -7.30603784e-02,  7.26185087e-03,  1.02295810e-02, -6.26991093e-02, -5.85119911e-02,  5.65863624e-02,  3.46740931e-02},
 { 7.09196404e-02,  3.49258073e-02, -1.66243911e-02, -3.85657102e-02,  2.50479132e-02, -2.17104219e-02,  7.33396038e-02,  5.75603684e-03, -7.35964486e-03, -1.81636866e-02,  4.34959009e-02, -1.28813991e-02,  1.14602421e-03, -7.54736662e-02,  2.48993617e-02, -2.95066927e-02,  9.33398958e-03,  6.87134862e-02,  4.66555767e-02,  2.90583763e-02, -4.06996235e-02,  1.86609477e-03,  2.25938056e-02,  4.19281572e-02, -1.81269441e-02, -1.34186931e-02,  6.82909861e-02, -3.53617221e-03, -1.86940152e-02,  5.58377691e-02,  8.89845788e-02, -5.08459471e-02, -6.34196848e-02,  4.74039316e-02, -5.25952280e-02,  1.07156318e-02,  1.85388327e-02,  3.37203443e-02, -2.52013262e-02, -2.68488675e-02},
 { 5.26438951e-02,  3.79414111e-02, -1.04761735e-01,  8.21988136e-02,  1.05190121e-01, -4.46637571e-02,  6.74313009e-02, -5.22221178e-02,  7.84528553e-02, -6.74662553e-03,  8.68048370e-02, -9.68284681e-02, -2.63112807e-03,  1.83037408e-02, -5.03327791e-03, -3.64154950e-02, -4.97516841e-02, -3.69002782e-02, -2.68136021e-02,  7.95983337e-03, -4.87095024e-03,  5.10412594e-03,  5.72988652e-02,  3.05808429e-02, -4.27676179e-02,  2.17883755e-02,  2.54404210e-02,  7.06275702e-02,  4.83557433e-02,  8.01183376e-03,  3.07460837e-02, -7.31417462e-02,  3.40061896e-02,  2.53948662e-02,  6.34791404e-02, -2.31709816e-02, -9.07911174e-03,  4.67966776e-03, -8.08281228e-02, -1.16354749e-02},
 { 1.26454793e-03,  1.04539413e-02, -1.00709923e-01,  9.55666304e-02,  1.91248134e-02, -8.28061998e-02,  4.93534794e-03, -2.89068203e-02, -5.17067499e-03, -7.81195760e-02, -4.22455855e-02,  3.55778337e-02,  2.01952178e-04,  6.54779226e-02,  8.74173790e-02, -7.43208826e-02,  5.43712303e-02,  2.02610865e-02,  6.56163841e-02, -5.38490899e-02,  4.07086276e-02,  4.25403155e-02, -5.34789637e-03,  3.70860621e-02, -3.16358134e-02,  1.04909083e-02,  7.49801025e-02, -3.59931327e-02,  3.68195660e-02, -6.00509457e-02,  1.96838267e-02,  6.87789768e-02, -5.89631498e-02, -9.04558003e-02, -2.28374265e-02, -1.78369731e-02, -8.03017318e-02, -1.92306787e-02, -8.53478257e-03, -1.01108059e-01},
 { 2.07926799e-02,  3.26527171e-02, -2.71767806e-02,  5.48790060e-02, -3.00813857e-02, -8.19751397e-02, -3.50275300e-02,  4.78901528e-02, -2.81952005e-02, -4.89911921e-02, -1.50113711e-02, -1.47558171e-02,  6.66289106e-02, -4.56100293e-02,  7.27539212e-02,  2.19753683e-02,  3.61889042e-02, -3.41443392e-03,  5.80930188e-02,  2.73218025e-02,  2.21542735e-02, -8.80262777e-02,  8.62017497e-02, -8.65719020e-02, -4.91561629e-02,  5.08811735e-02,  7.01622572e-03,  8.67842585e-02, -2.73606796e-02,  6.19711801e-02,  1.17298067e-02, -8.01493693e-03, -7.69666582e-02,  6.25660419e-02, -3.98091525e-02,  8.33854079e-02,  4.11043577e-02,  9.82343033e-03, -4.23632562e-02, -3.59411128e-02},
 { 3.55264768e-02, -6.64870292e-02, -3.36877815e-02,  5.95342331e-02,  1.93809136e-03, -3.17210518e-02,  3.87867391e-02, -3.94259244e-02,  2.48221830e-02, -9.36639085e-02, -3.81428860e-02, -3.52042727e-02, -2.69029546e-03, -4.43480304e-03,  4.14988399e-02,  6.50584176e-02,  3.45011577e-02, -1.49510270e-02,  7.43702874e-02,  6.58702478e-02,  8.73168558e-02,  5.69072217e-02, -6.84190169e-02,  6.37873188e-02, -4.51728664e-02,  8.69114101e-02,  3.89414728e-02, -6.74179494e-02, -2.39849854e-02,  7.14160083e-03,  8.89370590e-02, -2.15835087e-02, -5.01660891e-02, -4.58585396e-02,  4.30625752e-02, -3.18639427e-02, -1.04459569e-01, -1.49041628e-02,  2.07154844e-02, -7.09994137e-02},
 { 1.91457383e-02, -3.75435054e-02,  4.98913452e-02,  3.49079221e-02,  9.46510732e-02, -6.45551831e-02, -3.14224251e-02, -2.13451628e-02,  8.11707005e-02, -4.31375280e-02, -7.22984001e-02,  4.27226014e-02,  8.53882730e-02, -4.32876721e-02,  2.30030008e-02, -2.18618475e-02,  5.26593700e-02,  3.39467786e-02, -5.91536313e-02,  4.27614264e-02,  1.43628148e-02, -7.30148098e-03, -3.50260129e-03, -2.32635867e-02,  4.76417504e-02, -6.67978376e-02,  1.87955350e-02, -5.86904660e-02, -1.08716590e-02, -3.53731737e-02,  5.58020659e-02, -5.23187518e-02, -5.17880917e-03, -4.26772796e-02, -2.39045694e-02,  6.65423200e-02, -3.25663052e-02, -8.00393894e-02,  6.48202002e-02, -5.63784223e-03},
 {-9.99468192e-02, -7.18178228e-02, -7.02364296e-02,  5.97017854e-02, -2.64381263e-02,  5.40698282e-02,  8.06621835e-02,  4.56541590e-02,  2.66128499e-02,  1.92745849e-02, -4.26867418e-02,  4.31292169e-02, -4.81492281e-02,  6.44700676e-02, -4.14426774e-02,  1.94681380e-02, -5.82637750e-02, -2.38961540e-03,  8.87317136e-02, -7.64730796e-02, -1.33989919e-02,  5.41780926e-02, -2.33025793e-02,  7.30895102e-02,  2.65999325e-02, -4.16554175e-02, -6.04769476e-02, -6.12827614e-02, -7.58187324e-02,  7.14155212e-02, -2.54705865e-02,  2.22493540e-02, -3.31410021e-02, -2.42503788e-02,  7.54491985e-02,  5.93835451e-02, -4.76353290e-03, -6.16799518e-02, -4.30050045e-02,  5.10331839e-02},
 {-5.98312728e-02, -9.30609256e-02,  7.67042041e-02, -2.89668869e-02, -7.34353140e-02, -1.79268792e-02,  8.34520534e-02,  1.06053334e-02, -6.02826253e-02, -1.91673413e-02,  5.01275770e-02,  7.34974146e-02, -5.28372079e-02,  7.55757689e-02,  4.61448133e-02, -1.44422241e-02, -2.25536712e-02, -3.11335474e-02,  1.95520185e-02,  4.20776457e-02,  1.74686685e-02,  1.00149699e-02, -7.55264834e-02, -4.58797626e-02, -8.50409642e-02,  1.44039309e-02,  3.97865325e-02, -1.94836315e-02, -3.58401355e-03, -4.44363765e-02, -2.60880985e-03,  8.52824152e-02,  1.92121416e-02,  3.06823980e-02, -1.35687329e-02,  9.07637924e-03, -3.08918883e-03, -6.53326092e-03, -6.36611432e-02,  4.84277457e-02},
 {-1.22301593e-01, -7.15719461e-02,  4.91380133e-02, -7.65762478e-02,  8.49296711e-03, -6.35756776e-02, -1.62887052e-02,  4.02089804e-02, -1.38885416e-02, -6.97082281e-02, -1.40890442e-02,  4.69018854e-02, -3.36866267e-02, -5.32668456e-02,  1.01495072e-01, -1.46548112e-03, -6.41589016e-02,  6.05365448e-02, -3.55132557e-02,  4.18965779e-02, -2.48221848e-02, -7.31571019e-02, -5.17345518e-02,  6.61419332e-02,  1.75132661e-03,  3.44320424e-02,  6.13252074e-02,  8.09749886e-02, -1.16380081e-01,  3.77004966e-02, -8.96726772e-02,  7.61037990e-02,  3.72237079e-02, -1.26299039e-02, -5.94278844e-03, -1.42725101e-02,  5.74993044e-02,  6.48256615e-02,  4.14944738e-02, -7.73262307e-02},
 { 1.42533015e-02, -1.27865840e-02, -5.09860180e-02,  1.86904445e-02, -1.83246210e-02,  1.99102573e-02, -3.12553812e-03, -3.81527701e-03, -5.86134158e-02, -3.41669694e-02, -1.27850082e-02,  4.62024510e-02, -3.22981067e-02, -1.10280840e-02,  3.25538814e-02,  1.44482246e-02, -4.08990718e-02, -5.15116230e-02, -2.58771367e-02, -5.21206781e-02,  9.79838297e-02,  1.14621297e-02, -2.67225634e-02, -4.14507873e-02,  7.04098269e-02, -1.12691242e-02,  2.52931602e-02, -1.06538311e-02, -1.01089276e-01, -2.45604068e-02, -6.66236505e-04,  7.22420216e-02, -6.79981783e-02,  1.17069874e-02,  1.86931342e-02, -5.34419417e-02, -5.81432618e-02, -6.86102686e-03,  3.43327061e-03,  5.21493442e-02},
 {-1.15614660e-01,  5.85886352e-02,  4.75476915e-03, -1.87098663e-02,  3.56072113e-02, -1.44766446e-03, -6.12996891e-02,  1.75766926e-02,  3.58914435e-02,  8.19080602e-03,  2.47144513e-02, -6.47985339e-02,  6.03739060e-02, -1.51934773e-02,  8.26192647e-02,  3.73234451e-02,  2.79096961e-02,  4.63792607e-02, -7.90223666e-03, -3.61338779e-02,  4.78089005e-02, -7.93561861e-02,  2.74856109e-02, -4.84261177e-02,  2.14033034e-02, -5.10051996e-02, -2.60253754e-02,  6.37531951e-02, -1.85942929e-02,  6.15730174e-02, -9.36228037e-02, -3.00017577e-02, -2.83767097e-02,  8.66270252e-03, -1.47604588e-02, -9.17020533e-03, -7.26315612e-03,  8.90975967e-02,  8.44730437e-03,  5.29550500e-02},
 {-3.04790866e-02, -4.43695374e-02,  3.30395587e-02,  1.00422150e-03,  7.22872326e-03, -9.11334753e-02,  7.11736530e-02,  2.24902444e-02, -1.44138634e-02,  9.06340480e-02, -3.10125109e-02, -6.08608797e-02, -2.17957925e-02, -1.06560730e-03,  9.33610871e-02,  1.82577316e-02, -3.23751271e-02,  2.09728070e-02,  3.24099995e-02,  1.75276883e-02,  8.82504955e-02, -1.71450172e-02, -2.30984595e-02, -2.80079283e-02,  4.25326452e-02, -4.38399501e-02,  3.93082239e-02,  4.94130701e-02, -8.38437527e-02,  8.86691660e-02, -7.09293187e-02, -2.73269042e-02,  5.50603978e-02,  2.43006442e-02, -2.36977246e-02,  2.37526577e-02, -6.28594309e-02, -1.04186470e-02, -8.73506516e-02,  3.73358317e-02},
 {-1.01008184e-01,  6.01023771e-02, -6.45547509e-02, -2.24768091e-02, -9.93398428e-02, -1.70660987e-02,  8.40669051e-02,  2.59189140e-02,  1.75517388e-02,  2.19157413e-02, -7.61282593e-02,  4.70633879e-02, -7.83187374e-02, -8.73813126e-03,  5.46616763e-02,  8.19836780e-02,  4.40675300e-03,  1.25310291e-02, -7.61637688e-02,  3.20162103e-02,  6.09483980e-02, -4.16674688e-02,  8.73657763e-02, -2.12889141e-03, -5.97252585e-02,  1.06676575e-02,  8.60669166e-02,  3.17533985e-02, -7.62143880e-02, -4.43282872e-02, -1.32468998e-01,  3.93285304e-02, -5.11033926e-03, -5.62054366e-02,  5.29663675e-02, -6.72794431e-02,  6.59590811e-02,  7.71725848e-02,  3.62709425e-02, -2.59519611e-02},
 {-3.80273163e-02,  3.76930200e-02, -3.26227099e-02, -5.11017106e-02, -4.45355214e-02,  5.59296319e-03, -7.69532099e-02, -2.95947324e-02,  4.89365049e-02,  3.02054696e-02,  1.53310765e-02,  6.26391917e-03,  8.65265802e-02, -1.26472116e-02, -3.09828483e-02,  5.87622970e-02,  8.01101103e-02,  4.74188440e-02,  9.22428910e-03, -4.65958640e-02,  1.13860495e-01, -2.71937866e-02, -2.32729898e-03, -7.17283860e-02, -4.09639031e-02,  6.36679528e-04,  7.20505230e-03,  4.25874032e-02,  7.36763030e-02,  8.06427076e-02, -3.57793942e-02,  9.11006704e-02, -7.12667182e-02,  7.02485964e-02,  4.61257175e-02, -3.35526913e-02, -4.14367989e-02,  7.64453784e-02, -1.89151000e-02, -9.37511474e-02},
 {-4.02771793e-02, -1.60863844e-03,  1.18941464e-03,  8.19953233e-02, -3.22388709e-02,  1.59041062e-02,  6.77304640e-02,  3.85328792e-02, -2.31243093e-02,  7.46482015e-02,  5.65496087e-02,  8.91293585e-03,  1.00387745e-02, -5.98565415e-02, -9.56605654e-03,  2.33381242e-02, -2.99662761e-02, -1.13972425e-02,  4.24407832e-02,  1.95452441e-02,  6.86274469e-02, -3.61967683e-02, -1.25713395e-02,  6.14817441e-02,  5.39805964e-02, -7.48662874e-02,  1.16785448e-02, -1.07066846e-02, -2.66008526e-02,  3.15285288e-02, -6.76662922e-02,  2.54931264e-02, -3.16859223e-02, -2.58669574e-02, -2.19135564e-02, -1.51033653e-03,  7.77608007e-02,  4.32223566e-02, -5.00124171e-02,  3.44035141e-02},
 {-7.62931108e-02, -1.58183761e-02,  4.61660251e-02, -2.06259247e-02, -4.66884635e-02, -1.23069510e-02, -5.72082885e-02, -8.46513584e-02, -3.16245444e-02, -2.17529554e-02, -5.40007502e-02, -7.17451237e-03,  7.82040209e-02,  1.41427955e-02, -1.38018401e-02,  5.57687171e-02,  3.54883932e-02, -9.55399424e-02, -6.74232990e-02,  9.45938379e-03,  9.35131032e-03, -5.78095112e-03,  7.40325078e-02, -3.53318304e-02,  9.17599276e-02,  7.54471868e-02,  8.26002657e-02, -2.80723162e-02, -2.63537560e-03,  5.38818650e-02, -2.89522056e-02,  7.41519853e-02, -1.64175928e-02,  4.75738458e-02, -4.88516018e-02,  5.06442003e-02,  1.29161701e-02,  6.66192695e-02, -5.60293496e-02,  3.88280638e-02},
 { 5.66069186e-02,  4.22018431e-02,  7.76000395e-02,  3.79950739e-02,  8.27732906e-02, -1.95512287e-02,  7.31791407e-02,  4.65107113e-02,  9.71227593e-04,  6.57592937e-02, -1.19454619e-02, -6.26836047e-02, -5.98093569e-02, -1.08573269e-02,  6.25841916e-02,  1.13245370e-02, -1.12215653e-02,  3.47999409e-02,  3.85536924e-02, -8.18270165e-03,  2.28634067e-02, -2.57774983e-02,  5.35586812e-02, -6.53717220e-02, -2.32476387e-02, -5.37002683e-02, -4.67327833e-02, -3.45936008e-02, -7.42331222e-02,  7.36149177e-02, -7.18732625e-02,  1.37244752e-02, -9.08015892e-02,  5.81961945e-02,  6.16665184e-02, -6.44014329e-02, -1.02687217e-02, -4.12352681e-02,  5.91811836e-02, -2.69032717e-02},
 { 4.81282771e-02,  7.96397310e-03,  3.22866589e-02, -4.89815958e-02,  4.36828919e-02,  7.13997036e-02,  9.07602813e-03,  5.21666408e-02, -3.89627926e-03,  3.92039632e-03, -6.12155646e-02, -7.45842904e-02, -4.53453250e-02, -7.49247428e-03,  6.10800274e-02, -5.90459369e-02,  2.26423163e-02, -5.82296811e-02,  5.23056872e-02,  2.16568951e-02, -1.14737684e-02,  2.97616478e-02, -6.60346597e-02,  5.31618036e-02, -5.85392118e-02, -2.59698238e-02,  3.78158130e-03, -7.39029497e-02,  1.36910286e-02,  7.67345354e-02,  7.32100308e-02, -7.50860348e-02,  9.53319177e-05, -1.88396666e-02, -5.75949959e-02,  9.26334690e-03, -6.78700134e-02,  3.47038396e-02, -6.70228750e-02,  1.22167934e-02},
 {-7.96905085e-02, -3.36932614e-02, -2.05254853e-02,  8.65576565e-02,  5.97392442e-03, -3.69545184e-02, -1.03659173e-02, -6.19173944e-02, -6.99548796e-02,  3.72098945e-02,  2.50604935e-02, -3.91939916e-02, -5.51981553e-02, -1.77510660e-02, -1.57317221e-02, -1.59645695e-02,  1.72950961e-02,  5.99315353e-02,  9.68354661e-03,  4.36541662e-02,  5.85829280e-02,  8.26981366e-02,  2.47089714e-02, -1.87565386e-02,  4.39650752e-02, -3.83386537e-02, -7.15736821e-02,  5.45640439e-02,  2.13965140e-02,  2.72011082e-03,  2.16732211e-02, -7.45379925e-02,  7.18239546e-02, -3.80800618e-03,  1.32030156e-02, -7.72292167e-02, -8.44732895e-02,  7.41862634e-04,  2.36879345e-02, -5.15039079e-03},
 {-7.71194994e-02,  7.60700693e-03, -2.06595641e-02,  1.43882316e-02, -5.44893332e-02,  2.35261582e-02,  6.50415123e-02,  6.47492558e-02,  4.37862761e-02, -2.08222084e-02,  5.20216580e-03, -4.32722047e-02, -4.48131049e-03,  7.76624382e-02,  6.83595091e-02, -8.24895427e-02, -6.79181218e-02, -6.99830800e-02, -5.93452081e-02,  7.24487156e-02, -4.80787503e-03, -1.74908862e-02, -1.10401046e-02, -3.44097707e-03,  7.24950507e-02, -1.76263005e-02, -4.96905409e-02, -1.89368054e-02,  7.81938210e-02,  7.42937177e-02,  6.08364791e-02, -6.54828921e-02,  2.69762520e-02,  7.21408725e-02,  2.17279568e-02,  1.71605311e-02,  4.82615903e-02, -8.21268931e-02,  1.88813936e-02,  4.09570932e-02},
 {-8.46294388e-02,  1.66902170e-02,  8.40544701e-04,  4.07005697e-02, -7.25171566e-02, -3.30661610e-02,  5.64405173e-02, -2.84181610e-02, -1.35034770e-02,  2.67956406e-03, -2.91747227e-02,  2.53028721e-02, -1.50797665e-02,  8.40037465e-02, -6.41502142e-02,  8.30441117e-02, -3.50903608e-02, -7.43518844e-02, -5.19270785e-02,  2.40558386e-03, -5.75918257e-02, -2.85061933e-02, -4.42441925e-02,  4.98031676e-02,  4.48948145e-02,  6.68006837e-02,  4.55543399e-03, -7.61374235e-02, -4.43678275e-02, -1.08736530e-02, -7.50521570e-03, -4.23488989e-02,  7.89705664e-02,  4.51190174e-02,  4.39309627e-02, -2.62475014e-02,  8.18611532e-02,  3.18514779e-02, -3.87661494e-02,  3.48471031e-02},
 {-3.00608389e-02,  5.16181439e-02, -6.50056899e-02, -7.04794377e-03, -6.32536858e-02,  1.16953179e-02, -5.68665341e-02, -6.51038140e-02,  8.15681368e-03, -1.04587004e-02, -1.44168139e-02,  7.16031045e-02,  1.62490979e-02, -5.93761206e-02,  6.93713129e-02,  3.17676216e-02, -6.21825568e-02,  1.00241378e-02,  7.79214501e-02, -4.93827052e-02,  5.81047684e-03, -2.90814415e-02,  3.45492736e-02,  2.95694694e-02,  5.11089116e-02, -5.72607964e-02, -1.25699341e-02, -1.64424330e-02,  7.80327171e-02, -5.27675599e-02, -9.65712219e-03, -4.26823050e-02, -8.39426145e-02,  1.65551230e-02, -3.31912190e-03,  6.50924444e-02,  6.03207350e-02, -7.16867447e-02,  5.16187549e-02, -3.81015651e-02},
 {-2.52848640e-02,  1.40325371e-02, -3.58338952e-02, -6.73862323e-02, -1.40263047e-03,  4.20683995e-03,  4.92369905e-02,  6.58414811e-02,  2.68931556e-02,  2.26850417e-02,  1.69949681e-02,  3.91751677e-02, -3.09917405e-02,  5.56307100e-02,  3.52740102e-03,  2.47290563e-02,  3.42459418e-02,  1.04881162e-02,  4.94301990e-02, -6.22244067e-02,  5.78505397e-02,  5.09357378e-02, -3.09114270e-02, -2.03864686e-02,  2.52981130e-02,  5.67542650e-02,  1.69420615e-02,  7.57865980e-02, -7.38637596e-02, -5.00698835e-02, -3.80091704e-02,  6.43717125e-02, -8.46778601e-02, -4.14427444e-02,  1.53160309e-02,  5.86167015e-02,  1.61697641e-02, -5.55294678e-02,  2.80813109e-02,  5.86182140e-02},
 { 1.23809222e-02, -4.25749049e-02,  4.39432403e-03,  7.07607493e-02, -1.67947833e-03,  4.44885083e-02,  8.16475973e-02, -1.11181960e-02,  1.93014927e-02, -7.83870444e-02,  3.87376323e-02, -1.11078471e-03, -4.04889658e-02, -7.15008900e-02,  5.56884781e-02,  3.63820121e-02,  7.61935636e-02,  2.45184898e-02, -5.28033357e-03, -2.27525760e-03, -7.77606741e-02,  5.20659238e-02,  1.24800866e-02,  3.85717629e-03,  7.63833001e-02,  5.28044961e-02,  6.33265916e-03,  1.19187438e-03,  3.77034955e-02, -6.70792758e-02,  4.40374203e-02, -8.20089951e-02, -7.05602542e-02, -3.54004800e-02, -2.24711783e-02, -5.39331958e-02,  3.15628685e-02, -9.95038822e-03, -8.27146024e-02, -6.25720760e-03},
 { 2.66453661e-02, -3.06994771e-03,  2.36893948e-02,  1.57766193e-02,  6.06021695e-02,  3.92588824e-02, -5.38883395e-02,  2.69789323e-02,  7.05626905e-02, -6.36294112e-02,  3.50618549e-02, -4.53798734e-02,  3.13292705e-02,  2.68902499e-02, -6.41872436e-02, -3.41220014e-02, -6.32165074e-02,  6.61770329e-02, -5.65999234e-03, -1.93796400e-02,  4.66997661e-02,  6.02673590e-02, -5.75546771e-02,  3.73542719e-02, -4.00360301e-02,  2.52658725e-02,  6.87514916e-02, -6.17196725e-04,  6.18830808e-02, -8.33363310e-02,  6.51694834e-02, -8.40279832e-02,  7.46591762e-02, -6.98612854e-02,  2.08437294e-02, -2.95105726e-02,  2.20910832e-02, -1.33606866e-02,  3.03501207e-02, -2.89269332e-02},
 {-4.34425697e-02,  5.44440933e-02,  3.50287855e-02,  2.67043174e-03,  4.73250002e-02, -7.99880847e-02,  1.69186685e-02, -7.22506568e-02,  2.97929645e-02, -2.68606991e-02,  3.06656044e-02, -4.41923700e-02, -3.12172398e-02,  7.00627938e-02, -5.82907535e-03, -9.95991379e-03,  2.29978804e-02, -3.76202203e-02,  8.28461125e-02,  1.67439058e-02,  1.28973285e-02,  6.33199811e-02,  3.85058904e-03,  6.54288530e-02,  6.16865866e-02,  3.23092118e-02, -2.33633835e-02,  4.24311943e-02, -2.81719100e-02,  2.59503517e-02, -7.06078112e-02,  5.56768514e-02, -5.35968319e-02,  5.36187291e-02,  2.77187340e-02, -5.50982729e-02, -6.19931482e-02,  1.92842502e-02, -8.65151361e-02,  1.78062767e-02},
 { 2.40157563e-02, -1.11267809e-02,  1.33689505e-03, -2.41125301e-02, -1.08215818e-02,  4.68782671e-02, -5.04066572e-02, -5.15325740e-02, -1.33143272e-02,  5.43341003e-02,  8.73015597e-02, -1.63302701e-02,  6.22452609e-02,  7.48324916e-02, -9.26131755e-03,  1.32695271e-03, -2.88485531e-02,  2.84841508e-02,  8.93516243e-02,  6.41810000e-02, -6.98397458e-02, -4.80313450e-02,  4.37782817e-02, -3.90985310e-02,  7.31998403e-03,  9.86283496e-02,  6.12406544e-02,  2.92689689e-02,  9.04722735e-02,  6.40883073e-02,  6.01361925e-03, -4.43395004e-02,  7.24063441e-02,  4.32546400e-02, -2.88977455e-02, -2.59124190e-02, -6.67119473e-02, -9.58558097e-02, -7.68889114e-02,  5.42046651e-02},
 { 2.47870591e-02,  3.15576941e-02, -5.08970805e-02,  1.12167217e-01,  7.54842907e-02,  7.51863495e-02,  7.41122961e-02,  5.00914566e-02,  3.44617777e-02, -2.06692964e-02,  8.11612159e-02, -3.83563899e-03,  3.24917547e-02,  8.14313814e-03, -1.54080587e-02, -6.00492135e-02,  3.26863676e-02, -2.36298256e-02,  2.21944731e-02,  4.18245308e-02,  5.08048870e-02,  1.06673921e-02,  8.92048329e-02, -1.65431090e-02,  6.34565428e-02,  1.09216146e-01,  6.00145608e-02,  7.76291564e-02,  1.06902026e-01, -1.10959485e-02,  1.00827798e-01, -1.96671821e-02, -7.76137412e-02,  2.46602185e-02, -6.66756257e-02,  3.70836221e-02, -3.72235067e-02,  1.75317016e-03,  2.63949987e-02, -3.92633863e-02},
 { 1.69318151e-02,  6.44377545e-02, -7.89915770e-02,  1.02372207e-01,  2.64029820e-02, -3.92031111e-02, -4.44947593e-02,  3.23719308e-02,  7.63032660e-02, -5.69130182e-02,  4.15284522e-02, -6.74377233e-02, -5.36029786e-02,  4.21561636e-02, -2.15833541e-02, -2.13885847e-02, -6.94386754e-03, -2.84139682e-02, -4.09471728e-02,  6.49147779e-02,  3.70051041e-02, -7.97515064e-02, -1.54567212e-02,  2.51584463e-02,  3.37835923e-02, -1.09424125e-02, -5.43282293e-02,  7.18166772e-03,  3.87869403e-02, -7.08864331e-02, -8.84397654e-04, -3.79536976e-03, -5.81062734e-02, -9.04152077e-03,  4.29316983e-02, -6.45041093e-02, -8.59734938e-02, -7.71516263e-02, -4.42533493e-02, -4.43132482e-02},
 { 6.12651594e-02, -7.05521852e-02,  4.01714891e-02, -1.44427223e-02,  9.54732746e-02,  3.64236683e-02, -4.74951938e-02,  6.30106311e-03,  4.93756915e-03, -9.66929570e-02,  8.83071646e-02,  2.34730244e-02, -1.44195964e-03, -1.17726224e-02,  7.93318003e-02, -3.58217284e-02, -2.67647300e-02,  3.03221624e-02, -2.17279531e-02, -2.98724882e-03, -4.36961129e-02,  7.71144684e-03,  5.88622168e-02, -5.18453903e-02,  3.57111096e-02,  9.93520692e-02,  9.25943926e-02, -4.39527519e-02, -3.41903530e-02,  9.20194834e-02,  6.36806116e-02, -1.08723536e-01,  4.69621830e-02,  2.27487590e-02,  4.26798947e-02, -7.15389624e-02, -1.02282695e-01, -4.40585949e-02,  4.82171662e-02, -9.47521925e-02},
 {-1.59991588e-02, -1.41386418e-02, -8.63091275e-02, -1.69768296e-02,  8.97147730e-02,  1.67702585e-02,  7.04336762e-02,  3.80301476e-02,  8.44955444e-02,  6.49790093e-02,  1.24349361e-02, -1.13981679e-01, -4.55352105e-02, -3.53178158e-02,  9.79152843e-02, -4.71888855e-02,  1.01311214e-01, -7.88495839e-02,  7.22208470e-02, -8.75578970e-02, -3.62333357e-02,  6.15982630e-04,  1.66606605e-02, -5.66405393e-02,  8.98672044e-02, -1.10367630e-02,  6.85972422e-02, -5.77572994e-02,  1.17008276e-01, -2.58508557e-03,  7.83163011e-02,  3.73471044e-02, -7.36937299e-02,  6.32062256e-02, -4.74512912e-02,  6.05840832e-02, -5.27812615e-02, -3.37196700e-02,  5.15892357e-02, -3.61383967e-02},
 {-2.06560809e-02,  5.55555262e-02, -1.40143640e-03,  2.83163488e-02,  2.29588039e-02,  1.01588694e-02, -4.79906499e-02,  7.94113846e-04, -3.16014662e-02,  1.52376834e-02, -3.47853266e-02,  1.35154324e-02, -5.42939231e-02,  6.32028431e-02, -2.33320203e-02, -9.87271145e-02,  3.95228826e-02, -2.15589534e-02,  6.37424365e-02,  1.78675111e-02,  3.83128934e-02, -9.04863775e-02,  1.12344269e-02,  7.96513725e-03, -4.92901094e-02, -5.06519489e-02,  1.85819864e-02, -4.59617339e-02,  1.09808847e-01, -6.20290600e-02, -2.73281522e-02, -9.35767889e-02, -1.04534864e-01,  1.88820995e-02,  7.08218589e-02,  4.19787169e-02, -7.25384876e-02,  5.29946610e-02,  2.92139761e-02, -3.64999883e-02},
 {-2.31474973e-02,  4.65380475e-02,  7.23475264e-03,  4.93407585e-02,  5.38231470e-02,  1.54062361e-02,  2.81371758e-03,  1.48635758e-02,  2.10966598e-02, -8.42348188e-02, -1.51615674e-02, -2.90344339e-02,  6.83581689e-03,  7.22597167e-03, -2.94771343e-02,  4.17930447e-02,  6.61590993e-02, -4.89374325e-02,  1.05332904e-01, -9.45328083e-03,  3.14597376e-02,  5.71749965e-03, -3.45702916e-02,  8.21763501e-02,  6.72815666e-02,  7.34858066e-02, -1.74924508e-02,  7.64201209e-02,  7.20264688e-02,  6.29850775e-02, -1.04696676e-03, -7.43204430e-02,  4.36500199e-02, -5.13646677e-02, -6.99051172e-02, -8.28052312e-02,  3.45143005e-02, -8.52476060e-02,  2.17818264e-02,  7.60194240e-03},
 {-4.31227945e-02, -5.64754345e-02, -8.31722375e-03,  5.59018217e-02,  2.71281525e-02, -2.54397094e-03, -2.93240510e-02,  8.51121098e-02,  4.10353467e-02,  3.18538747e-03,  7.17485920e-02, -8.49874839e-02, -6.50883093e-02,  1.96457487e-02,  7.99614284e-03, -7.36820027e-02,  2.76598483e-02,  8.68435204e-02,  4.51721549e-02, -1.95986833e-02,  1.85616240e-02, -6.43247589e-02, -7.34624043e-02,  6.02371320e-02, -1.64101720e-02, -3.50994505e-02, -2.37505957e-02,  6.94531575e-02,  7.90060386e-02,  6.97311684e-02, -1.23977615e-02,  3.24893631e-02,  4.41117473e-02,  7.70535618e-02,  1.40271783e-02,  6.66559413e-02, -7.19766244e-02, -5.66152260e-02, -3.15519832e-02, -6.86660260e-02},
 { 2.05553733e-02,  5.27018048e-02, -1.10367844e-02, -7.38887340e-02,  1.13560595e-02, -2.73519438e-02, -7.19511509e-02, -4.78827022e-02, -2.42585484e-02, -9.74827260e-02,  4.86664437e-02,  6.85911160e-03,  1.02486104e-01,  3.25715095e-02, -5.67851774e-03, -2.10406072e-03, -1.64575353e-02, -1.28285494e-02,  7.65430555e-02, -3.83955054e-02, -4.27094772e-02,  2.56201308e-02,  2.89024692e-02, -7.96584114e-02, -6.30837400e-03, -7.99803212e-02, -8.70321319e-03, -3.42244916e-02,  1.27860084e-02,  2.08544526e-02, -1.59596428e-02,  1.40642643e-03, -7.95624871e-03, -3.68144549e-02, -1.22433975e-02,  4.69130091e-02, -2.35604625e-02,  2.27852520e-02, -3.16346675e-04, -2.71800496e-02},
 {-7.97600001e-02,  5.20517072e-03, -3.44337821e-02, -8.50875974e-02, -8.29366073e-02, -4.75531220e-02, -5.74562661e-02, -3.76665518e-02,  9.44287777e-02,  4.09820080e-02,  2.42967717e-02, -6.73977211e-02, -1.43167144e-03, -5.38132116e-02,  4.50208075e-02, -8.60620569e-03, -7.01375678e-03,  4.12684046e-02, -3.45412977e-02,  6.00389130e-02, -1.15198763e-02,  1.77345151e-04, -9.69344005e-03,  3.42350192e-02,  7.46367648e-02,  1.32977562e-02, -1.62572740e-03, -7.02731535e-02, -8.32798332e-02,  8.09974968e-02, -1.05889387e-01, -8.36893618e-02, -5.66937551e-02,  8.24835449e-02, -2.36015767e-02,  6.56371415e-02,  7.77841508e-02,  5.17723635e-02,  5.09119034e-02, -6.75484613e-02},
 { 5.09019606e-02,  6.09363019e-02, -8.40680599e-02, -4.18567210e-02, -9.40508768e-02,  2.42458340e-02, -6.96507320e-02,  4.92277220e-02, -6.98659793e-02,  4.56918329e-02, -2.91655213e-02, -1.18766939e-02, -3.96574195e-03, -4.56578583e-02,  4.66422476e-02, -2.09458712e-02,  6.83186054e-02, -2.61815265e-03,  4.19103056e-02, -2.35079378e-02, -3.24358046e-02,  1.07406620e-02, -6.84337830e-03, -1.93272606e-02,  7.30649522e-03, -5.94550259e-02,  1.65359154e-02,  3.65193225e-02,  2.63857488e-02, -8.70344043e-03, -1.09481789e-01, -8.95862579e-02, -5.17410114e-02,  9.29624587e-02,  3.83843780e-02,  5.56453355e-02, -3.33038159e-02, -2.16694977e-02,  6.40423819e-02,  5.42138703e-02},
 {-5.62860118e-03,  7.75975809e-02, -1.74227022e-02, -1.30495047e-02, -1.07597217e-01,  3.34910601e-02,  7.27679301e-03,  6.36810213e-02, -2.91208439e-02,  1.25753675e-02, -1.69361494e-02, -5.30868880e-02, -1.66601483e-02, -7.42578134e-02,  2.31878422e-02,  3.35923620e-02, -5.73460013e-03, -2.88865156e-02, -7.46573061e-02, -1.97345316e-02,  5.32597192e-02, -4.45395708e-02,  6.97198883e-03, -9.00028646e-02, -1.46279391e-02,  9.13279224e-03,  2.87078116e-02,  2.56710667e-02, -6.68591410e-02, -5.12159280e-02, -2.10491251e-02, -3.91673744e-02, -3.69716659e-02,  4.61668447e-02,  8.76368955e-03,  2.14804746e-02, -3.60729285e-02,  8.17879140e-02, -5.61408848e-02, -2.66647786e-02},
 {-1.46855842e-02, -1.89537145e-02,  1.13627370e-02, -2.58947480e-02, -1.87907349e-02,  6.66813403e-02, -6.15331009e-02, -4.62666005e-02,  1.91234741e-02,  4.52225767e-02, -8.32875371e-02,  9.66519564e-02, -9.50611662e-03,  3.14940959e-02, -5.53322099e-02, -4.70093749e-02, -5.43504469e-02, -7.53494054e-02, -7.16717914e-03,  3.34787406e-02, -5.00838198e-02, -9.18884203e-02,  9.57209989e-02, -3.87004316e-02,  1.52695097e-03, -3.02536059e-02, -1.39300320e-02,  8.61922279e-02,  2.37145275e-02,  1.14499759e-02, -5.19434549e-02,  2.94599812e-02, -8.74820128e-02, -1.51993055e-02,  1.04922093e-01, -6.20775819e-02,  3.06191724e-02, -3.23080532e-02, -8.39429721e-02, -7.35758543e-02},
 { 3.84760313e-02, -6.79235905e-02,  4.82107140e-02,  4.49463241e-02, -9.72458348e-03, -2.91498471e-02,  1.21118259e-02,  3.32324430e-02,  3.79263759e-02,  1.09829709e-01, -1.86385270e-02, -2.02777665e-02, -2.00688001e-02, -5.57304621e-02,  6.65855631e-02,  3.00899167e-02,  7.26034790e-02,  4.53319438e-02, -5.16850827e-03, -9.45764419e-04,  4.34471443e-02, -1.09076731e-01,  1.93813406e-02, -5.44169508e-02,  5.97341731e-02, -6.98198229e-02,  1.50190681e-01, -4.55722697e-02,  5.40491082e-02,  3.32035311e-02, -1.08588245e-02,  7.81184956e-02, -4.35623638e-02, -3.43166515e-02,  4.86342572e-02,  5.15934713e-02, -2.07690988e-03,  3.22464556e-02, -1.67207420e-02, -8.02013874e-02},
 { 1.48899620e-02, -6.63115736e-03, -4.35928535e-03,  5.38021587e-02,  4.42593843e-02,  5.74583225e-02,  3.17972489e-02, -1.05807523e-03, -1.87443513e-02, -3.92449275e-03,  2.10831910e-02, -1.72282755e-02, -4.97761369e-02, -6.33779019e-02,  1.01448141e-01,  4.40308005e-02, -6.28713965e-02,  2.11525848e-03, -1.05302989e-01, -3.83340903e-02,  1.08752765e-01, -8.55064765e-02, -5.52137056e-03,  6.07294329e-02,  7.17995018e-02,  1.03617013e-02,  1.32586017e-01,  3.03153857e-03, -4.18756232e-02, -9.27066547e-04, -1.24206342e-01, -4.64555249e-02, -4.21579927e-02, -3.43194641e-02, -1.92586165e-02, -3.24422829e-02,  4.71380204e-02, -6.54968172e-02,  2.41599176e-02, -7.96913728e-02},
 {-7.72865638e-02, -3.18588242e-02,  4.94648963e-02,  7.28764664e-03, -6.11376800e-02,  1.34324292e-02,  5.29104732e-02, -3.73059772e-02, -4.59633581e-02,  6.16600104e-02,  3.62575240e-02, -2.89102960e-02,  9.08514336e-02,  1.95324421e-02, -5.57810292e-02,  4.98101264e-02,  9.39276740e-02, -9.30746645e-02, -1.11374021e-01,  6.55974671e-02, -3.37872729e-02, -3.53477225e-02,  4.82736714e-02, -8.04014504e-02,  4.06892560e-02, -5.31690791e-02,  3.69126123e-04,  1.43240411e-02, -1.13168033e-02, -4.25033551e-03, -1.20306918e-02, -5.37885539e-02,  3.82393487e-02, -2.94243004e-02, -3.06466017e-02,  7.19157234e-02,  7.51811191e-02,  1.63990092e-02,  6.68438245e-03,  1.48868989e-02},
 {-7.91374668e-02, -8.24099854e-02, -4.24791966e-03, -1.31359473e-02,  5.32237776e-02, -3.74445766e-02, -6.07975982e-02, -2.39009280e-02,  5.87308370e-02, -2.27674842e-02, -2.33212882e-03,  8.98301229e-02,  9.18005183e-02,  4.71177325e-02,  7.15549737e-02,  9.65575967e-03,  7.03406855e-02, -4.63390872e-02, -1.12882897e-01, -3.81907411e-02,  8.22587013e-02,  1.70708280e-02, -7.61350989e-03, -7.22940639e-02,  8.78435448e-02,  6.31210357e-02,  1.08980127e-01,  4.54778224e-02, -8.70036408e-02, -3.05475388e-02, -2.42895037e-02,  1.63847264e-02, -1.16436660e-01, -3.67607474e-02,  1.29053872e-02, -4.71203811e-02, -2.74903160e-02, -4.21119630e-02,  1.75333768e-02,  2.16843537e-03},
 {-6.31348789e-02, -1.00792032e-02, -4.83535044e-02, -3.46965119e-02, -3.47662978e-02, -6.66762069e-02,  8.86548236e-02,  6.25372678e-02, -9.17586386e-02,  7.22794235e-02,  1.00701666e-02, -5.82808182e-02, -1.22826872e-03,  6.22486249e-02,  4.01280485e-02,  8.16870779e-02, -2.45788619e-02, -1.68277752e-02,  1.13686835e-02,  2.25978401e-02,  8.93903226e-02, -4.47805896e-02,  3.26314196e-02,  4.37466055e-02,  6.78992122e-02,  1.33072108e-03,  2.73614470e-02,  2.30141822e-02, -9.12382677e-02,  1.07769743e-01, -2.79841162e-02, -5.33452109e-02, -9.27772745e-02, -5.10833822e-02,  7.18465075e-02, -3.25940661e-02,  9.21181515e-02,  6.00489192e-02, -1.71803962e-02, -9.44113359e-03},
 { 6.85289279e-02, -6.12029731e-02,  5.33957109e-02, -2.38031968e-02,  5.79035990e-02,  7.09763244e-02, -3.24382819e-02,  1.42336572e-02,  4.59487401e-02,  1.90783236e-02,  4.15633768e-02, -3.86697054e-02,  3.39496620e-02, -4.21985202e-02, -6.66115806e-02,  1.09412715e-01,  6.26779273e-02, -1.30206924e-02, -9.57871899e-02,  7.03166202e-02,  6.04496673e-02,  3.19130458e-02, -6.00632690e-02,  7.33063221e-02,  7.89481401e-02, -9.29967239e-02, -3.27274464e-02,  4.34290320e-02, -9.18101817e-02, -6.06841594e-02, -4.78447229e-02, -2.08108872e-02,  2.78518032e-02,  7.85901919e-02,  7.68094733e-02,  4.31573763e-02,  4.61305566e-02, -3.42990048e-02,  5.82296848e-02, -1.02961652e-01},
 {-1.28688570e-02, -5.82458787e-02,  4.27876227e-02,  3.36542353e-02,  3.74268927e-02, -1.24581940e-02,  6.78385124e-02, -2.95698131e-03, -3.46831381e-02,  1.58546250e-02, -8.68908167e-02,  8.24552029e-02, -1.10439220e-02,  5.48724607e-02, -1.94790922e-02,  6.35781810e-02,  5.01251146e-02,  7.82880653e-03,  3.12853605e-02, -1.16367303e-02,  7.48145208e-02,  5.76193780e-02, -8.19803774e-03,  8.62508565e-02, -7.16468766e-02,  2.27050278e-02,  5.11949062e-02, -5.09203821e-02,  4.78715487e-02,  1.35571864e-02,  2.26566866e-02, -1.61335301e-02,  4.73471284e-02, -7.05457777e-02, -6.18192703e-02, -7.18497485e-02,  2.92279981e-02,  2.24541780e-02, -5.96745983e-02, -8.62552896e-02},
 { 7.26314308e-03, -7.83690661e-02, -6.00913428e-02,  4.63450439e-02,  6.67335615e-02,  3.05229612e-03,  2.04346478e-02,  2.14158650e-02,  4.10801619e-02, -7.80465156e-02, -3.36960563e-03,  3.33608240e-02, -6.46355972e-02, -6.09222576e-02, -7.31237978e-02, -7.98319951e-02,  2.71869171e-02, -2.69418936e-02, -2.34471597e-02, -1.78974643e-02,  2.05014204e-03, -4.43416908e-02,  3.10113449e-02,  6.27072081e-02, -1.34826393e-03,  7.37636834e-02, -4.29672338e-02, -1.20608611e-02, -1.26422162e-03, -4.64651138e-02,  6.76002353e-02, -7.43819475e-02,  2.33783405e-02, -5.17046712e-02, -1.81146096e-02, -3.42204534e-02, -6.35064617e-02,  5.29796667e-02, -8.74802396e-02, -3.08228787e-02},
 {-7.64869153e-02, -3.53048462e-03,  5.58138154e-02,  4.02958617e-02,  1.41730569e-02,  6.74659684e-02, -1.96069498e-02,  4.58384268e-02, -8.38726386e-02,  5.83423749e-02, -5.99125624e-02, -2.14472134e-02, -5.72709478e-02, -2.43940800e-02, -4.79571596e-02,  3.68389324e-03, -6.94492310e-02,  5.22340834e-02, -1.72060765e-02, -5.87001443e-02, -2.02447586e-02, -2.20449530e-02, -7.29402751e-02,  4.93527167e-02,  4.49173935e-02, -7.00095436e-03,  6.48552105e-02, -7.54438760e-03,  1.63412746e-02,  6.27514720e-02,  3.48044671e-02,  5.74791655e-02,  4.98308092e-02, -9.84879807e-05, -7.13357702e-02,  6.01188801e-02, -7.68175051e-02,  2.11314727e-02,  1.31589395e-03,  3.37303095e-02},
 {-1.98658854e-02,  5.46278358e-02,  1.41046941e-04,  2.20784545e-02,  2.98883319e-02,  5.97123206e-02,  1.88093632e-02, -3.27763930e-02, -5.02117127e-02, -5.14755659e-02, -3.66869345e-02, -4.44252826e-02, -7.33877718e-03, -2.95482725e-02,  4.99418974e-02,  4.09042835e-03, -3.60012166e-02,  2.13691592e-02, -8.45506415e-02,  4.34471518e-02,  3.58296111e-02,  4.11294550e-02, -2.42729411e-02,  5.72250783e-03,  7.84797966e-02, -6.24107644e-02, -7.22009763e-02,  2.95016840e-02,  6.19422644e-02, -8.12558308e-02,  1.02675036e-02,  2.03165635e-02, -1.67386755e-02, -3.66084650e-02, -8.04323778e-02,  1.42199323e-02, -2.66924202e-02, -5.06001934e-02, -3.55440080e-02,  4.99572754e-02},
 {-7.62305781e-02, -1.06773227e-02, -2.58356631e-02, -1.44787133e-03, -8.37613493e-02,  4.65317070e-03, -3.40093449e-02, -7.13016391e-02, -7.66197741e-02, -3.67388353e-02, -7.84546658e-02, -2.10838839e-02,  1.86562538e-05,  1.91369727e-02, -4.49378677e-02,  6.68870062e-02, -2.75744461e-02, -2.39839852e-02, -6.93848804e-02,  4.70861793e-04, -8.57325643e-03,  4.48996127e-02, -5.15219346e-02, -6.94636256e-03,  1.48770288e-02,  6.60341382e-02,  2.85227746e-02,  6.11337870e-02, -4.28077318e-02, -3.78688239e-02, -2.50735879e-02,  7.50121325e-02, -4.38821577e-02,  5.56523651e-02, -5.20285964e-03, -7.68686682e-02, -4.51979749e-02,  8.42794627e-02, -2.81426944e-02,  9.92591679e-03},
 { 1.88043378e-02,  7.27560073e-02, -6.16707429e-02,  2.23214589e-02,  6.61617890e-02, -3.35022062e-02, -8.46504197e-02, -1.02095883e-02,  2.13883724e-02,  4.63523492e-02, -2.67005786e-02,  5.09175137e-02,  6.43295348e-02, -6.73710778e-02,  4.48931456e-02,  6.04221374e-02, -5.57072014e-02,  8.28728452e-02, -7.47542083e-02,  5.38093075e-02,  2.97405068e-02,  7.32402503e-02,  7.83605278e-02, -6.95118755e-02,  7.78434202e-02,  7.97939226e-02,  5.25101610e-02, -3.42969000e-02,  7.52968788e-02,  6.64011613e-02,  1.28911901e-02, -3.68748307e-02, -8.43427181e-02, -4.49039638e-02,  1.63875856e-02,  7.14970939e-03, -4.49812301e-02, -6.18227720e-02, -8.40258822e-02, -1.75414514e-03},
 { 8.52064490e-02, -7.79483169e-02,  4.23023775e-02,  4.11990099e-02, -4.27156053e-02, -5.66209927e-02,  7.35781416e-02,  6.04921803e-02, -7.56649673e-03,  2.44495869e-02, -3.24785069e-04, -2.58015785e-02,  1.64011195e-02, -7.71679869e-03, -7.35284984e-02, -6.43601865e-02, -6.88823611e-02, -3.51381302e-02, -5.69089726e-02, -1.05104307e-02,  6.55795727e-03,  1.09681552e-02,  5.77746220e-02, -4.77357879e-02, -4.14749160e-02, -6.18557036e-02, -8.06629658e-02,  1.00524658e-02, -3.02898362e-02, -7.64838457e-02,  4.90265712e-03, -2.65911892e-02,  5.96303791e-02, -5.12912199e-02, -1.71851255e-02,  6.47301320e-04,  2.93689985e-02,  4.24221642e-02, -2.95836702e-02, -6.06349623e-03},
 { 5.06121963e-02, -6.66553751e-02, -4.03921567e-02, -4.80435528e-02, -6.59583732e-02, -6.94148913e-02,  9.19837784e-03, -1.51644228e-02, -5.61726615e-02,  5.83853535e-02, -6.27250923e-03, -8.59076381e-02,  2.01159418e-02, -9.96185746e-03, -7.28441775e-02, -8.46182108e-02, -1.28491381e-02, -2.17659306e-02, -3.57669741e-02, -1.35512585e-02, -3.45038995e-02,  6.32877126e-02,  2.97987703e-02,  7.03014135e-02,  8.67932290e-02, -2.32522152e-02,  3.27247009e-02,  2.71363817e-02,  8.88599306e-02,  6.57556728e-02,  4.44490686e-02, -3.17740850e-02, -3.83638144e-02,  3.88495624e-02,  4.06891257e-02, -4.73960536e-03, -8.65932927e-02, -5.90372458e-03,  7.59061426e-02,  3.71357501e-02},
 { 7.43032098e-02, -3.85961495e-02, -8.61663148e-02,  5.64463697e-02,  5.13950847e-02,  7.95809478e-02, -7.18829259e-02, -3.06269098e-02,  6.38517886e-02, -6.23851977e-02,  1.17393518e-02,  4.00719158e-02,  3.84748690e-02,  3.76818851e-02, -1.13298334e-02, -2.21220497e-02,  8.13859329e-02,  6.08198419e-02,  9.51595008e-02, -4.14306037e-02,  4.95116711e-02, -4.23856229e-02, -1.35299601e-02, -8.85836259e-02, -2.05734484e-02,  8.43866728e-03,  5.97455874e-02, -6.99496642e-02, -4.51797992e-02,  4.02679332e-02,  7.17889890e-02,  5.03327474e-02,  3.70254740e-02,  2.70857234e-02, -3.10150236e-02, -5.69872074e-02, -8.37104470e-02, -8.56907219e-02,  2.80091055e-02, -4.86273840e-02},
 { 7.33900964e-02, -7.79053420e-02, -9.35852677e-02,  7.50071602e-03, -1.57724600e-02, -5.22215702e-02,  1.15866642e-02, -3.26262191e-02, -7.61189461e-02, -5.98780178e-02,  8.55556503e-02, -7.03776106e-02, -5.23578040e-02,  5.21295927e-02, -3.79191861e-02,  6.45822138e-02, -1.21146543e-02,  6.63215518e-02,  1.16110854e-02,  6.20213151e-02,  6.85284892e-03, -8.81012157e-02,  2.70572789e-02, -4.80236337e-02, -8.45703632e-02, -1.50578851e-02, -7.16126859e-02,  5.95121011e-02,  9.43909213e-03, -2.77160225e-03, -8.14804051e-04,  3.62689048e-03,  5.02072461e-02,  4.53088023e-02, -2.93926653e-02, -3.41326371e-03,  4.54526730e-02, -5.81354229e-03,  6.36152849e-02,  3.94350924e-02},
 { 3.66370976e-02, -7.78308883e-02,  3.68180238e-02, -9.22224950e-03,  4.98392992e-02,  9.07555744e-02, -4.09628525e-02, -2.61171814e-03, -8.30329731e-02, -8.40050820e-03,  5.98933063e-02, -1.95810525e-03, -7.19791651e-02, -4.74065021e-02,  6.14438206e-02,  4.41278107e-02, -4.50979918e-02, -4.64365585e-03,  9.74830911e-02, -7.10364431e-03,  4.00575586e-02, -1.65543873e-02,  1.17798895e-02, -1.00697251e-02,  7.55412728e-02,  9.88401324e-02,  6.30533546e-02,  1.47895608e-02,  7.04815285e-03,  5.64450212e-02,  9.42658335e-02, -4.19368111e-02, -8.71245861e-02,  2.37807762e-02,  6.58879131e-02, -6.35210499e-02, -5.02980314e-03, -1.70974934e-03,  3.15269865e-02, -6.52042404e-02},
 { 3.09241773e-03,  6.54283762e-02,  2.70771259e-03,  6.88419938e-02,  7.33284503e-02, -4.84830551e-02,  8.12903941e-02,  1.50000760e-02, -8.77665877e-02,  8.78297444e-03,  3.50136682e-02, -3.69829573e-02,  5.05413041e-02, -3.92460823e-02, -3.36917564e-02,  1.30139729e-02,  7.49625713e-02,  5.95925674e-02,  4.09841165e-02,  3.41044851e-02, -9.11899135e-02, -1.18262963e-02,  9.75657627e-02, -4.97665927e-02,  6.59555942e-02, -3.45433801e-02, -7.54399458e-03,  1.80855114e-02,  5.57432510e-02,  5.72830141e-02, -7.18668196e-03,  4.81969602e-02, -3.85868666e-03, -3.50176208e-02, -2.54455255e-03,  1.69494506e-02, -3.84647353e-03,  1.88545417e-02,  1.18951686e-03, -7.22128749e-02},
 { 8.03716388e-03,  7.09241107e-02,  1.45398816e-02,  3.72969024e-02,  6.14448935e-02, -4.78971610e-03,  5.77027872e-02,  3.82086029e-03,  4.46151234e-02,  3.57436985e-02,  1.37231901e-01, -1.03965495e-02,  2.44679265e-02, -2.80763377e-02,  4.48400937e-02,  4.02796343e-02,  7.53349289e-02, -3.44542153e-02,  3.16091254e-02,  4.33429405e-02, -1.03323013e-01, -7.77564570e-02, -4.60401438e-02,  8.68870970e-03, -1.72972344e-02,  7.33879805e-02, -8.32951569e-04, -7.63551071e-02,  7.63138011e-02,  7.76191726e-02,  7.18817636e-02,  3.82018760e-02, -9.63729843e-02, -2.06142832e-02, -7.75173828e-02,  4.39612381e-02, -7.90873542e-02, -7.44090648e-03,  6.85600340e-02, -9.03054997e-02},
 {-3.01369913e-02, -7.27707595e-02, -7.45938495e-02,  6.44582957e-02,  8.75468999e-02, -2.10846271e-02,  6.59893751e-02, -9.54092517e-02, -8.16724747e-02, -3.33045349e-02,  1.21232811e-02, -1.08864293e-01, -6.40487000e-02, -6.18467443e-02, -3.21433917e-02,  1.07771240e-03,  1.19859032e-01,  1.45676853e-02,  1.09931365e-01,  5.50874062e-02, -8.45687091e-02,  6.76330877e-03,  7.71413371e-02, -1.38682351e-02, -6.38780817e-02,  5.19746356e-02,  5.53026646e-02,  1.88169088e-02,  8.18216950e-02, -7.91057572e-02, -1.97855216e-02, -1.13365658e-01, -3.36282179e-02, -1.61438398e-02, -8.73367786e-02,  1.34771531e-02, -6.38098940e-02, -7.42041990e-02,  4.92315702e-02, -6.42299205e-02},
 {-5.29232547e-02, -1.99974831e-02, -7.89103061e-02, -3.13051976e-02,  9.61391628e-02,  7.88379461e-03,  7.43585154e-02, -2.89853057e-03,  7.36696273e-02, -4.34543714e-02,  1.31670997e-01, -1.22846328e-01,  7.18995631e-02, -1.48059549e-02,  1.20512791e-01, -5.80046140e-03, -1.57624856e-02,  8.78846273e-02, -3.33167519e-03, -1.05368299e-02, -2.62765456e-02, -2.11928971e-02, -7.08768591e-02, -6.02687374e-02, -2.22877953e-02,  3.10154129e-02, -4.76113670e-02,  4.50573340e-02,  1.08274547e-02,  1.75875295e-02,  1.02025837e-01, -9.97033343e-02, -1.62720438e-02, -8.07795823e-02, -1.41543346e-02,  2.66356301e-02, -5.59374541e-02, -1.32104885e-02,  4.60717008e-02,  1.18120098e-02},
 { 1.60542596e-02,  2.08635186e-03,  2.12481078e-02,  7.45724440e-02, -2.82159690e-02,  3.24254148e-02,  4.09796946e-02, -4.09538522e-02,  4.55861678e-03, -3.96969430e-02,  8.14902112e-02, -4.81079817e-02,  5.13088889e-02, -3.87905240e-02,  8.36930498e-02, -5.89831211e-02,  1.23657539e-01,  1.09034702e-01,  1.18776046e-01, -5.31311296e-02, -4.00093355e-04, -6.81831688e-02,  2.21828781e-02, -6.04070500e-02, -3.68750170e-02,  3.28715146e-02,  9.85540971e-02, -3.09753069e-03,  6.10280633e-02, -4.43751998e-02,  1.12435244e-01, -1.05507448e-01, -3.98231149e-02, -1.90356206e-02, -7.70829478e-03, -6.77305609e-02, -4.08897847e-02,  5.30217588e-02,  1.78872664e-02, -1.62109695e-02},
 { 1.51435332e-03, -5.02132736e-02, -6.53837100e-02,  7.30326585e-03, -3.64013910e-02, -4.95275576e-03, -2.93606240e-02,  3.88240181e-02,  2.38800328e-02, -8.49459171e-02,  4.75507490e-02, -1.70403924e-02,  5.92331998e-02,  5.90095483e-02,  3.34895663e-02,  1.78028326e-02, -1.89136919e-02,  3.46664079e-02,  3.58451381e-02, -7.47505352e-02,  9.06471070e-03, -5.31611741e-02,  1.59529597e-02, -4.96336259e-02,  8.59822929e-02,  3.37813720e-02, -4.91253398e-02,  1.96824521e-02,  4.02886532e-02, -5.55140227e-02,  1.39781926e-02, -4.89467196e-02, -1.12377524e-01, -2.73350440e-02, -3.23112644e-02,  6.29155263e-02, -2.77249073e-03, -4.10452113e-02,  7.56228939e-02,  2.10832823e-02},
 {-8.95923842e-03,  6.57833368e-02, -2.47545205e-02, -5.38162030e-02, -5.92209846e-02,  2.63494775e-02,  1.68477353e-02,  2.01669447e-02, -6.64072409e-02,  4.69080880e-02,  5.25224321e-02,  1.47448238e-02, -6.70838207e-02, -4.05822545e-02,  5.53966165e-02, -1.21363346e-02,  8.12155567e-03,  7.16201738e-02, -6.02607727e-02, -2.01884517e-03,  1.05719073e-02, -5.43349944e-02, -4.00076136e-02,  1.16674304e-02, -3.66230570e-02, -3.94196473e-02, -4.45872843e-02, -2.38207844e-03,  6.38414770e-02, -1.31198922e-02,  7.55605325e-02, -3.10122184e-02, -8.54054764e-02,  3.13449986e-02,  4.61097918e-02, -2.40669791e-02,  7.04686269e-02,  8.05816799e-03,  8.56699124e-02,  2.28347462e-02},
 {-8.47539753e-02, -3.97781357e-02,  3.59866694e-02,  1.01051368e-02, -1.05935268e-01,  3.59912924e-02, -4.23839130e-02,  4.55042906e-02, -3.39512378e-02, -1.51773654e-02, -7.17582256e-02, -8.38089064e-02, -6.91304356e-02, -1.09082460e-01,  2.30749790e-02, -7.73045868e-02, -1.07427323e-02,  5.42556942e-02, -5.25906496e-02, -1.38843060e-02, -4.09694342e-03, -4.15208489e-02,  3.89891043e-02, -3.07531115e-02, -2.84710862e-02, -7.76794553e-02,  1.03087947e-01, -3.41000892e-02, -9.57224816e-02,  7.05158636e-02,  2.30921190e-02, -1.01162098e-01,  5.02560362e-02,  1.04314119e-01,  4.91766371e-02, -4.51268665e-02, -5.51757254e-02,  7.54871964e-02,  1.85300000e-02,  4.83163856e-02},
 {-4.24163043e-02, -1.05679650e-02, -7.42084980e-02, -6.88080788e-02, -5.08113801e-02,  8.49605426e-02, -2.53401208e-03,  1.36430301e-02, -1.16557960e-04,  5.81939407e-02,  1.32945050e-02,  7.90176913e-02, -2.34538857e-02, -1.04977377e-01, -2.96221988e-04,  7.54749328e-02,  3.10615208e-02,  1.60388909e-02, -9.42154601e-02,  8.09863359e-02, -7.56794438e-02,  1.36449579e-02,  7.86355063e-02,  4.34565172e-03,  9.53632444e-02,  3.45419049e-02, -4.56924327e-02, -5.45847192e-02, -3.07620242e-02,  7.43832514e-02, -2.42768135e-03, -6.70055375e-02,  7.39274174e-02,  2.48303507e-02, -3.98000237e-03, -6.28297552e-02, -3.88995521e-02, -4.17473167e-02, -1.90241169e-02, -3.61082777e-02},
 {-1.46112954e-02, -4.88288961e-02, -8.54146183e-02, -7.76255354e-02,  1.03874225e-02,  7.50278533e-02,  4.94062304e-02, -4.70346622e-02,  5.21559529e-02,  9.06445980e-02, -5.25173545e-02, -1.94951743e-02, -1.02336090e-02, -2.56631430e-02, -2.09275894e-02, -3.52852768e-03,  8.73814970e-02,  4.43350561e-02, -3.59714441e-02,  8.57331157e-02,  8.38602111e-02,  9.32312384e-03,  6.65527508e-02, -7.42230937e-02,  1.29462015e-02,  6.91609085e-02,  4.25966363e-03, -6.37685135e-03, -7.04283118e-02, -8.43423477e-04, -1.29858270e-01,  5.11595272e-02, -6.24658540e-02, -3.44055854e-02,  1.19617015e-01,  7.40960836e-02,  7.52961338e-02,  1.44881969e-02,  4.04831842e-02, -6.09573685e-02},
 {-3.92378755e-02,  1.07483799e-02, -4.47679013e-02,  5.49850911e-02,  2.17597913e-02,  9.22999438e-03, -7.45761096e-02,  4.77157831e-02,  2.39309631e-02,  6.82328120e-02, -8.27910230e-02, -4.88200337e-02,  3.05088796e-02,  2.82483902e-02, -6.64746901e-03,  1.61377212e-03, -3.27811129e-02, -5.25985621e-02, -3.54825184e-02,  7.35925063e-02, -6.91202506e-02, -8.32185615e-03,  1.19711633e-03, -5.30385599e-02,  3.78075279e-02,  1.89982764e-02, -3.09659019e-02, -1.23951922e-03,  4.34533209e-02,  1.61009282e-03, -7.70144537e-02,  8.45904499e-02, -9.14663076e-02,  2.63095405e-02, -5.61079103e-03, -6.75774664e-02,  8.75335261e-02,  9.94096790e-03, -6.83251694e-02,  1.06938910e-02},
 {-5.97253926e-02, -1.27913123e-02, -4.82700765e-02, -5.75343035e-02,  1.77849960e-02,  1.09245768e-02, -3.00377570e-02,  2.54852772e-02, -5.46111129e-02,  7.87714049e-02, -7.22214626e-03,  3.54049392e-02,  1.77389551e-02, -3.79310548e-02, -2.52280701e-02,  5.83438687e-02,  9.58921853e-04, -5.08248992e-02, -2.16264185e-02,  8.71027857e-02, -4.42483537e-02, -2.06031720e-03,  5.05638123e-02, -6.67739511e-02, -1.87723450e-02, -2.21098382e-02,  4.56245355e-02,  3.40688080e-02, -1.71796773e-02,  1.11213438e-01, -4.12782468e-02,  4.75972593e-02,  2.92804223e-02, -6.86779991e-02,  6.67958930e-02, -4.02300060e-02, -4.89733890e-02,  7.18429312e-02, -6.21247068e-02, -2.57733725e-02},
 {-1.44320363e-02, -6.22022301e-02,  4.92004827e-02,  5.27474768e-02, -4.39468883e-02,  7.88947716e-02,  1.63639635e-02,  5.10620624e-02,  2.58689951e-02,  6.54434115e-02,  5.56310266e-02,  7.82620311e-02, -3.02349683e-02, -2.33011935e-02,  5.14009874e-03, -4.71344776e-02,  5.80915324e-02, -6.21681511e-02, -1.21730015e-01, -2.26515941e-02,  7.22053051e-02, -7.80022442e-02,  1.78093407e-02, -8.70266110e-02,  2.79363692e-02,  1.35264909e-02,  9.73825902e-02, -4.31488752e-02,  3.25729176e-02,  7.79009163e-02,  7.66663486e-03,  9.13384110e-02, -1.24476627e-02, -8.00822079e-02,  4.31202948e-02,  2.27212291e-02,  1.02238758e-02,  1.11413877e-02,  2.11170968e-02, -8.08249712e-02},
 {-2.02170070e-02, -7.35652447e-02,  1.34334685e-02, -4.50468361e-02,  5.02961166e-02, -5.15463538e-02, -9.07242764e-03,  2.38939729e-02, -5.91572076e-02,  8.50963444e-02, -4.77652140e-02, -4.68285978e-02,  4.92475927e-02, -6.19715266e-02,  4.19952795e-02,  7.32612312e-02,  8.22083578e-02, -4.55918582e-03, -5.14537981e-03,  8.49305280e-03, -1.45559702e-02, -9.18214545e-02,  1.27316564e-01, -1.07297681e-01, -1.22630643e-02, -4.55755219e-02,  1.36440262e-01,  5.81557453e-02,  7.84646813e-03,  6.16305275e-03, -2.63541751e-02,  8.76022950e-02, -9.37170982e-02, -3.06364354e-02,  9.60006714e-02,  5.48069961e-02,  3.36903124e-03,  8.83906856e-02, -5.32854423e-02, -9.41303819e-02},
 {-1.17705734e-02, -4.29529361e-02,  7.06795976e-03,  9.50552374e-02, -2.46040821e-02, -5.65401539e-02,  1.12469107e-01, -1.48907043e-02,  2.03074310e-02, -8.46847612e-03,  4.53155227e-02,  3.42368484e-02,  5.73399402e-02,  4.33758125e-02,  3.56316753e-02, -3.15101892e-02,  6.19710749e-03,  2.00029071e-02, -5.11731952e-04,  4.36919887e-04,  7.24601597e-02, -1.50740771e-02,  2.88107842e-02,  3.55956443e-02, -3.55157591e-02,  6.22965619e-02,  1.28885300e-03, -7.86153898e-02, -3.50301526e-02,  1.11111932e-01, -4.02438603e-02,  9.06100795e-02, -7.06679597e-02, -4.41331752e-02,  6.95512742e-02, -5.87396994e-02,  4.35862429e-02,  2.25580577e-02,  3.07706334e-02, -9.00583416e-02},
 {-6.13522902e-02,  4.50201556e-02,  2.81007551e-02, -4.34844494e-02, -3.97462621e-02,  6.98161200e-02,  1.19116828e-01, -7.51067549e-02,  7.63411298e-02,  1.01113968e-01, -3.60424072e-02,  9.27826911e-02,  6.48383871e-02,  4.49372381e-02, -3.74337733e-02, -5.30516617e-02,  5.18431561e-03, -1.06779851e-01,  2.64256410e-02,  4.31156829e-02, -3.82639579e-02, -6.59272894e-02, -5.05643301e-02, -1.78450439e-02, -5.65348007e-02, -8.35250467e-02,  1.70412343e-02, -6.49522841e-02, -4.81050760e-02,  9.77110341e-02, -6.50780275e-02,  2.09373105e-02, -7.05331936e-02, -7.30552822e-02, -1.45944208e-02,  7.66828060e-02, -1.58503670e-02,  5.80265895e-02, -6.27846494e-02,  3.83158177e-02},
 {-8.52774233e-02, -3.27154398e-02, -3.91710289e-02, -1.79692376e-02, -6.90143034e-02, -3.32738720e-02,  6.37947097e-02,  3.83313932e-02,  3.44863869e-02,  8.40662047e-02, -6.91906139e-02,  4.57335822e-02, -4.77108806e-02, -4.02625240e-02,  4.15201634e-02, -4.51777577e-02,  2.19682716e-02, -3.68360132e-02, -7.80239403e-02,  6.24933420e-03, -3.47132534e-02, -5.45147695e-02, -4.04381566e-02, -8.77046213e-02, -1.21673690e-02,  3.92238833e-02, -1.56250000e-02, -1.81900512e-03, -9.07906890e-02, -5.77295162e-02,  3.34846042e-02, -1.87733269e-03, -9.59884822e-02,  2.99722166e-03, -5.03269359e-02, -2.49993633e-02, -5.83933573e-03, -1.43996095e-02, -7.44046122e-02, -6.68673217e-02},
 { 2.45532952e-02,  5.86197972e-02, -3.50139774e-02,  1.12832421e-02, -4.35598008e-02,  5.56658134e-02,  3.33515666e-02, -5.65478504e-02, -8.40521976e-02, -5.44073582e-02, -9.57459435e-02, -1.60944276e-02, -5.58407344e-02, -4.96027581e-02, -4.81490530e-02,  1.85482297e-02,  8.55494589e-02, -4.26790565e-02, -8.36651102e-02, -5.26099056e-02,  6.50492013e-02, -6.05117530e-02,  4.21307087e-02, -6.80494756e-02, -2.51358878e-02,  7.12071508e-02,  9.05772895e-02, -2.93524880e-02,  6.23105327e-04,  1.98240299e-02, -4.97982465e-02, -1.78620983e-02, -5.29048555e-02, -7.45327324e-02, -2.03658305e-02, -8.43371302e-02,  5.46523817e-02, -4.71087210e-02,  1.51202725e-02, -2.74890307e-02},
 { 6.24394044e-02,  6.89277276e-02,  1.94290746e-02,  1.50596257e-02, -6.88716397e-03, -7.21133351e-02, -3.51275727e-02,  1.71737876e-02, -7.53896162e-02, -7.26298392e-02, -7.65867010e-02,  7.23720565e-02,  5.66556565e-02, -1.97044238e-02,  5.93663156e-02, -5.23967557e-02,  3.27310748e-02, -1.77370030e-02, -7.15189055e-02, -5.68373092e-02,  4.51386310e-02, -6.38759956e-02,  5.76945692e-02, -1.55160828e-02, -5.06077297e-02, -7.00939149e-02,  7.00373277e-02, -6.84081987e-02,  5.25017977e-02,  8.09932314e-03, -3.41875404e-02,  2.76266616e-02, -2.28634588e-02,  5.02592921e-02, -3.86755466e-02,  2.76519507e-02, -6.01127110e-02, -1.86701417e-02,  4.89912182e-02,  7.46092126e-02},
 { 4.65291552e-02,  4.64638174e-02, -2.97278967e-02,  1.21595226e-02, -8.41435790e-02,  3.82022485e-02, -5.32897655e-03, -4.98614460e-02,  5.76253943e-02, -8.25731829e-02,  1.13379862e-02, -2.58669425e-02,  6.19462319e-02, -2.20358912e-02, -8.76630750e-03, -7.30880871e-02,  4.12158556e-02, -8.16493109e-02,  6.43163472e-02,  2.21361518e-02, -6.18378334e-02,  4.04131459e-03, -3.26527422e-03, -2.06405446e-02, -5.36737926e-02,  2.77102124e-02,  5.37173524e-02, -3.13633755e-02, -3.26883537e-03, -5.85375428e-02,  2.91036218e-02,  6.76818788e-02, -1.77235622e-02, -4.16885987e-02, -7.39729777e-02,  4.39016782e-02,  6.22488037e-02, -5.37887625e-02,  2.13705916e-02, -4.32326598e-03},
 { 5.86122572e-02,  2.57267058e-03,  4.35538739e-02,  7.72915184e-02,  5.48073649e-02, -8.45911503e-02,  1.73837245e-02, -6.03635758e-02, -6.27577603e-02, -6.19643182e-02,  1.07494891e-02,  1.71747059e-02,  4.82015163e-02, -6.40827343e-02,  3.05703506e-02,  2.38867551e-02,  1.61663592e-02, -5.34203015e-02, -5.30594252e-02,  2.73114070e-02,  6.82151020e-02, -4.56889756e-02,  7.60406256e-04,  7.81215876e-02,  8.21763277e-02, -2.22006664e-02, -6.21157438e-02,  1.28524601e-02,  4.92760986e-02,  5.49859852e-02,  4.48148847e-02,  7.87410885e-03,  2.02348158e-02, -2.18298063e-02, -4.84464802e-02, -5.57951033e-02,  5.85596263e-02, -2.76902877e-02, -8.50197300e-02, -2.22821534e-03},
 { 8.34521949e-02,  7.15190470e-02, -5.06996810e-02, -2.13999376e-02, -8.17337632e-03,  1.77967250e-02, -7.65085965e-03, -7.92085379e-02, -7.61600658e-02, -7.01458156e-02, -5.74659742e-02, -2.43639052e-02,  4.93797660e-03, -4.80368175e-02,  6.13501668e-03,  7.74065107e-02, -4.20162603e-02,  6.07780367e-02, -3.00571322e-04, -2.15872750e-02, -3.37682664e-04, -6.77577108e-02, -4.21146080e-02,  4.69113439e-02, -1.62123367e-02,  6.25362545e-02, -6.40374050e-02, -2.41068080e-02, -5.15075289e-02, -1.34354010e-02, -2.99679451e-02, -3.27392817e-02, -6.63000494e-02, -2.23011896e-02,  7.45888352e-02,  5.33545017e-03, -7.92905465e-02, -8.00792351e-02,  1.77223459e-02,  1.04999021e-02},
 {-2.39354223e-02,  5.40811084e-02, -2.48901788e-02, -3.49793360e-02, -7.02706575e-02,  4.38301675e-02, -6.75633773e-02, -5.29828891e-02, -1.31880445e-02,  1.29790641e-02,  7.37723857e-02,  3.98862138e-02,  4.72421311e-02, -2.04301607e-02,  3.34028229e-02, -1.93106402e-02,  4.09177765e-02, -1.40667781e-02,  3.13016213e-02, -6.31765276e-02, -1.95843577e-02, -4.17514071e-02,  8.26663221e-04, -8.14979747e-02,  5.36257736e-02,  2.18237042e-02,  1.10859321e-02, -7.21466094e-02,  5.53425448e-03, -4.01035957e-02, -2.33486369e-02,  6.62736371e-02, -3.97994108e-02,  4.35067862e-02, -4.89804372e-02, -3.23307998e-02,  2.32965071e-02,  2.87524555e-02,  5.99538907e-02, -4.30085510e-02},
 { 5.89376763e-02, -6.89069927e-02, -5.66642247e-02,  1.76248478e-03,  2.80983709e-02, -3.25662419e-02,  5.32420464e-02,  2.76579671e-02, -7.46210292e-02, -1.23823620e-02,  2.23266203e-02, -9.14561097e-03, -1.42733697e-02,  2.88780481e-02, -7.24992380e-02, -7.29057565e-02,  7.04440251e-02, -6.94633722e-02, -1.53667554e-02, -4.71150689e-02,  7.51887262e-02, -1.09596141e-02,  9.73264594e-03, -5.63682131e-02, -2.78316196e-02,  5.92530519e-02,  6.37796149e-02, -6.54035807e-02, -1.08853402e-03,  3.76553945e-02, -5.92285991e-02, -1.83711573e-02,  7.63051137e-02, -4.91580628e-02,  2.97768377e-02,  8.64203367e-03, -6.65043294e-02, -6.23219088e-02,  5.95784709e-02, -2.66645346e-02},
 {-1.27925426e-02,  6.32859468e-02,  3.70044895e-02, -3.15819457e-02,  6.83763996e-02, -3.04272957e-02,  1.56754646e-02, -3.80211025e-02, -8.06510150e-02, -8.84598941e-02, -4.21177335e-02,  1.46819176e-02,  4.01797667e-02,  6.35370389e-02, -7.15055615e-02, -8.32804665e-02,  6.54848740e-02, -4.06355299e-02,  4.87608928e-03, -2.64291707e-02,  7.68677741e-02,  2.49498244e-02,  7.78972730e-02,  4.08317149e-02,  7.56312385e-02, -3.21223922e-02,  2.81856433e-02,  1.74764339e-02,  3.18712974e-03,  4.24738601e-03,  6.49700761e-02, -1.52691007e-02, -1.68474633e-02,  3.47001553e-02,  7.04080760e-02, -6.09000400e-02, -8.67587253e-02,  1.99596919e-02,  4.39808220e-02,  2.58753775e-03},
 { 2.21486725e-02,  5.45737408e-02,  9.31823254e-03, -3.68464291e-02, -3.00629716e-03,  8.17448497e-02,  1.17566511e-02,  8.06153789e-02, -3.42339762e-02,  3.18762064e-02,  8.89509693e-02, -8.32949579e-02, -3.00774053e-02, -9.68133379e-03,  1.01748817e-01, -6.32671779e-03,  4.44175489e-02, -3.63291502e-02, -5.31950146e-02, -4.74571586e-02,  3.66583429e-02, -8.42548832e-02, -5.89742744e-03,  2.78393384e-02,  8.22723210e-02, -6.28324077e-02, -3.33009958e-02, -6.78450093e-02,  1.28191309e-02, -6.14456199e-02,  1.21997474e-02,  4.42973785e-02, -4.00052890e-02, -5.27166994e-03,  6.00945018e-02,  5.47748283e-02,  4.83173393e-02, -1.73243620e-02, -7.13976547e-02, -9.15595219e-02},
 { 1.67656634e-02,  6.12800457e-02,  3.30928862e-02,  1.57484654e-02, -5.61520569e-02, -4.15010564e-02,  6.31565461e-03,  1.06000658e-02, -2.84079965e-02,  4.05280441e-02,  4.72111702e-02, -8.11403543e-02,  1.29625900e-02, -8.31961352e-03,  9.49798003e-02, -4.19641808e-02,  9.80384555e-03, -5.37992548e-03,  1.21210255e-01,  2.53939703e-02, -8.59369487e-02, -7.82594010e-02,  7.92275146e-02, -1.00359954e-01, -5.81262782e-02,  7.07516894e-02,  7.03035444e-02,  5.93420714e-02,  1.39072435e-02, -1.39615517e-02,  2.45111920e-02,  4.95987125e-02, -8.81646127e-02, -8.69802162e-02,  2.74131596e-02, -1.43411970e-02, -1.23643328e-03,  1.71982143e-02,  7.92275667e-02,  6.12590127e-02},
 { 2.33243685e-02, -6.35343194e-02, -6.98699355e-02,  7.08113313e-02, -5.45852408e-02,  7.05152825e-02, -1.21219708e-02, -5.69446795e-02, -7.62163401e-02, -6.33839741e-02, -8.93797074e-03,  5.54079972e-02, -6.34388030e-02,  3.16342972e-02,  1.09637216e-01, -5.56202754e-02, -2.83861160e-03,  5.60577353e-03,  7.25749433e-02,  4.12848778e-02, -7.64413252e-02, -4.04771343e-02,  1.74826104e-02, -4.79511078e-03, -6.39043003e-02, -1.65016968e-02,  2.49297414e-02,  3.05485018e-02,  4.25867457e-03, -3.85071002e-02, -3.32948901e-02, -5.55334464e-02,  6.13973849e-02, -5.77679574e-02, -6.95914775e-02, -5.88600263e-02, -4.68864925e-02,  2.02192599e-03,  7.84412995e-02,  3.95958386e-02},
 { 3.04162931e-02,  9.64607671e-03,  3.78033635e-03, -4.17602286e-02,  5.38926087e-02, -2.50247493e-02, -4.01411168e-02, -8.87008980e-02,  5.16175516e-02, -5.28250262e-02,  8.68592709e-02, -9.77598652e-02, -1.55031029e-02,  3.25521082e-02,  9.50910151e-02, -4.94949929e-02,  1.21348416e-02,  5.49349329e-03,  1.42755499e-02, -6.63790554e-02, -1.78505760e-02, -3.80918407e-03, -4.13546078e-02,  2.34740044e-04,  5.27658947e-02,  1.00349650e-01, -6.04166090e-02,  2.57595293e-02, -4.92933877e-02,  4.07363027e-02,  1.02268130e-01, -1.07192181e-01, -5.36474399e-02,  6.11030832e-02, -1.35005666e-02,  3.04085319e-03, -1.61553663e-03, -4.99542765e-02,  1.01679407e-01, -3.57156843e-02},
 {-5.42163774e-02, -3.12954523e-02,  6.65438697e-02, -8.74562841e-03, -6.84467256e-02,  9.14405733e-02,  5.10241240e-02,  1.27918972e-02,  2.66467836e-02,  3.87694612e-02,  6.28652796e-02, -1.07887521e-01,  1.26514826e-02,  7.83617869e-02,  1.23683666e-03, -3.81302647e-02,  7.78092816e-02, -1.28794890e-02,  8.69086161e-02,  3.38171260e-03,  3.11706532e-02,  3.36779319e-02, -5.66267557e-02, -2.76166014e-02, -4.47021723e-02,  9.36067384e-03,  2.97028143e-02,  6.42715096e-02, -7.06493063e-03, -3.64639685e-02, -3.97329964e-02, -9.79829766e-03,  2.31507956e-03, -3.99957262e-02,  2.72916928e-02, -6.55233338e-02, -3.53000127e-02, -9.61717591e-03, -3.29272076e-02, -8.99956450e-02},
 { 6.23699017e-02, -5.57404011e-03,  7.50009418e-02, -6.93952963e-02,  9.43686664e-02, -6.70835376e-02, -1.04126483e-01, -7.54100736e-03, -8.87574926e-02,  3.05141360e-02,  8.90639126e-02,  9.70216468e-03, -4.86544631e-02,  9.30418372e-02,  6.54570609e-02, -8.41473415e-02,  9.48517025e-02,  5.62858954e-02,  1.32238552e-01, -7.07937852e-02,  4.08595018e-02, -1.30951539e-01,  7.77047127e-02, -1.25201754e-02, -7.69337490e-02,  1.37555107e-01, -7.33753592e-02, -8.05378109e-02,  4.83211130e-02, -2.43842192e-02, -3.40179130e-02,  6.92551350e-03,  2.05484070e-02,  3.97348739e-02, -6.64700419e-02, -5.44783287e-02, -4.04240005e-02, -5.52903600e-02,  1.03286631e-01, -5.84442765e-02},
 { 6.03035539e-02, -5.25015891e-02, -6.83293790e-02,  8.26583654e-02,  8.59606918e-03, -2.19300129e-02, -1.08940177e-01, -1.05897248e-01, -1.87429786e-03,  4.35308851e-02,  3.59747298e-02, -2.76825260e-02, -2.35449355e-02,  8.79954547e-02, -3.37264165e-02, -2.17848364e-02,  4.67302185e-03,  6.05255947e-04,  1.38965189e-01, -6.61086245e-03,  3.50460634e-02, -4.83199134e-02,  5.38735501e-02, -8.08309987e-02, -1.76415052e-02, -1.19448844e-02,  5.29685281e-02, -5.20838350e-02,  4.33193855e-02,  3.76031213e-02,  5.76398037e-02, -2.11939085e-02, -9.93009806e-02, -1.35859633e-02, -8.89944285e-03, -6.58844551e-03,  3.50453928e-02, -4.00677435e-02,  7.51785487e-02, -1.17940344e-01},
 { 1.14552379e-02, -7.87531510e-02, -3.16825472e-02, -6.72405884e-02, -2.92789079e-02,  4.70566861e-02, -1.01767294e-01,  2.44230833e-02,  3.36538106e-02, -1.00395411e-01,  1.87453739e-02,  1.02037601e-02,  7.47974068e-02,  1.51812499e-02,  1.14614755e-01, -9.45963338e-02,  9.33484435e-02,  3.49938823e-03, -1.16261067e-02, -8.18276703e-02,  3.01446207e-02, -5.34026399e-02, -1.77603476e-02, -3.35973105e-03,  3.28610279e-02,  1.93488668e-03,  4.14182320e-02, -1.09796397e-01,  8.50445330e-02,  5.75567186e-02,  1.21216305e-01,  7.50875473e-03, -5.33081293e-02,  9.35314409e-03,  3.90712805e-02,  5.85446507e-02, -5.88228703e-02,  7.33355731e-02,  1.26980960e-01,  4.03253101e-02},
 { 6.41637221e-02, -3.14704962e-02,  7.75176510e-02,  9.07600075e-02, -3.65970097e-02,  8.32043886e-02, -8.54995176e-02, -8.31097290e-02, -4.65464965e-02, -3.92526388e-02,  8.40157736e-03,  2.74435505e-02, -3.93284410e-02,  3.71859185e-02,  4.12039412e-03,  6.61157863e-03,  7.49207363e-02, -5.14030084e-02,  8.67705122e-02,  7.99471454e-04, -3.03275380e-02,  1.34174386e-02,  6.03609383e-02, -6.48754165e-02, -2.80299205e-02,  6.47015572e-02,  7.27475584e-02, -8.85649920e-02,  2.97244061e-02, -2.94569377e-02,  8.32021832e-02,  3.17332596e-02, -6.28406629e-02,  1.00650460e-01,  2.58399080e-02,  2.79634949e-02,  4.92053404e-02,  7.59240286e-03,  6.96190447e-03, -3.03381961e-03},
 {-4.61785719e-02,  8.29863921e-03, -7.48879882e-03,  7.96619728e-02, -6.54248404e-04,  7.77812228e-02,  2.42960863e-02,  7.38070533e-02,  4.74549197e-02, -1.35715166e-02,  3.97975855e-02, -5.65624014e-02,  6.24390915e-02, -9.96353403e-02,  5.23210727e-02, -8.83327052e-02, -4.90659140e-02,  9.50544029e-02, -1.21624731e-02,  8.80958140e-03, -5.09982649e-03,  4.19666320e-02,  9.15116891e-02, -1.88372247e-02,  8.19825754e-02, -9.51538235e-03,  6.81793839e-02, -8.92987251e-02, -3.55285816e-02, -7.19036311e-02,  3.49904820e-02, -1.33357570e-01,  6.87602982e-02,  6.73693344e-02,  3.45281437e-02, -5.92479855e-02, -2.51954868e-02,  8.40320364e-02,  8.90930742e-02,  2.88583841e-02},
 { 5.58845699e-02, -1.53373822e-03, -4.70271036e-02, -1.03132688e-02, -1.17198460e-01, -7.79924840e-02,  1.87631082e-02,  9.41996723e-02, -5.98181486e-02, -4.58078720e-02, -3.82489488e-02,  5.46037778e-02, -2.61637028e-02,  1.60550140e-02,  6.49861097e-02, -8.94991234e-02,  5.28496243e-02, -2.78259981e-02,  6.75819740e-02,  1.62391029e-02, -1.16952620e-02, -3.15923840e-02,  1.12261781e-02, -6.85123727e-02,  9.19088274e-02, -1.33424979e-02,  7.04246834e-02, -1.11753188e-01, -5.60967028e-02, -1.89116839e-02,  2.96234637e-02, -1.10536702e-01,  4.99319062e-02, -4.97570932e-02, -3.31177488e-02,  8.42121169e-02,  7.47200623e-02,  1.09454244e-01,  1.61788948e-02, -1.06137106e-02},
 {-5.38296886e-02,  1.04127385e-01,  3.61709036e-02, -2.63773147e-02, -9.77916569e-02,  3.46945622e-03,  3.09884623e-02, -3.57359424e-02, -7.24458471e-02, -3.58203575e-02, -4.19817008e-02,  2.30556543e-04,  3.33904177e-02,  1.87406205e-02,  6.24714717e-02, -5.28869405e-02, -6.71510994e-02, -3.58223394e-02, -1.73041448e-02,  1.08085081e-01,  4.15043645e-02, -1.36674652e-02,  1.25921860e-01,  5.38761914e-03,  9.87839475e-02, -6.49379939e-02,  6.70542419e-02, -5.56053258e-02,  1.69856530e-02,  6.69793226e-03, -4.71339449e-02, -8.73684064e-02, -3.76809351e-02,  4.28447034e-03,  9.80389863e-02,  6.30802736e-02,  1.00547582e-01, -1.60064977e-02,  1.17933877e-01, -2.00021882e-02},
 { 6.65275753e-02,  4.53697480e-02, -3.66114080e-02, -5.12097664e-02,  2.41298601e-03,  1.73387490e-02,  6.67904690e-03, -7.29828998e-02, -1.54802939e-02,  8.33737478e-02,  2.42856313e-02, -5.50408736e-02, -2.69019473e-02, -4.00103368e-02,  3.47117446e-02, -3.57969515e-02,  8.85276720e-02,  5.00493497e-02, -3.53784300e-02,  6.50442913e-02,  1.10934619e-02,  5.24270628e-03,  2.73630172e-02, -9.99114886e-02, -5.21104336e-02,  3.82228494e-02,  5.50857047e-04, -3.85218002e-02, -2.53452994e-02,  8.31666961e-02,  2.59939320e-02,  3.44173461e-02,  4.06688899e-02, -3.85320075e-02,  9.74979699e-02,  7.41720945e-02,  9.10992920e-02, -5.50479349e-03,  3.01493891e-02, -5.99124357e-02},
 { 7.02988580e-02, -1.86183453e-02,  2.66999528e-02, -5.72722927e-02, -1.83939133e-02,  5.19530475e-02, -2.78888252e-02, -1.35353701e-02,  2.32780837e-02,  3.10239866e-02,  6.55014962e-02,  3.70730907e-02, -8.08715001e-02, -7.74313807e-02,  7.04872683e-02, -4.83123586e-02, -6.29423857e-02, -3.52878459e-02,  2.61066165e-02, -7.59358099e-03, -6.30863458e-02,  8.34173039e-02,  1.27240971e-01, -1.04440823e-01, -4.16840240e-02,  6.66045472e-02,  1.03084706e-02, -1.87481996e-02,  1.25789819e-02,  9.51433703e-02,  1.51448566e-02, -1.79870497e-03, -8.70499611e-02, -1.89678324e-03, -2.75823139e-02, -4.68692482e-02, -7.62783810e-02,  9.36084762e-02,  7.04071969e-02,  3.63001078e-02},
 { 4.78167180e-03,  1.45337610e-02, -8.36651772e-02, -4.52883840e-02, -5.24125583e-02, -1.50913997e-02, -7.18975365e-02, -3.17507721e-02, -1.19917374e-02,  8.47216416e-03, -8.76272935e-03, -5.78921810e-02, -2.87011289e-03, -1.11809246e-01, -5.21811517e-03, -1.13844387e-02, -4.73749265e-02, -8.91548488e-03,  1.51407663e-02,  7.83675164e-02,  7.30059445e-02,  3.64698209e-02,  2.81993430e-02, -5.87031478e-03,  5.83645254e-02, -9.31784064e-02,  9.93337780e-02, -1.70123130e-02, -9.32213813e-02,  2.02802457e-02,  1.39646912e-02,  7.57571450e-03,  1.51544390e-02,  6.13917634e-02, -3.60639673e-03, -4.96661514e-02,  7.52878413e-02,  7.16681406e-02,  7.08146766e-02, -9.70731974e-02},
 {-5.47077358e-02,  1.34202745e-02, -3.41744162e-02,  3.85815762e-02,  3.68260331e-02, -5.49287386e-02, -5.56155480e-02,  9.38185211e-03, -1.03106856e-01, -6.33704383e-03, -2.79532149e-02, -4.13564332e-02,  2.21291799e-02,  1.97664667e-02, -2.41754539e-02, -1.05639929e-02,  9.65448171e-02, -7.60156065e-02, -3.21915187e-02, -1.09023908e-02,  5.48425317e-02,  1.16914483e-02,  1.58292684e-03, -1.73751526e-02, -2.52334233e-02,  4.58398014e-02,  1.11023583e-01,  3.81294563e-02, -7.76653513e-02,  1.17038094e-01, -4.75862110e-03, -4.09488343e-02,  1.97990946e-02, -6.34456426e-02,  5.88207804e-02,  1.22665418e-02,  6.68272451e-02,  8.59691128e-02,  4.50568907e-02, -8.03950503e-02},
 {-2.21276563e-02,  1.47305699e-02,  7.49573112e-03,  6.41868860e-02,  2.52932264e-03, -5.32164909e-02,  1.52234174e-02,  2.04071142e-02,  1.12264333e-02,  1.08289726e-01,  3.09160072e-02, -5.46991490e-02,  5.79055995e-02, -7.83462971e-02,  8.95714313e-02,  5.37925102e-02, -1.95151996e-02, -7.59588555e-02,  2.01788787e-02,  9.46200043e-02, -3.22968848e-02, -2.50384416e-02,  3.18928026e-02,  3.18813585e-02, -3.77171487e-03,  1.33455470e-02,  7.68666789e-02,  1.64996684e-02, -3.30382884e-02,  7.13338191e-03,  2.04785690e-02, -2.79525314e-02, -2.08201818e-02, -1.68673620e-02, -5.67822568e-02,  7.80119747e-02,  2.58096643e-02,  6.85784966e-02, -9.24380794e-02,  4.87461407e-03},
 { 1.77443754e-02,  2.04933193e-02, -5.70275746e-02,  7.56542236e-02,  9.89616849e-03,  5.75385243e-02,  6.23107515e-02, -4.58626114e-02, -7.31440187e-02,  1.12265073e-01,  6.26359228e-03,  4.42677103e-02, -3.68463434e-02, -3.77115123e-02,  6.45471141e-02, -3.02028209e-02,  4.64825965e-02,  3.17444466e-02, -7.60450363e-02,  1.64083317e-02, -5.39309569e-02, -2.75987033e-02,  7.33131915e-02,  4.63903435e-02, -6.64409995e-02, -4.29301746e-02,  2.85838097e-02, -1.07379043e-02, -8.05613920e-02, -1.74669456e-03, -5.57616213e-03, -4.34674658e-02,  1.61125101e-02, -4.48426185e-03,  8.17339346e-02, -5.75945713e-03,  5.23744896e-02, -6.75314739e-02,  1.18247252e-02, -1.00479305e-01},
 {-7.94791132e-02,  4.58948351e-02,  9.10657458e-03, -3.80798541e-02,  7.71940649e-02, -5.53214923e-02, -1.37556251e-02, -5.86936437e-02, -7.98711330e-02,  1.62828788e-02, -3.67892459e-02, -4.05359380e-02,  4.54006204e-03,  3.09218615e-02, -6.05769865e-02,  7.13960677e-02, -5.40514253e-02, -4.51890156e-02,  6.04069093e-03,  6.14863262e-02,  1.22060524e-02, -7.15932027e-02, -2.87948903e-02, -3.80757898e-02, -1.51266772e-02, -7.96505213e-02,  3.47522879e-03, -3.35655957e-02,  4.68969047e-02,  1.11071326e-01, -1.01880029e-01,  5.35039790e-02, -3.23387124e-02,  5.72636388e-02,  2.63479985e-02, -6.50957227e-02, -1.43696759e-02,  2.09768396e-03, -5.36144339e-02,  3.69903520e-02},
 { 1.06990617e-02, -6.08703941e-02,  2.56758388e-02, -4.23441567e-02,  8.61438960e-02, -6.79285685e-03,  3.56307924e-02, -3.91399413e-02,  7.32572898e-02, -6.21920712e-02,  2.95212306e-03,  9.89933088e-02,  1.03292026e-01,  3.93772274e-02, -1.46154771e-02, -1.50948474e-02, -3.22433189e-02, -1.68390423e-02,  8.48148763e-02,  8.34482461e-02, -1.13643389e-02, -3.70037742e-02, -5.38457744e-02, -7.38148764e-02, -4.04037423e-02,  2.64042895e-02,  1.19267248e-01, -1.01205977e-02, -4.31706421e-02, -2.98721623e-02, -6.76959604e-02,  9.30651370e-03,  4.72757071e-02,  4.86883111e-02,  4.66796085e-02, -6.25618473e-02,  7.74340630e-02,  1.40613755e-02, -1.06246278e-01, -4.61881645e-02},
 { 1.84795372e-02, -4.52200975e-03,  6.98568067e-03, -5.58647811e-02,  4.02106643e-02, -5.55602349e-02,  8.54290128e-02, -8.15831274e-02,  8.21375698e-02,  5.81747293e-02, -4.27248515e-02, -5.27692065e-02, -2.67780740e-02, -6.38766587e-02,  5.82079589e-02, -3.41162793e-02, -2.50290539e-02, -9.34998989e-02, -6.99196458e-02, -9.10706446e-03,  6.88941181e-02,  4.47793603e-02,  8.14849809e-02, -7.94205070e-02, -9.92920995e-03, -7.57203177e-02,  6.61105663e-02, -2.54030935e-02,  3.05034351e-02,  1.39393285e-02,  1.78384855e-02,  5.99168949e-02,  6.71600848e-02, -6.29268289e-02,  4.55491729e-02, -6.75090253e-02, -2.19810400e-02,  4.47354726e-02, -9.97918844e-02,  7.69318119e-02},
 {-5.42884022e-02, -2.45915577e-02,  3.36373737e-03,  3.65193002e-02,  3.46283577e-02,  5.93559593e-02, -7.10298270e-02,  6.58947900e-02,  8.16024933e-03, -2.17659809e-02,  6.12336844e-02,  2.84659322e-02,  4.79794033e-02,  1.57611705e-02, -2.37299651e-02, -6.37264401e-02, -4.08860818e-02,  6.61417022e-02, -1.41849020e-03,  4.99529950e-03, -2.34157853e-02,  2.42183972e-02, -5.25420420e-02, -3.23055387e-02,  6.11787997e-02,  3.36316191e-02,  6.10808022e-02,  1.62468478e-02,  7.27953613e-02, -8.19303989e-02, -7.69603103e-02, -1.37060098e-02, -4.48954757e-03, -1.40129831e-02,  3.85857001e-02,  7.05782548e-02,  7.16566518e-02,  7.00928969e-03, -7.53087923e-02, -5.19361757e-02},
 {-5.86060062e-02,  2.39338111e-02,  3.75852287e-02,  4.78224456e-03, -4.18205522e-02, -8.10808241e-02, -3.26226801e-02, -2.24486366e-02, -3.42517793e-02,  5.05625382e-02,  2.91543100e-02,  5.27486717e-03, -7.54066780e-02, -3.30075324e-02, -1.78906247e-02, -6.21030014e-03, -8.48071948e-02, -7.76067004e-02,  1.47245126e-02, -7.92130679e-02, -1.38463089e-02,  3.30678672e-02, -1.62431858e-02,  4.65743765e-02, -7.78983906e-02, -6.10645637e-02, -3.43289524e-02, -4.78936397e-02, -5.38766989e-03, -1.99057832e-02, -8.32861066e-02,  1.72357205e-02, -7.16387527e-03,  8.12802538e-02, -8.39371886e-03, -6.42027298e-04, -5.86393941e-03, -6.37624487e-02,  2.09067632e-02,  5.24113886e-03},
 {-5.39032444e-02, -9.50821489e-03, -6.43737242e-02, -3.08354832e-02, -6.49722889e-02, -2.18552575e-02,  5.42372465e-03, -3.30723859e-02, -5.15244156e-02,  2.83089280e-03,  8.52831304e-02,  8.52044374e-02, -1.70774758e-04,  4.97075170e-03, -7.76357651e-02,  7.52880424e-02, -3.13898772e-02, -4.18542773e-02, -3.96191403e-02,  8.40019435e-02,  2.77487785e-02,  6.29718602e-03,  2.91309431e-02,  6.92346096e-02,  3.15517187e-02,  7.91973770e-02, -1.98503584e-03,  5.12160361e-03, -6.98347241e-02, -4.11260165e-02, -2.38876119e-02, -8.10662806e-02,  2.10393071e-02, -3.89399715e-02, -4.11041044e-02, -5.32378070e-02,  1.20586306e-02,  5.07544428e-02, -5.02817594e-02,  7.19846040e-02},
 {-7.76904374e-02,  7.65195489e-02, -4.26543504e-03, -7.60606676e-03,  3.04614231e-02,  1.07879415e-02,  3.15934867e-02,  1.11971945e-02,  8.43636543e-02,  2.10678950e-02, -2.28166282e-02, -6.62128702e-02,  6.74989074e-02,  5.31293899e-02, -6.87273592e-03, -8.00167918e-02, -8.54230672e-03,  7.46043473e-02, -7.00167269e-02,  4.12127376e-03,  7.23837316e-02,  3.67289707e-02,  6.79169297e-02, -2.14018300e-02, -4.91421670e-02, -1.21319517e-02, -6.62143379e-02,  5.90362996e-02,  3.80469635e-02,  4.22525406e-03, -8.34518820e-02,  7.96654820e-02,  8.18210840e-03, -6.83428347e-03,  5.66912889e-02, -3.89915258e-02,  4.89268452e-03,  2.78808996e-02, -5.02405316e-03, -6.87054470e-02},
 {-6.79682866e-02,  7.11156279e-02,  1.90292150e-02,  7.03616207e-03,  6.23021508e-03, -6.78854138e-02,  1.90053396e-02,  2.97743492e-02,  6.72748685e-02, -7.72973523e-02, -2.09537987e-03, -4.13681380e-02, -3.05723529e-02, -1.43427437e-03, -3.44263972e-03, -7.40258321e-02, -5.82875721e-02, -6.65196106e-02, -4.92181145e-02, -3.42447422e-02,  3.20622586e-02,  1.67897921e-02,  1.75544918e-02, -6.36363849e-02,  6.68679327e-02,  1.52015388e-02, -2.75771860e-02,  8.40024054e-02,  7.46644139e-02,  5.72945513e-02, -4.78710905e-02,  8.19403827e-02, -4.94626202e-02,  5.46486452e-02,  2.60673482e-02,  7.38057122e-02, -1.24394835e-03, -8.60578194e-03, -6.54726923e-02,  4.62105758e-02},
 {-2.76898984e-02, -3.71552855e-02,  2.99336016e-02,  1.39721986e-02, -5.75923063e-02,  2.49073319e-02,  6.19803555e-02, -4.62147780e-02, -7.30049377e-03,  2.64690071e-02,  6.67404979e-02, -3.55866030e-02, -4.00568694e-02,  7.31025636e-02,  2.43951511e-02,  8.21244717e-02, -5.10151051e-02, -4.90976237e-02, -6.84911311e-02,  3.67342914e-03, -8.17283466e-02, -1.45006748e-02, -2.37262007e-02,  1.01018781e-02, -6.79904222e-02, -6.58657216e-03,  5.26216216e-02,  6.94759861e-02, -5.23954742e-02, -6.21914603e-02,  7.37423971e-02, -5.50350919e-02,  3.05965263e-02, -7.49781057e-02,  4.07325812e-02,  5.76838031e-02, -7.25279525e-02, -6.88461289e-02, -5.77578619e-02,  7.37265721e-02},
 { 4.69269976e-02,  4.06340398e-02, -1.33043518e-02, -1.54054267e-02,  7.30152130e-02, -7.06857145e-02, -9.01147872e-02,  3.55914347e-02,  8.04733187e-02,  7.14955898e-03, -4.77217585e-02, -8.65127295e-02,  1.42121669e-02,  5.93224652e-02,  1.69928838e-02,  1.57750882e-02, -1.21920770e-02,  8.17673653e-02,  6.33261679e-03,  1.26432430e-03, -1.44562945e-02,  2.79070102e-02,  7.65170753e-02,  6.10710420e-02,  1.64147373e-02,  2.59203743e-02, -3.35264057e-02,  3.37821133e-02,  4.01404537e-02, -3.33172083e-03, -2.89563574e-02, -3.45675200e-02, -6.61063492e-02,  3.76093425e-02,  4.62761521e-02,  2.17059162e-02,  1.81393567e-02, -2.18467414e-02,  5.45607246e-02,  7.57546201e-02},
 { 6.03830405e-02,  3.06611471e-02,  7.98952132e-02, -8.88359025e-02,  7.77138472e-02, -3.52321751e-02,  1.83298998e-02, -5.69873527e-02,  2.50863358e-02, -9.87574756e-02, -4.57860157e-02,  3.99456248e-02,  6.70850500e-02,  6.33963868e-02,  2.79595535e-02, -7.11397380e-02,  5.29706739e-02,  8.42800811e-02,  1.24385715e-01, -4.49525937e-02, -2.33646166e-02,  1.47934929e-02, -4.08258215e-02,  2.14613436e-04, -9.69895720e-02, -3.43474150e-02, -4.00253572e-02, -5.62229156e-02, -6.75482899e-02, -6.21111281e-02, -4.12250720e-02, -2.01057103e-02, -2.15034056e-02, -7.97967613e-03,  5.62446043e-02, -3.24039534e-02, -5.11574112e-02, -7.34902127e-03,  6.05682842e-02,  5.22969626e-02},
 {-9.18357819e-02,  4.58653532e-02, -5.52201495e-02, -2.90679489e-03,  7.07339644e-02, -5.28538004e-02, -9.54656750e-02,  8.78660847e-03,  5.94019145e-02, -4.25179442e-03, -1.09329708e-02,  5.92007451e-02, -4.41451371e-02, -2.83185113e-02,  2.07150802e-02, -9.45722312e-02,  6.77549988e-02,  6.66360185e-02,  7.60480389e-03,  1.14694256e-02,  4.15657014e-02, -3.06804832e-02, -6.21214919e-02, -3.30949426e-02,  3.63274291e-02,  6.43599257e-02, -7.03366986e-03,  3.17995660e-02,  3.76099013e-02,  1.10661210e-02,  4.16905656e-02,  2.62042489e-02, -4.32161652e-02, -1.87916029e-02,  4.13584663e-03,  7.24076554e-02,  5.21641877e-03,  3.97752672e-02,  9.98695642e-02,  2.08315179e-02},
 {-1.06221601e-01,  2.33195256e-02, -1.65106539e-05, -5.79807200e-02,  2.35818401e-02,  1.03622958e-01,  1.98684260e-02,  6.36295602e-03, -8.65998212e-03,  5.57846874e-02,  7.97778070e-02, -3.14706676e-02,  3.83504368e-02, -5.09990240e-03,  9.77866426e-02, -5.60310064e-03,  3.47565264e-02,  1.20660625e-01,  5.50085716e-02, -2.23376639e-02, -9.11358669e-02, -8.44971240e-02, -3.70744499e-03,  4.83000232e-03,  4.40924205e-02,  1.28901914e-01, -5.49791269e-02,  7.20916018e-02,  9.40262377e-02,  9.40013751e-02, -1.47996005e-02, -1.12288065e-01,  5.55788763e-02,  7.22954944e-02, -3.54837105e-02, -3.37146521e-02, -1.19085014e-02, -3.71368416e-02,  6.26055449e-02,  5.20605892e-02},
 {-4.61494587e-02, -1.55729335e-03, -5.42068332e-02, -8.43424276e-02,  6.58065304e-02,  4.35094126e-02,  1.32736303e-02, -6.85301190e-03,  2.45220512e-02, -7.40692466e-02,  1.50398148e-04,  9.52322516e-05,  7.66214579e-02, -2.15530209e-02,  3.36124636e-02, -8.10150951e-02, -6.68743951e-03, -2.89817024e-02,  5.76964244e-02,  1.87910981e-02, -2.15607062e-02, -7.03615397e-02,  6.28548255e-03, -7.49771148e-02,  6.03726394e-02,  1.40893176e-01, -3.03062908e-02,  1.41347693e-02,  2.03072792e-03, -1.74744204e-02,  1.22556183e-03, -6.24664128e-02,  3.84302028e-02,  2.58512184e-04, -3.11987922e-02,  3.56808789e-02, -7.06896782e-02,  2.67032832e-02, -1.28049199e-02,  5.41104861e-02},
 {-2.76831561e-03,  7.25504458e-02,  8.52265395e-03,  6.96887225e-02, -5.32332957e-02,  5.29970638e-02,  2.70549743e-03, -6.54747486e-02, -8.33258219e-03,  2.27012821e-02, -7.12262699e-03,  7.87509605e-03,  9.76690184e-03, -7.90884793e-02,  6.16946183e-02, -1.00230455e-01,  6.02618046e-02,  1.08472638e-01,  8.23007822e-02, -1.11356489e-02, -1.14471100e-01, -6.94953725e-02,  5.23600988e-02,  3.35518233e-02, -6.38552681e-02,  1.20260857e-01,  8.09623301e-03,  1.68104582e-02, -4.85468283e-02, -6.39836267e-02,  2.60980241e-02, -8.10090154e-02, -8.52409080e-02,  5.86074516e-02, -4.17660289e-02, -6.52257726e-02, -9.70496535e-02, -2.57671494e-02,  1.03348106e-01, -2.37947870e-02},
 {-4.55872416e-02,  7.58571476e-02, -4.78822291e-02, -2.04243902e-02, -4.02247049e-02,  5.12668304e-02, -3.50749269e-02,  4.27436680e-02,  6.61465004e-02, -5.54135107e-02,  1.02400482e-01, -9.80371051e-03, -7.88582936e-02, -3.83124240e-02,  7.14939758e-02,  1.54965818e-02,  1.83846503e-02,  1.36962757e-02,  1.13597177e-01, -4.46387641e-02,  2.82092635e-02, -7.28278235e-02,  2.90213767e-02, -8.43944401e-02,  3.05412151e-02,  5.74854799e-02,  4.95162532e-02, -6.32876158e-02,  5.53364791e-02,  2.25376263e-02, -3.48418355e-02, -1.04325302e-02,  3.03894770e-03, -1.73553899e-02,  1.27128270e-02,  3.72506343e-02,  2.72187963e-02,  4.43478487e-03,  1.11736566e-01,  7.20504597e-02},
 { 5.03701270e-02, -2.06949692e-02,  2.42999606e-02, -2.58643422e-02, -7.71123171e-02, -3.66742015e-02,  3.74500528e-02,  4.46377769e-02,  2.07194872e-02,  1.83830317e-03,  1.18862823e-01, -1.18185349e-01,  3.32549624e-02,  9.23631191e-02, -3.64979841e-02,  2.40795547e-03,  5.63698336e-02, -3.68615240e-02,  7.47290701e-02,  4.02263403e-02, -1.05939776e-01, -6.12724721e-02,  3.22401077e-02, -5.68956919e-02,  4.13505621e-02,  1.03338689e-01, -2.65486632e-03,  2.58787274e-02, -1.29672093e-02, -7.87179023e-02,  1.20436221e-01, -7.39534199e-02,  4.15588543e-03,  2.17516478e-02, -1.83205642e-02, -5.36877438e-02,  2.92534735e-02, -1.96850840e-02,  8.58978331e-02, -8.63824859e-02},
 {-1.66134033e-02, -2.14306675e-02,  8.38727877e-02,  8.46968815e-02, -3.78155895e-02, -7.55689889e-02, -6.10875338e-02,  1.84784178e-02, -5.51609322e-02,  1.53125878e-02,  1.65640761e-03, -9.24796611e-02,  4.50716391e-02, -2.41079573e-02,  1.10340983e-01,  2.48627905e-02, -2.54153684e-02, -2.18971819e-02,  3.72704044e-02,  4.13878448e-02,  6.66375309e-02,  2.53804531e-02,  3.09858960e-03, -2.81926729e-02, -5.24893478e-02,  2.49228310e-02, -6.90943524e-02, -5.39016239e-02,  3.56045878e-03, -5.65727055e-02,  1.01413503e-01, -4.38160710e-02, -1.16995849e-01,  2.43470669e-02, -4.55939136e-02, -7.23620206e-02,  8.68195742e-02,  7.87355825e-02,  1.10990845e-01, -9.75181535e-02},
 { 6.42428994e-02,  2.12368928e-02,  7.59895891e-02, -8.04528072e-02, -9.12394673e-02,  4.44048829e-02, -4.39801328e-02, -8.32885387e-04,  4.46200892e-02,  4.36883271e-02,  8.41605514e-02, -1.09664071e-02,  3.71632949e-02,  4.87474650e-02, -9.53964144e-03,  4.25402680e-03,  1.07490392e-04,  1.05221711e-01,  6.02083839e-02,  1.94535945e-02, -7.48218521e-02, -6.37388229e-02, -3.97548638e-02,  3.34338397e-02, -2.99271420e-02, -5.57783358e-02,  7.54735619e-02,  4.10722382e-02,  5.76388836e-03,  1.92936659e-02, -3.04156803e-02, -1.52209783e-02, -8.79904814e-03, -5.78305125e-02, -6.68983394e-03, -7.09976554e-02, -3.27045023e-02,  6.33325502e-02,  6.90082237e-02, -9.74940434e-02},
 { 1.14959478e-01, -7.44436926e-04, -1.03627481e-02,  1.39628127e-02, -1.17574535e-01, -9.69735999e-03,  6.98553771e-03, -5.05679548e-02, -4.32954542e-02, -6.75062686e-02,  5.99270761e-02,  2.89511755e-02,  6.17995150e-02, -1.02535099e-01,  8.85548219e-02, -5.94633892e-02, -7.21646547e-02,  6.56772824e-03, -5.08463271e-02,  1.01964269e-02,  7.01739313e-03,  6.10442692e-03,  1.52914533e-02, -7.71673471e-02, -9.55177296e-04,  3.07693426e-02,  8.37483555e-02,  2.89804712e-02, -3.93081754e-02, -1.89410355e-02, -4.68140654e-02, -2.24750452e-02, -4.85550649e-02,  6.48551509e-02,  9.17518605e-03, -1.17963348e-02,  1.39572313e-02, -3.28515321e-02,  1.24514975e-01, -1.16225453e-02},
 {-2.03611087e-02, -2.78926771e-02,  6.73978180e-02, -6.58602044e-02, -6.39561489e-02, -1.87558457e-02, -1.01016812e-01,  6.39422834e-02, -1.14940308e-01, -4.91648763e-02,  5.13911247e-02,  5.53912409e-02,  2.21550427e-02, -4.73553278e-02, -4.47679050e-02, -5.76140136e-02,  7.98593014e-02,  3.29808220e-02,  2.73864157e-02,  2.24038083e-02, -3.67603339e-02,  6.09340519e-02,  2.52280142e-02,  4.40673120e-02,  2.08847355e-02, -5.77660613e-02,  2.13219970e-02, -5.21668568e-02,  6.37905672e-02,  5.26932850e-02, -1.37717435e-02,  1.31217260e-02,  4.95733283e-02,  3.89945484e-03,  1.13151141e-01, -1.89161897e-02,  2.75282301e-02, -9.61549580e-03,  4.65248786e-02,  2.71827299e-02},
 { 4.79673967e-02,  2.03643343e-03,  3.63422781e-02,  2.30934154e-02, -7.00841397e-02, -9.99896079e-02, -8.23242310e-03,  5.61538525e-03, -7.58130429e-03,  9.11211036e-03, -8.11054930e-02,  2.52252296e-02, -3.80547792e-02, -3.00832372e-03,  7.96878263e-02,  4.21632528e-02,  1.82999037e-02, -4.82084192e-02, -4.10019048e-02, -1.69262793e-02,  2.12470479e-02,  8.87654647e-02,  1.88596938e-02, -8.19118470e-02,  6.63715750e-02, -6.36081472e-02,  1.23662772e-02, -8.92413501e-03,  2.31474563e-02,  2.50096563e-02,  6.00379705e-02,  3.78908440e-02, -3.33354324e-02, -4.30191979e-02,  3.94359492e-02, -3.49205546e-02, -5.70449829e-02, -3.16622779e-02,  1.51887285e-02,  4.30400521e-02},
 { 4.00980636e-02, -5.84667288e-02, -1.67537481e-02,  3.87862921e-02, -1.32841840e-01, -7.50455558e-02,  3.06747910e-02,  3.61845009e-02, -1.09787405e-01,  8.07038993e-02,  5.09698354e-02,  4.64586504e-02, -3.62006798e-02, -1.16813974e-02, -3.99042368e-02, -6.91764653e-02,  3.16938162e-02,  3.47213261e-02, -1.26953200e-01,  5.04679866e-02,  2.13564727e-02,  3.12142335e-02,  9.83683914e-02, -1.26556372e-02, -3.72875929e-02, -1.11574726e-02, -1.25279080e-03, -1.35018034e-02,  6.32572994e-02, -3.15598510e-02,  3.86713296e-02,  1.85987595e-02, -8.75603035e-02,  3.57771479e-02,  1.05747789e-01, -5.81289902e-02,  3.39930020e-02,  7.53322318e-02,  1.15925688e-02,  7.09515670e-03},
 { 7.85604939e-02,  7.37790689e-02, -2.20744312e-02,  9.64574050e-03, -1.08191997e-01,  1.30180586e-02,  2.74862777e-02,  5.16703259e-03, -5.65119535e-02,  3.00376471e-02,  2.96316557e-02,  4.51470725e-02, -6.18725978e-02, -5.37539683e-02,  1.57063473e-02,  1.27889328e-02,  7.18542114e-02,  2.92649586e-02, -1.17883317e-01, -2.53667822e-03,  3.17882746e-02,  2.57957503e-02,  4.25459445e-03, -5.03563285e-02, -2.30794703e-03,  7.01767057e-02, -5.31091206e-02, -2.83064153e-02,  3.24908644e-02, -6.14210293e-02, -5.00962026e-02, -9.04480964e-02, -5.80286561e-03, -7.26980940e-02,  6.67056963e-02,  5.78360772e-03,  3.61102894e-02,  7.33946264e-02,  1.39681604e-02, -1.15459235e-02},
 { 4.55126315e-02,  7.78547078e-02, -8.89647603e-02,  3.64484973e-02, -5.34677245e-02, -4.74647433e-02,  6.87223151e-02,  3.88728008e-02, -5.15249819e-02,  1.27286002e-01, -7.34073250e-03, -7.08533898e-02,  5.14679626e-02, -8.30597244e-03, -3.41104972e-03, -4.12313454e-02,  3.88755314e-02,  4.91341799e-02,  5.01311719e-02, -2.59698480e-02,  6.04584441e-02,  3.27331200e-02,  7.37039074e-02, -6.57091960e-02, -5.37885986e-02,  5.86831234e-02,  4.84743640e-02, -3.33632864e-02, -9.57555398e-02, -1.72591787e-02, -9.99797583e-02, -8.47210437e-02, -1.00644678e-01, -4.11186293e-02,  1.01098336e-01,  7.78840808e-03,  2.21014265e-02, -5.82072735e-02,  3.18136364e-02,  7.28928251e-03},
 {-7.91189224e-02, -3.06473044e-03, -4.98487204e-02, -4.15960625e-02, -8.47608298e-02,  3.23456489e-02,  2.89239790e-02,  4.10510674e-02, -6.80039823e-02,  1.24373309e-01, -2.13935561e-02, -3.90807651e-02,  3.90687734e-02, -1.03514560e-01,  8.12927634e-02,  6.45279661e-02,  5.74988499e-02, -8.05812925e-02, -3.97911854e-02,  4.36408147e-02,  9.28661507e-03,  3.15801241e-02,  2.76370300e-03, -5.94088621e-02,  8.57248530e-02,  1.46032944e-02, -2.04013474e-02, -2.45396718e-02,  5.20239845e-02, -1.90673433e-02,  1.01862801e-02,  4.07772772e-02,  3.25771235e-03, -8.00995007e-02,  7.16240406e-02, -2.80016884e-02,  3.17023210e-02,  7.55587220e-02, -1.45131245e-03,  3.30733992e-02},
 { 2.11748313e-02,  2.50416837e-04, -2.84345597e-02, -7.45066851e-02, -6.49276823e-02,  5.14318459e-02, -3.20582315e-02, -2.48451391e-03,  4.83918004e-02,  7.75410905e-02, -5.83570488e-02,  9.09642354e-02, -1.68642495e-02,  4.89321817e-03,  6.78800568e-02,  6.01659603e-02,  6.78591207e-02, -9.24349204e-02,  6.71941116e-02,  8.54823738e-02,  7.97854438e-02, -6.34838194e-02, -5.13020344e-02, -1.49133941e-02,  6.49975315e-02, -2.33658738e-02, -5.72558120e-02,  1.19846771e-02,  4.19086292e-02,  4.25606146e-02, -1.15137370e-02,  4.23679650e-02,  8.60007107e-03, -3.19025889e-02,  7.09611028e-02, -7.11870268e-02, -4.99193706e-02,  4.00213338e-02, -1.84475277e-02,  3.18255313e-02},
 {-1.05253592e-01,  4.54402789e-02, -2.44820807e-02, -6.92666844e-02,  7.46071190e-02, -2.96662189e-02,  6.17127158e-02,  2.92351525e-02,  5.61583415e-02, -4.86347340e-02, -6.50369897e-02,  6.78468645e-02,  1.60265639e-02,  5.66633008e-02, -3.58269806e-03, -4.41110656e-02,  6.05508685e-02, -2.02882718e-02,  1.56552438e-02,  1.89937185e-02, -2.08021086e-02, -9.99720320e-02,  9.24749598e-02, -7.83646926e-02,  6.21772967e-02, -7.53864720e-02, -3.34195308e-02,  5.98947816e-02,  5.76552935e-02, -1.80900935e-02, -9.82320234e-02,  5.50447851e-02, -9.33045596e-02, -5.84600642e-02,  1.51386419e-02,  5.09340549e-04, -4.30208929e-02, -9.88798216e-03, -7.62128606e-02,  7.36957192e-02},
 {-1.75184086e-02,  1.21298023e-02, -1.83452982e-02,  4.76384349e-03,  4.46441397e-02,  9.59714279e-02,  6.59612641e-02, -1.82495620e-02, -4.76458929e-02,  7.39645734e-02, -8.25457945e-02,  2.70498823e-02,  9.86851007e-02,  3.14821638e-02,  6.23954572e-02, -2.57379767e-02, -7.12511316e-02,  1.41369021e-02, -1.89172085e-02, -4.20091003e-02, -3.64053622e-03,  1.10260723e-02, -2.16267686e-02,  4.62324247e-02,  6.52525425e-02,  5.79916202e-02,  4.15398404e-02, -2.75947656e-02,  5.99525198e-02, -5.30191883e-02, -1.79520585e-02,  9.76763219e-02, -6.44159466e-02,  6.48153275e-02, -7.02076256e-02, -7.72896260e-02,  3.62082687e-03, -6.48522517e-03, -2.21672021e-02,  1.67523436e-02},
 {-2.70707309e-02,  4.46349895e-03, -8.54713619e-02, -7.75861787e-03,  3.37760486e-02,  8.78209434e-03,  5.79084121e-02, -7.30843991e-02,  7.49491751e-02, -7.18505755e-02, -9.61384475e-02, -3.41743641e-02,  8.69917944e-02,  5.34048416e-02, -1.52352834e-02, -3.78849655e-02,  7.30618462e-02,  1.08142802e-02, -6.47678748e-02,  7.01795444e-02,  2.25089788e-02, -1.39816580e-02, -4.85530961e-03, -2.44063344e-02, -5.14178351e-02, -4.88546789e-02,  3.17418054e-02, -4.79772687e-03, -1.83502901e-02,  7.15544447e-02,  9.56915226e-03,  1.22647453e-02,  2.42337724e-03,  6.07800530e-03,  5.25756590e-02, -7.19721243e-02, -2.96197813e-02,  1.15170032e-02,  9.10974946e-03, -5.25568537e-02},
 {-6.93984330e-02,  2.87120137e-02, -6.25154525e-02, -4.77713309e-02,  2.53597591e-02,  1.72963203e-03,  9.37831849e-02, -9.75885540e-02,  7.39353970e-02, -6.84322193e-02, -1.59245767e-02, -5.06089218e-02,  3.21310647e-02, -6.34107739e-02, -2.27808347e-03,  5.51968217e-02,  1.98750533e-02,  1.40616568e-02, -7.26770936e-03, -7.47737661e-02, -5.84375262e-02, -2.41740327e-03, -6.92457855e-02,  2.50837207e-02, -1.16639892e-02, -8.04276541e-02,  3.69288190e-03,  4.05952819e-02, -4.79463786e-02, -2.67271828e-02, -7.19173178e-02,  7.55667221e-03,  5.48619069e-02,  1.61334500e-02, -1.30826831e-02, -4.36954759e-02, -4.02025767e-02,  5.97210228e-02,  2.09379848e-02,  2.90896613e-02},
 {-5.03005348e-02, -5.49693927e-02, -1.27859553e-02, -1.33431405e-02,  8.18213895e-02,  2.00019944e-02, -1.22342734e-02,  7.57246166e-02, -1.64398178e-03,  7.24237645e-03,  7.29307486e-03,  1.52884913e-03, -2.82565709e-02, -6.97926879e-02,  2.33732397e-03, -4.07106541e-02, -1.53030473e-04,  2.28548772e-03, -4.95818891e-02, -9.22803022e-03,  4.57541905e-02, -5.96641377e-02,  1.48968250e-02, -1.46111920e-02,  7.18252584e-02, -5.77669777e-02,  5.70555702e-02, -1.77692808e-02,  8.03624764e-02,  7.36500174e-02,  2.83497688e-03,  8.44064951e-02, -5.63357444e-03, -1.97374560e-02,  6.15487574e-03,  1.84145458e-02,  3.54235955e-02,  6.21309169e-02,  2.20238557e-03, -3.99817787e-02},
 {-3.61605138e-02, -4.23249416e-02, -6.10063188e-02,  6.26576245e-02,  2.71152314e-02,  5.53106740e-02, -3.38256098e-02,  4.07600589e-02,  4.94796522e-02, -5.17828837e-02,  5.26350401e-02, -7.17259943e-02,  3.15467343e-02, -1.06935315e-02, -5.51522858e-02,  1.24253081e-02,  7.00619966e-02, -2.20753495e-02, -7.30598494e-02,  2.22533885e-02, -3.71629372e-02, -5.76903708e-02,  1.91892162e-02, -2.26301774e-02,  6.66724220e-02, -2.19318699e-02, -5.00385389e-02,  6.47925809e-02, -6.60679042e-02, -7.96151236e-02,  2.28040647e-02,  3.74505483e-02,  7.72553310e-02,  3.77059542e-02,  7.82064907e-03,  6.61020130e-02, -5.78898825e-02,  2.19436362e-02,  5.42772710e-02, -1.47823356e-02},
 {-3.70523483e-02,  4.36192602e-02, -7.42895305e-02,  3.74777392e-02, -4.06717770e-02,  5.79763055e-02,  3.54410633e-02,  8.14404190e-02,  4.00164276e-02,  3.73311490e-02, -3.99639048e-02,  2.28711888e-02,  1.58942267e-02, -3.52811329e-02, -3.75209264e-02, -4.38059457e-02,  5.34460992e-02,  1.45914704e-02,  4.29046899e-02,  2.59351283e-02, -6.34134561e-02,  7.46119767e-02,  1.32926255e-02,  3.92460972e-02, -3.06977704e-02,  3.20195854e-02,  5.32052219e-02, -5.29732555e-03,  5.59177846e-02,  2.32845545e-02, -8.23054761e-02, -1.85688660e-02, -7.03120902e-02,  8.44153315e-02, -6.18976504e-02, -6.03211150e-02, -7.20112026e-02, -6.14878237e-02, -7.27190152e-02,  7.97715038e-03},
 {-3.58619355e-02, -5.21299765e-02,  3.57142165e-02,  2.95240432e-02,  3.77881527e-02, -2.72771679e-02,  2.58998722e-02, -7.00653493e-02,  3.66451442e-02, -3.68844829e-02, -7.55152553e-02,  2.50948220e-03,  1.73649490e-02,  4.04022932e-02, -1.44638866e-02, -1.82175934e-02, -5.57910353e-02,  1.67099088e-02,  3.00097093e-02, -8.03759992e-02, -1.72289014e-02,  5.88612556e-02, -1.57189965e-02, -2.78061740e-02, -6.71415627e-02,  4.39711064e-02,  6.07572496e-04,  3.45244259e-03,  7.28601664e-02, -4.25134040e-02, -4.61350344e-02,  5.04056811e-02, -3.53068113e-02,  6.85766786e-02,  2.32886001e-02,  7.79502392e-02, -2.17571110e-02,  3.89996469e-02,  1.54765248e-02, -1.59741566e-02},
 { 3.52159664e-02, -3.69792944e-03, -8.01237002e-02, -2.56873854e-02,  3.72081287e-02, -6.28765393e-03, -2.42706072e-02, -7.91293627e-04,  3.42819579e-02,  1.22214900e-02,  7.19028413e-02,  7.36575052e-02, -7.52283335e-02, -3.66340242e-02, -1.17730098e-02, -6.28926009e-02, -5.68678416e-02, -5.67928813e-02, -3.79484370e-02, -1.97303127e-02, -6.32642210e-02, -6.56166393e-03, -3.90285328e-02, -5.70166297e-02, -5.09800538e-02, -7.13374689e-02,  8.22198316e-02,  3.76436822e-02, -1.60883367e-03,  3.77133279e-03, -4.82674912e-02,  6.92620277e-02, -4.63816524e-03, -3.53096463e-02,  7.12819695e-02,  7.85850268e-03,  5.69074340e-02,  1.57723874e-02, -1.01545854e-02,  3.20085101e-02},
 { 4.76971641e-02, -5.00383005e-02,  6.57848194e-02,  2.92248800e-02,  3.64042260e-02,  2.88891774e-02,  2.67018098e-02, -2.54200641e-02, -8.12434256e-02,  6.05329163e-02, -4.27420847e-02, -6.57100007e-02,  2.04064753e-02, -3.44229192e-02,  5.82351945e-02,  5.82218617e-02,  3.55089232e-02,  3.52572128e-02,  2.50205491e-02, -3.93703356e-02, -1.64773446e-02,  5.15905721e-03,  3.71407531e-02,  3.21095027e-02, -4.92986552e-02,  8.53208378e-02, -4.09581587e-02, -2.15049293e-02,  4.50904220e-02,  5.64156473e-02,  4.76716235e-02, -2.77140345e-02,  6.75143376e-02,  4.43841405e-02,  1.59485806e-02, -5.31260334e-02, -5.07699661e-02, -2.15724017e-02, -9.20725521e-03, -2.83586755e-02},
 {-3.50867622e-02,  7.00649396e-02,  5.77110797e-03,  7.37501234e-02, -8.57221112e-02, -3.58502381e-02, -6.29233345e-02,  1.57209467e-02, -5.79232760e-02,  2.72139795e-02,  1.32038193e-02,  1.41785117e-02, -6.34474307e-02, -6.57131374e-02,  5.58443293e-02,  3.16089801e-02, -5.62991984e-02,  5.32132611e-02,  8.17729980e-02, -3.93815562e-02, -4.35645133e-03,  3.52669694e-02, -1.83276664e-02, -2.97019095e-03, -4.22713831e-02,  5.69211766e-02,  6.51717782e-02,  6.67319745e-02,  3.98007520e-02,  5.93643859e-02, -5.94485216e-02, -5.90126216e-02, -6.98041618e-02, -2.64168177e-02,  7.33790249e-02, -3.71788405e-02,  3.27775218e-02,  3.63489576e-02, -3.12136393e-02,  4.06262912e-02},
 {-4.76554669e-02,  4.68632840e-02,  5.05167879e-02, -4.55443896e-02,  5.37061803e-02,  1.34214005e-02,  6.70070294e-03,  5.04803881e-02, -5.74037395e-02, -2.39091180e-02, -1.24847665e-02,  3.16360071e-02, -5.12282830e-03,  5.32922000e-02,  8.47024173e-02,  1.87779851e-02, -4.81962319e-03,  9.30202454e-02,  1.27898172e-01, -2.50019180e-03,  1.73443370e-02, -8.07862058e-02,  3.98542732e-02,  1.60147753e-02,  4.11313318e-04, -4.92686294e-02, -3.02462466e-02, -4.67175096e-02, -7.38209188e-02,  8.98825228e-02, -7.83032402e-02,  4.02750820e-02, -1.85771063e-02,  2.38265265e-02, -2.07780467e-04, -4.74201292e-02,  6.88788518e-02,  1.39725646e-02,  3.41912955e-02, -7.88037330e-02},
 {-1.08363837e-01, -5.41073866e-02,  2.66436990e-02,  6.79362044e-02, -6.11741701e-03, -3.83602604e-02, -7.30723515e-02, -4.75347508e-03,  2.81909443e-02,  5.00058532e-02,  8.26054662e-02,  6.05091592e-03, -7.43661150e-02, -1.04854237e-02, -2.96918917e-02, -7.47357830e-02,  2.09743362e-02,  3.11931726e-02,  1.38942868e-01, -4.66045476e-02,  2.96095312e-02, -8.52283016e-02, -6.86480254e-02, -2.24704091e-02, -7.78433159e-02,  7.03227669e-02,  7.46122152e-02, -3.97039093e-02, -2.32416932e-02, -6.99930415e-02,  1.31305316e-02, -3.04411370e-02, -4.54997532e-02,  9.15677287e-03, -6.57242835e-02, -4.41429056e-02,  4.96253744e-02, -5.97383827e-02, -1.92972329e-02, -7.32962489e-02},
 {-6.27853945e-02,  4.52564359e-02,  8.10745209e-02, -4.07976322e-02, -2.25137789e-02,  2.58934908e-02, -4.04549725e-02,  4.96541858e-02, -6.62394315e-02,  4.42322604e-02, -1.64934918e-02,  3.73547673e-02,  6.38072416e-02, -6.36153668e-02,  9.11559463e-02, -4.74118255e-02,  4.73801978e-02, -6.97440561e-03,  6.88331202e-02,  5.97261498e-03, -4.36474383e-02,  4.42394428e-02,  1.83180086e-02, -6.78830296e-02, -8.49350076e-03,  9.30582918e-03,  3.39605138e-02,  8.83320421e-02, -1.38964485e-02, -5.96711226e-02, -4.62657362e-02, -8.83726478e-02,  4.57281061e-02, -6.29809126e-02, -4.07659449e-03,  7.88719673e-03,  4.61151898e-02,  4.94077578e-02,  7.33254328e-02,  8.79172087e-02},
 {-1.63989495e-02, -4.93489020e-02,  8.49166289e-02,  6.95590451e-02, -5.97724840e-02,  7.15194196e-02, -2.52315290e-02, -5.65155186e-02, -1.62136331e-02, -2.92906677e-03,  6.46453425e-02,  5.28724045e-02, -9.02910605e-02, -6.53517023e-02, -2.22930182e-02, -1.03334472e-01,  1.61741339e-02,  1.24980688e-01,  1.29720941e-01, -1.51125435e-02, -1.13125183e-01, -4.91513731e-03,  6.56017214e-02,  1.83346076e-03,  4.45574485e-02, -4.37307125e-03,  7.88112581e-02,  9.05868709e-02,  5.07626794e-02,  4.74101893e-04, -3.25352363e-02, -9.01222304e-02, -8.47439766e-02, -1.52012112e-03, -6.62041008e-02, -6.04731105e-02,  3.52454707e-02,  3.28272805e-02,  2.98539904e-04,  4.17997986e-02},
 { 8.86667799e-03, -4.70094942e-02,  3.04122572e-03, -1.91460811e-02,  4.65915464e-02,  4.01100256e-02, -4.54644673e-02,  1.49366856e-02,  7.57098794e-02, -2.98748817e-02,  5.41498102e-02, -1.13949023e-01,  5.75957820e-02, -9.26992332e-04,  1.41516719e-02, -3.88326533e-02,  1.10862598e-01,  7.02994093e-02,  7.56054521e-02, -4.11875173e-02,  1.69989411e-02, -3.04567302e-03, -6.88611940e-02, -4.96607497e-02,  8.22616275e-03,  3.96533385e-02, -6.70137629e-02,  6.82069268e-03, -6.32809252e-02,  8.89999866e-02, -1.14715667e-02,  5.20563312e-02, -1.07028775e-01,  8.22814852e-02, -7.15496168e-02,  1.54906260e-02, -5.75887412e-02, -5.32655455e-02,  3.23911570e-02,  2.47695260e-02},
 { 7.19312727e-02, -1.81326121e-02, -3.07696164e-02, -3.49054225e-02,  5.07466532e-02,  5.57303354e-02, -6.82533011e-02,  2.29735090e-03, -6.91488246e-03,  4.53942716e-02,  6.28847703e-02, -7.02365413e-02, -4.07585278e-02,  7.81858489e-02,  3.27945016e-02, -4.20828648e-02,  1.16862975e-01, -3.74041535e-02, -2.68496927e-02, -6.18059635e-02, -9.80144888e-02, -2.86010876e-02,  5.52770346e-02,  7.87378028e-02, -7.39024952e-02,  1.21866256e-01, -5.85201383e-02,  3.96580994e-02,  8.20621774e-02,  5.39517999e-02, -6.18553534e-03, -2.12181322e-02, -5.64304516e-02, -6.03545010e-02,  6.95302933e-02, -1.11123532e-01,  3.48761007e-02, -2.77686901e-02,  1.07983656e-01, -3.74814086e-02},
 { 1.01277985e-01,  5.93232214e-02,  1.95757449e-02,  1.03722597e-02,  9.36221480e-02,  5.66108674e-02, -1.00318179e-01, -1.02393143e-02,  4.30350751e-02,  4.43875119e-02, -6.13388047e-03, -1.14555560e-01,  1.46925710e-02,  9.70098227e-02,  3.50996130e-03,  4.41283770e-02, -5.51959360e-03, -9.94712318e-05, -3.24269980e-02, -1.94520573e-03,  1.30380196e-02, -4.49633412e-02, -4.69945866e-04,  2.68285293e-02,  1.93620287e-02,  1.02289326e-01,  5.94538040e-02, -4.96885814e-02,  7.63822719e-02,  4.97364961e-02,  2.78472062e-02, -8.17944854e-02, -4.54886258e-02,  1.11150257e-02,  2.83020809e-02, -3.33521478e-02,  7.77578205e-02, -6.13586083e-02, -2.69469060e-02,  6.07008561e-02},
 { 1.10767476e-01, -1.35113755e-02,  5.62985539e-02,  1.82825401e-02,  1.47842728e-02,  2.23130602e-02,  7.46739889e-03, -3.20605151e-02, -8.00183564e-02, -7.61573091e-02, -5.48842028e-02, -2.80868486e-02, -6.42793998e-02, -1.57768875e-02,  5.81114274e-03, -9.84804779e-02,  7.87214190e-02,  3.21398564e-02,  5.76862544e-02,  1.55371800e-02,  4.24908986e-03, -6.03890941e-02,  2.91083734e-02,  5.79610616e-02, -4.12478857e-02,  2.81159393e-02,  6.64975941e-02, -1.18018938e-02,  8.68842900e-02, -3.59390937e-02,  1.31778512e-02, -8.24464485e-02, -9.21707377e-02, -1.34743343e-03, -4.89575900e-02,  1.55961262e-02, -1.25215948e-03, -5.67971207e-02, -3.12018441e-03, -3.18845771e-02},
 {-4.60558338e-03, -1.99305248e-02,  6.98079169e-03,  4.67314832e-02, -6.08480023e-03, -3.76028456e-02, -5.10742702e-02,  5.15711233e-02, -3.98011357e-02,  6.90925270e-02, -3.09954491e-03, -1.02131888e-01, -2.73213768e-03, -7.65002444e-02,  1.00684784e-01, -8.02279636e-02,  6.75237402e-02,  8.03918540e-02, -3.06533892e-02,  9.79619175e-02,  2.89644226e-02, -4.57842760e-02,  9.70889255e-02,  8.39044079e-02,  4.63999249e-02,  1.48326177e-02,  6.18947633e-02,  2.47494858e-02,  7.61118308e-02,  1.03833079e-02,  5.18072732e-02, -1.16104774e-01, -5.80006167e-02, -4.40978967e-02, -1.38788046e-02,  4.41718139e-02,  8.28365460e-02,  2.75161192e-02,  1.02960669e-01,  6.25449270e-02},
 { 3.52800637e-02,  4.70911972e-02, -4.82575633e-02, -7.72606283e-02, -1.57472953e-01, -4.54205833e-02, -1.57911070e-02,  9.96190906e-02, -3.89969163e-02, -6.49755597e-02,  5.09791411e-02,  7.24992901e-03,  8.36905539e-02, -8.10181126e-02,  2.26163082e-02, -1.10079022e-02, -2.93142051e-02,  2.29208432e-02, -9.90231410e-02,  2.18777340e-02,  6.02831095e-02, -1.60342511e-02, -1.05109541e-02,  5.15758321e-02, -2.10721344e-02,  5.53733036e-02,  8.26031566e-02, -7.82890543e-02, -4.62731756e-02, -6.90962225e-02,  6.83401749e-02, -8.40665996e-02, -4.05631587e-03, -4.42580953e-02, -1.50123602e-02, -7.53859282e-02,  1.15832888e-01,  1.03172563e-01,  1.00458466e-01,  5.02812676e-02},
 { 2.49336809e-02,  1.23512730e-01,  5.81630841e-02,  5.79139367e-02, -1.36836663e-01, -9.49847847e-02,  3.17861065e-02,  1.79108027e-02,  3.82396840e-02, -3.68765704e-02,  5.13557903e-02,  5.06215096e-02, -6.92643970e-02, -9.14930031e-02, -1.92469377e-02, -3.57410237e-02,  2.45750826e-02,  3.43169346e-02,  3.25055644e-02, -6.68356894e-03,  4.15369906e-02,  3.70625630e-02,  8.70335698e-02, -6.36662245e-02, -3.46848089e-03, -4.57421429e-02, -6.66381931e-03,  3.65087390e-02, -8.54508504e-02, -1.22772972e-03, -7.96150416e-02, -1.32460281e-01, -1.70546547e-02, -7.82308578e-02,  1.06881700e-01, -6.47522882e-02, -3.71636816e-05,  7.79436007e-02,  8.22310522e-02, -1.90902688e-02},
 { 1.05915777e-01, -3.10484390e-03,  2.02833023e-03,  8.29112716e-03, -8.86170715e-02, -4.16122079e-02, -7.16776922e-02,  1.04778996e-02, -5.78996539e-03,  2.56957865e-04,  6.59328774e-02, -6.28089830e-02, -2.57799812e-02, -9.71482098e-02, -2.23856792e-02, -3.93269248e-02,  5.77034371e-04,  3.98957450e-03, -3.01254503e-02,  2.03105900e-02,  2.37723701e-02, -5.15784770e-02,  3.49057280e-02, -3.96749154e-02,  4.67762128e-02,  6.43323315e-03,  7.28092343e-02,  4.58023027e-02, -4.59231958e-02,  3.14235524e-03,  2.84191296e-02,  2.56852470e-02,  4.69571538e-02,  8.06954317e-03, -4.59828489e-02,  2.61137970e-02,  1.27862226e-02,  2.04311945e-02,  2.94265039e-02,  9.99196991e-02},
 { 1.19794920e-01,  2.83578113e-02,  3.83914784e-02, -6.87145889e-02, -5.58222644e-02,  4.32206951e-02, -8.36613476e-02,  8.37950408e-02, -8.61497223e-02, -2.53690109e-02, -4.28701714e-02, -3.05985641e-02, -4.23854729e-03,  2.87751053e-02, -4.45339642e-03, -6.00413345e-02,  1.41792139e-02, -4.72495928e-02, -6.94128722e-02,  9.59397852e-02,  2.26671919e-02,  3.08850221e-02,  6.89321086e-02, -3.60907912e-02, -1.96786933e-02, -4.85160276e-02, -3.70284654e-02, -5.71286455e-02, -9.86881088e-03,  5.54191619e-02,  2.14050571e-03, -7.84910172e-02, -5.79690598e-02,  4.92521077e-02,  9.77000818e-02, -3.32498364e-02,  2.87501048e-02, -5.35066612e-03, -3.80424224e-02,  2.28012708e-04},
 { 2.13514343e-02, -6.00326061e-02, -4.39871587e-02, -2.54449565e-02, -8.59331563e-02, -1.00897245e-01, -8.13007131e-02, -7.25527182e-02, -4.64118682e-02,  9.12261829e-02, -7.83737376e-02, -4.62808907e-02, -1.98711809e-02, -2.44778618e-02, -1.01318307e-01,  4.35054712e-02, -4.01031934e-02,  7.87711293e-02, -6.66072443e-02, -2.03252733e-02, -1.05657414e-01, -4.61423881e-02, -3.09115276e-02, -2.80094091e-02,  7.52122849e-02,  6.19226322e-02, -2.36964016e-03, -6.01835400e-02,  4.23023291e-02, -3.31720300e-02,  2.01720167e-02,  2.11703647e-02,  5.95884025e-02, -3.63241769e-02, -6.46017259e-03, -4.93610129e-02,  3.84601951e-02, -1.60746032e-03,  7.70506486e-02, -6.26161695e-02},
 { 2.82256100e-02, -1.69838108e-02,  4.37341630e-02, -4.66864137e-03, -7.96351861e-03,  1.28617818e-02, -4.24863864e-03, -8.70523378e-02, -3.11965644e-02,  7.86377415e-02, -8.66472069e-03,  3.41460258e-02, -7.20968619e-02,  4.84613627e-02, -2.94431970e-02,  7.06582703e-03,  7.28903562e-02,  9.80319381e-02, -5.02127130e-03, -2.29124259e-02,  2.88868695e-02, -1.20218024e-02,  2.58894488e-02, -1.09801412e-01,  4.50303629e-02,  2.80781705e-02, -4.55017686e-02,  1.71578377e-02, -3.57274711e-02,  3.59842293e-02,  6.27480894e-02,  5.65577811e-03,  1.32983495e-02,  6.44436255e-02, -3.45992036e-02,  4.97662947e-02, -2.28421222e-02,  5.74225448e-02, -3.30223516e-02, -2.54644286e-02},
 { 2.45335009e-02,  1.53857199e-02, -6.55189827e-02, -1.88775584e-02,  5.94268851e-02, -1.08554738e-03, -7.58470818e-02, -7.25546628e-02, -5.95807135e-02,  9.49965790e-02, -2.79079657e-02,  7.43426830e-02, -9.50018002e-04, -2.74611395e-02, -8.06183591e-02, -5.85556291e-02, -2.90981140e-02,  7.26066008e-02,  2.63728760e-02,  3.95479910e-02, -6.20527864e-02, -5.50469793e-02, -1.86015330e-02, -1.03431404e-01, -2.21184473e-02,  1.73494201e-02,  5.56905121e-02,  1.38594527e-02,  6.21170662e-02, -6.28878921e-02, -9.01835039e-02,  3.58435847e-02, -8.37024953e-03, -3.82156000e-02,  9.88406092e-02,  7.40501855e-04, -1.64953899e-02,  7.44022429e-02, -1.81427523e-02, -2.46441998e-02},
 {-1.84455309e-02, -7.61888251e-02,  5.69363758e-02,  4.63207886e-02,  2.56004445e-02,  3.58182825e-02, -2.02488024e-02,  4.31117155e-02, -1.67545415e-02, -2.97057964e-02, -5.07955626e-02, -7.67163485e-02,  6.31048009e-02,  5.29105142e-02, -1.23046478e-03, -8.77323896e-02,  7.76658729e-02, -5.15431501e-02,  8.44005346e-02,  6.72891794e-04,  2.74381284e-02,  6.84184358e-02,  3.18616666e-02,  3.05163469e-02, -1.01252086e-01, -1.03892321e-02, -5.97455762e-02, -7.73146097e-03,  3.56389247e-02, -4.00491692e-02,  2.46165674e-02, -5.88990226e-02,  3.69995758e-02,  1.26184970e-02, -2.31766262e-05, -8.06531683e-02, -6.84515908e-02,  2.33794786e-02,  1.52074909e-02,  1.66271124e-02},
 {-9.40980837e-02,  6.38999864e-02, -3.37191671e-02, -5.91194592e-02,  6.98591322e-02,  1.68673396e-02,  6.68096095e-02, -1.67306550e-02, -2.98676491e-02, -1.17081488e-02,  2.87549719e-02,  9.57293808e-03, -5.63378334e-02, -3.47082387e-03,  5.16486466e-02,  6.83563668e-03, -5.08345151e-03,  1.89351721e-03,  3.34834792e-02,  3.58274542e-02, -4.48792316e-02, -3.24621089e-02,  1.27178142e-02, -4.28547570e-03, -6.43248111e-02,  3.77267450e-02, -5.43207601e-02, -3.71677685e-03, -9.82155725e-02, -4.37043142e-03, -4.57627513e-02,  3.17447782e-02, -1.62602551e-02,  2.10209675e-02, -3.07271145e-02, -6.51678368e-02,  8.88511315e-02,  5.74117191e-02, -8.75424966e-02,  1.35547156e-02},
 { 3.12931314e-02, -6.22610329e-03, -5.56600951e-02,  6.74964488e-02, -8.49600658e-02, -6.46998407e-03, -2.94086221e-03,  1.10138236e-02,  2.14856081e-02, -6.36370704e-02,  2.69134175e-02,  5.24719059e-02,  4.27931957e-02,  8.00968632e-02,  7.99965933e-02,  7.14450106e-02, -2.93031279e-02,  4.86868881e-02,  7.33795166e-02, -1.60971973e-02,  5.99940233e-02,  3.51742310e-05,  2.80858278e-02, -1.11117782e-02, -1.54461348e-02, -6.46597892e-02,  7.62734339e-02,  8.25662445e-03, -7.24782869e-02, -2.64917891e-02,  1.81628261e-02,  3.51321660e-02, -3.88309099e-02,  1.19131356e-02, -2.73133758e-02, -2.28588190e-02, -1.62275285e-02,  6.54713064e-02,  3.58945765e-02, -6.14490099e-02},
 {-4.54056635e-03, -3.08767129e-02, -5.48297241e-02,  2.11901814e-02,  1.92759987e-02, -1.16326958e-02,  5.66205531e-02, -1.43686412e-02,  6.99668517e-03, -4.13312130e-02, -5.94447851e-02, -6.41086325e-02, -2.92994268e-02,  5.19267134e-02,  3.55987586e-02, -5.77352569e-02,  5.98295033e-02, -8.07277337e-02,  7.45066032e-02,  2.22743135e-02,  2.48020925e-02, -6.21860512e-02,  7.99542572e-03, -1.41382441e-02,  2.16592401e-02, -3.36706154e-02,  6.57647476e-02, -3.00168376e-02,  2.67535076e-03,  8.93836766e-02, -6.42769411e-02,  5.02146855e-02, -3.89261730e-02, -6.16622157e-02, -2.24641748e-02,  2.73416936e-02, -2.87388153e-02, -3.48446071e-02,  4.11502793e-02,  1.58222802e-02},
 {-1.10199368e-02, -4.60176654e-02, -1.65683385e-02,  6.13590963e-02, -7.57406577e-02,  3.00507359e-02,  9.17544682e-03, -8.85165706e-02, -6.90903068e-02, -1.04633914e-02, -3.41404900e-02,  3.64067107e-02,  9.35427174e-02, -7.48908073e-02,  2.99175121e-02, -5.20814210e-02, -2.38599665e-02, -3.02227661e-02, -1.93163250e-02, -3.85873802e-02,  5.98084107e-02,  3.66399251e-02,  5.56524694e-02, -1.52208945e-02,  7.17332866e-03, -5.97279593e-02,  1.60857793e-02,  1.77071560e-02, -1.64553523e-02,  1.65771111e-04, -7.33606517e-02,  7.80640244e-02, -7.33962432e-02,  8.61527398e-02, -7.39928558e-02,  6.45383969e-02, -2.42621172e-02,  1.19422087e-02,  1.82159140e-03,  4.94363755e-02},
 {-1.62292924e-02, -1.14579657e-02,  7.08111897e-02,  2.52798200e-02,  6.86713234e-02, -7.09200650e-02,  3.01188864e-02,  4.98639457e-02,  8.05549398e-02,  2.74554472e-02, -5.21039553e-02,  3.11862901e-02, -4.36197668e-02,  1.75695494e-02,  1.72716174e-02, -6.29467443e-02,  2.24983990e-02, -2.53022350e-02,  6.47973502e-03, -7.89068341e-02,  2.12621633e-02, -3.01027726e-02, -5.00431433e-02,  2.55857389e-02,  4.60291430e-02, -9.15063918e-03, -3.46952304e-02, -4.14022394e-02, -6.58047870e-02,  2.15000845e-02,  4.50503975e-02,  5.50304018e-02,  5.55183291e-02,  5.54357357e-02, -2.31584460e-02,  4.41411175e-02, -2.01089960e-02, -1.97276231e-02,  3.19802761e-02,  1.09480480e-02},
 {-3.20902765e-02,  5.49649037e-02, -7.61441281e-03,  7.52320811e-02,  1.05504207e-02, -2.79441662e-02, -7.35445023e-02,  1.70304552e-02,  5.85087426e-02, -7.89008662e-02, -2.03717314e-02, -1.48325795e-02,  5.76731488e-02,  6.11005388e-02,  7.87739381e-02, -8.22933614e-02,  1.36843584e-02,  1.99105069e-02,  6.08181767e-02, -1.14542050e-02,  5.82260340e-02, -5.33095263e-02, -7.01083690e-02,  5.47969155e-02, -8.21252540e-02, -2.54998021e-02,  7.36271515e-02,  5.06247357e-02, -2.81353277e-05, -1.32855624e-02, -5.90606639e-03,  3.82442772e-02,  6.64086193e-02,  1.63017455e-02,  5.31006325e-03,  5.62826507e-02,  2.16044225e-02, -2.13718577e-03, -9.58091114e-03,  6.27570823e-02},
 { 7.23788887e-02,  3.73442322e-02,  6.84930682e-02,  6.80811405e-02,  1.84100345e-02,  7.86992162e-02, -4.33038808e-02,  1.38914883e-02,  4.87134457e-02,  2.60379463e-02,  7.95536935e-02,  3.44967470e-02, -4.42844965e-02, -8.46365392e-02, -6.05935305e-02,  2.78506428e-02,  1.16308853e-02,  6.65950179e-02,  7.24833161e-02, -2.22521797e-02,  6.21301681e-03,  3.10377106e-02, -2.81033479e-02,  1.51396990e-02,  6.44562095e-02, -4.53902334e-02, -3.21822241e-02, -6.30015582e-02, -7.58998990e-02, -1.20290890e-02, -3.22388634e-02, -3.10093090e-02, -2.00856104e-02,  3.33302394e-02,  4.93520051e-02,  5.42640239e-02,  4.64586169e-03,  3.67301702e-02, -6.44200072e-02,  4.57341671e-02},
 { 1.44747384e-02,  3.57029657e-03,  5.24299219e-02,  3.01355291e-02, -1.05053587e-02, -1.18933497e-02,  6.93805236e-03, -4.06746306e-02,  3.66862603e-02,  2.20435113e-02,  6.77787885e-02, -3.40688229e-02,  5.50525263e-02, -7.63734877e-02, -3.70904058e-02,  7.46134818e-02,  8.21371600e-02,  7.00666010e-02, -5.96762635e-02, -3.07723992e-02, -4.39792722e-02, -3.50274853e-02, -5.76456040e-02,  3.49283181e-02, -4.25800383e-02, -1.44396015e-02, -5.86266778e-02,  9.96853784e-03,  3.76418494e-02,  2.33915877e-02,  6.49238601e-02, -1.35858906e-02,  5.60137406e-02,  9.12844110e-03,  3.75194475e-02, -8.14690143e-02, -8.29739943e-02, -1.58149600e-02, -7.05889314e-02,  6.15076534e-02},
 { 6.04770631e-02, -6.70884624e-02, -1.26538919e-02, -4.22630906e-02,  7.14975446e-02, -5.63157611e-02,  9.28807713e-04,  1.95363932e-03,  4.84371968e-02,  5.53150177e-02, -3.29064578e-02, -3.69861461e-02,  6.31926814e-03,  7.41064548e-02,  8.17178935e-02,  4.99325767e-02, -6.12472221e-02, -8.07124674e-02, -4.70180400e-02, -6.68445379e-02, -2.53627673e-02, -3.97319831e-02, -9.16214008e-03, -7.18505830e-02, -1.16238091e-02, -2.91383546e-02, -5.36168404e-02, -5.88379651e-02, -2.44415607e-02, -6.36690632e-02, -3.07451468e-02, -4.14881706e-02, -7.96250030e-02,  6.54472560e-02,  8.48538727e-02, -7.35615119e-02,  8.04004818e-02,  9.57221346e-05,  6.50679991e-02,  6.53605461e-02},
 { 3.34399529e-02, -5.18394299e-02,  5.75875789e-02,  2.06232946e-02, -5.35808653e-02, -6.30147234e-02,  3.65312099e-02,  5.22152446e-02,  7.57551119e-02, -6.13976978e-02,  3.99877615e-02,  3.12139299e-02, -2.21637897e-02, -1.65621489e-02,  5.07651642e-03, -3.24989110e-02,  6.08211420e-02, -3.77827091e-03, -1.46977827e-02,  6.74454868e-02,  5.02287671e-02,  7.29770213e-02,  9.30003449e-03,  4.21372242e-02,  1.77104361e-02,  8.89151692e-02,  4.36012782e-02, -8.05636123e-02, -5.30585311e-02,  5.32273110e-03, -5.17408270e-03,  2.22479105e-02, -7.87851289e-02, -5.74390814e-02, -5.64994924e-02, -2.08334792e-02, -4.72564548e-02, -6.84587583e-02, -6.51168004e-02,  3.09025683e-02},
 {-4.25315835e-02,  1.25626866e-02,  7.98204541e-02, -3.31291445e-02,  3.06956246e-02, -8.12494662e-03,  6.34941757e-02, -5.88965379e-02, -1.79688050e-03,  2.81474069e-02,  9.01028216e-02,  6.82923719e-02, -8.03376213e-02, -8.10747966e-02, -7.73566961e-03, -8.78832042e-02, -4.26339917e-02,  1.35465469e-02,  6.11919649e-02, -3.07745440e-03,  5.15921041e-02, -3.08496766e-02,  1.87953208e-02,  5.39660603e-02, -3.68804075e-02,  9.60597768e-03, -4.09078635e-02,  6.73692599e-02,  7.63348863e-02,  5.71323410e-02,  2.99740769e-02, -7.17174541e-03,  6.12710454e-02,  4.98529598e-02,  3.86693291e-02,  1.59190956e-03, -5.12317270e-02, -5.81502318e-02, -3.50881889e-02, -1.98812764e-02},
 { 5.52563407e-02,  1.61470808e-02, -1.69130359e-02,  1.97044015e-02, -3.43484543e-02,  5.69581091e-02, -7.85640329e-02, -4.28438447e-02, -4.31586653e-02, -6.67469278e-02, -3.80326174e-02, -2.16570813e-02,  3.34899314e-02,  2.60334034e-02, -5.29203266e-02, -2.82053910e-02,  1.21822663e-01,  1.56313870e-02, -1.68144535e-02,  1.69330798e-02, -2.12227199e-02, -1.07643202e-01,  3.14110192e-03,  4.48528901e-02,  1.77183421e-03, -1.77282300e-02, -4.74291407e-02,  2.30466109e-02,  4.92473468e-02, -4.79451269e-02,  5.87756261e-02,  5.51753007e-02, -7.02141300e-02,  3.54835913e-02, -7.02008829e-02, -6.77147657e-02, -6.47649094e-02,  2.82262196e-03,  8.34810957e-02,  9.40036178e-02},
 {-1.31759839e-02,  5.52668683e-02, -6.83291778e-02, -4.67544235e-03,  4.17514071e-02,  4.89878692e-02, -3.09493905e-03, -4.34427802e-03,  2.08439305e-02, -6.10216856e-02,  4.14385088e-02, -8.50467235e-02, -8.08573514e-02, -2.18314747e-03,  3.43139134e-02, -1.19722995e-03, -1.18269753e-02,  2.59067398e-02,  5.04923798e-02, -8.32449794e-02,  1.32407667e-02, -1.12485848e-01, -1.15156919e-02, -1.12251401e-01, -6.63566440e-02, -3.34436372e-02, -1.61274523e-02,  8.22976977e-03,  6.90376535e-02,  5.96738905e-02, -4.46128286e-02,  4.23951745e-02, -3.59793007e-02,  1.61137972e-02,  4.14040983e-02,  1.31699126e-02,  2.44357362e-02,  3.80004011e-02,  2.16658600e-02,  1.52715091e-02},
 {-7.74135441e-02,  3.58386673e-02,  1.43100629e-02, -1.30878128e-02, -2.75024418e-02,  1.16137370e-01, -5.98467828e-04, -9.14261714e-02,  7.42363408e-02, -3.92973125e-02,  8.83995220e-02, -7.45223165e-02,  2.09715124e-02, -2.52039060e-02, -1.73722971e-02,  4.31732498e-02,  1.16132230e-01,  1.11949451e-01,  2.75707003e-02,  2.43233182e-02,  3.96763124e-02, -3.25262398e-02,  3.84307913e-02, -6.79222569e-02, -6.81615919e-02,  2.47062556e-02,  6.23669624e-02,  8.86054337e-02,  2.56114546e-02, -3.24296653e-02, -1.18897567e-02,  3.69213745e-02,  4.91228811e-02, -1.17260013e-02,  7.65243247e-02,  9.72731784e-03, -6.90722615e-02, -1.65022984e-02,  6.46441206e-02, -1.38009647e-02},
 { 1.58749726e-02,  7.41967559e-02, -6.79131746e-02, -1.13166813e-02, -3.80460476e-03, -3.63841169e-02, -9.54204872e-02,  7.44883996e-03,  2.64357328e-02,  5.26164658e-02, -2.40186919e-02, -8.40890557e-02, -4.75724119e-05, -7.87719432e-03, -5.43601140e-02,  4.49714363e-02,  1.05535045e-01,  9.19310600e-02,  7.01551139e-02, -3.67729738e-02, -7.74606224e-03, -4.05925214e-02,  2.90093943e-02, -4.42078710e-02, -5.87580055e-02,  1.14004344e-01, -6.87166164e-03, -3.51280272e-02,  5.85073680e-02,  5.95176183e-02, -8.70254170e-03, -7.27856681e-02,  7.12835491e-02, -4.46163900e-02, -7.41950125e-02, -1.18191410e-02, -3.75732891e-02, -5.41978590e-02,  6.25814917e-03,  1.77865364e-02},
 { 6.67609423e-02, -2.31138468e-02, -5.88018745e-02, -5.82555123e-02, -7.51519483e-03, -2.36908123e-02,  5.22369854e-02, -1.19465537e-01,  4.47435342e-02,  2.00608652e-02,  8.34962800e-02,  1.11970585e-02,  4.72216457e-02, -4.49031666e-02,  4.01416235e-02,  3.71695273e-02,  7.65064657e-02,  4.03014123e-02,  1.26177385e-01,  1.04100946e-02, -8.25164691e-02, -3.36574279e-02,  5.62326275e-02, -8.95016193e-02, -2.65242551e-02, -3.18362527e-02,  4.70011272e-02, -2.84926258e-02,  2.19039451e-02, -7.20104261e-04, -3.95045243e-02,  3.92302498e-02,  4.29312438e-02, -4.27840799e-02,  2.33037733e-02, -9.42096785e-02, -1.38494913e-02,  3.94406617e-02,  2.86607863e-03, -6.06761128e-02},
 {-1.21225119e-02, -2.39713024e-02,  3.89437117e-02,  9.27322824e-03, -3.21918093e-02,  1.71239413e-02, -8.77424479e-02,  2.91308314e-02, -4.92898338e-02,  2.16904227e-02,  1.32077923e-02, -1.03309117e-01, -2.76965480e-02,  9.44558606e-02,  8.45704973e-02, -4.63398285e-02,  9.88750905e-02, -7.42309913e-02,  3.02419160e-02, -3.19656618e-02, -1.69098377e-02, -2.92970128e-02,  2.18890291e-02, -5.55703975e-02,  2.91951261e-02,  1.01355538e-01,  1.68144479e-02,  3.73786949e-02,  5.61108887e-02, -7.20838085e-02, -3.02383471e-02,  7.14539140e-02, -7.23932907e-02,  1.91170461e-02, -6.36801729e-03,  3.56203914e-02, -5.53924516e-02,  5.24351262e-02,  4.09360193e-02,  2.54790168e-02},
 { 2.81247459e-02,  8.30552652e-02,  1.65346395e-02,  1.98581442e-03,  2.86735129e-02,  2.31378786e-02, -2.88599096e-02, -5.54605667e-03, -7.22178593e-02, -2.27753408e-02,  1.94157561e-04, -5.59411384e-02,  2.03191186e-03, -3.07749715e-02, -5.61695285e-02, -8.41069221e-03, -3.82342972e-02,  5.33264354e-02, -4.44911607e-02,  1.47770084e-02, -3.70860584e-02,  5.88777177e-02, -1.06570460e-02, -4.55115885e-02, -4.81490605e-03,  6.58324584e-02,  6.95252642e-02, -3.08362953e-02, -2.58788653e-02,  3.22049223e-02, -4.37072366e-02, -6.90949932e-02, -9.47772432e-03,  7.10616708e-02,  6.29036734e-03,  4.05264534e-02, -1.49522731e-02, -7.18952790e-02,  6.29398897e-02, -9.22432095e-02},
 { 2.85330880e-02,  4.52162363e-02, -4.72331420e-02,  8.05440769e-02,  4.63992953e-02, -7.73136318e-02,  9.52328835e-03,  2.66534127e-02,  4.97753918e-02, -6.75857738e-02,  1.08983107e-02,  5.34453467e-02,  8.21677446e-02, -6.37359917e-02, -1.46923587e-02, -6.61271662e-02,  1.12528382e-02,  2.15820633e-02, -8.10491219e-02, -1.28964819e-02, -5.69881639e-03,  4.37760912e-02,  2.54949182e-02,  1.01727456e-01,  3.07519156e-02,  4.32412773e-02, -2.17839535e-02, -1.00375749e-01, -4.83898586e-03,  6.52597025e-02,  7.92704448e-02, -7.22937435e-02,  3.56991924e-02, -9.92324576e-02, -2.97904592e-02, -2.89257802e-02,  5.00532091e-02, -2.85541415e-02,  3.42709273e-02,  3.28612737e-02},
 { 1.29419222e-01, -2.85765063e-02, -4.33119982e-02,  5.37919486e-03, -6.73624426e-02, -5.59777170e-02,  5.25856297e-03,  4.72269692e-02, -7.67198205e-02,  6.47726506e-02, -5.19639626e-02, -3.34384292e-02,  4.71735001e-02,  3.79869193e-02,  2.20369436e-02,  5.66185042e-02,  3.07974145e-02,  6.17982447e-02, -3.72479670e-02,  4.71710451e-02,  2.24415176e-02, -4.34191823e-02, -3.29851881e-02, -1.37870247e-02,  6.89076334e-02,  8.06185156e-02, -6.37396649e-02, -9.90757570e-02, -1.05265388e-02, -7.55952969e-02,  3.40025127e-03, -2.14575175e-02, -3.99307385e-02,  3.44430543e-02, -4.61515458e-03,  1.29564749e-02,  1.16731822e-01,  1.73889764e-03,  4.66765650e-02, -5.42449020e-02},
 {-1.05531402e-02, -2.72489805e-03, -5.60183451e-02, -7.21398965e-02, -3.89981009e-02, -3.41733545e-02, -9.73031595e-02,  3.33039537e-02, -3.79102156e-02, -8.88082907e-02,  4.51055355e-02, -7.64578348e-03,  7.26483017e-03, -4.25589904e-02,  1.59691349e-02, -6.99571222e-02,  4.73460555e-02,  5.05493321e-02,  1.45341177e-02,  1.11794788e-02,  7.10486397e-02,  3.04385889e-02,  8.10532831e-03, -6.50938526e-02,  3.80307473e-02,  6.82278201e-02,  3.80623639e-02,  5.11367619e-02,  4.61087339e-02,  1.64489727e-02, -2.68349964e-02, -8.75601843e-02,  4.67355326e-02, -7.35883787e-02,  3.35220508e-02, -1.77622642e-02,  3.82199772e-02, -5.93607873e-03,  5.33303246e-02,  9.58508328e-02},
 { 1.41282035e-02,  1.54877631e-02, -1.46701569e-02, -1.49755292e-02, -3.29780169e-02, -2.80241463e-02,  6.32896423e-02, -1.62435286e-02, -3.71106379e-02,  3.05658448e-02, -8.68982524e-02,  6.37572780e-02,  1.51925078e-02, -5.70655540e-02,  3.66044082e-02, -4.13918272e-02,  4.47501875e-02,  7.35515431e-02, -8.62821564e-02,  1.90061126e-02, -6.44562244e-02, -1.72492135e-02,  6.63224012e-02, -3.86543535e-02, -4.19335030e-02, -6.16392270e-02,  2.08280012e-02,  5.25501892e-02,  2.76238043e-02,  4.59575281e-02, -8.54976103e-02, -6.34160489e-02, -2.51078885e-02, -1.69406887e-02,  2.73399032e-03, -1.72065180e-02,  3.77236381e-02,  5.42900302e-02,  1.07857123e-01,  7.87032843e-02},
 { 9.12312716e-02,  5.82393371e-02,  5.58681600e-02, -1.92930531e-02, -6.69241324e-02, -5.78251071e-02, -6.62998408e-02, -1.91851594e-02, -6.12054802e-02,  1.43227736e-02,  5.86192384e-02,  4.07321751e-02, -1.36071891e-02, -7.15727210e-02,  3.65740880e-02, -5.56415841e-02, -6.53542355e-02, -2.83701532e-02, -3.35883647e-02, -3.78991030e-02,  4.40191403e-02, -2.86745443e-03, -4.71761487e-02, -5.69783002e-02,  1.27840135e-03,  3.85216847e-02,  1.92698389e-02,  1.85660720e-02, -2.38682609e-02, -7.96724632e-02, -2.75832321e-02, -4.39955518e-02, -3.30889449e-02, -6.16678484e-02,  1.02386191e-01, -3.43002938e-02,  5.99567369e-02,  3.50136906e-02, -1.79718323e-02,  7.83121120e-03},
 { 1.82502659e-03, -6.74594119e-02,  8.01952835e-03, -3.33697088e-02, -6.79803416e-02, -9.84337926e-03, -8.96650646e-03, -9.48272739e-03,  1.99273210e-02, -4.41052811e-03,  7.34147057e-02, -6.26581833e-02, -1.03526987e-01,  6.83237985e-02,  4.18495350e-02, -4.05901950e-03,  6.81371689e-02, -4.30564443e-03, -1.18874228e-02,  4.49168645e-02, -7.31084272e-02,  9.64654833e-02, -1.04734832e-02,  1.51915103e-02,  5.48781380e-02, -4.06181328e-02, -2.79693678e-02, -3.50200050e-02,  3.02184019e-02,  4.10213806e-02,  5.86643480e-02, -3.02578025e-02,  1.12659587e-02,  3.24452557e-02,  6.63704649e-02,  5.97218424e-02,  4.93613295e-02, -1.12874722e-02,  3.65953036e-02,  6.73999488e-02},
 {-9.85341519e-03, -4.75156941e-02, -8.89006928e-02,  6.79356009e-02, -4.32865396e-02, -6.48085549e-02, -8.38027224e-02,  2.54645641e-03, -5.36905080e-02,  4.96377833e-02,  3.41583826e-02, -8.91791135e-02, -1.06677473e-01,  3.47777456e-02, -6.86379448e-02, -6.67629167e-02, -3.11487969e-02,  2.12712456e-02,  5.12203500e-02,  1.62740238e-02, -1.20928384e-01,  1.06332272e-01,  1.08907986e-02,  5.88455470e-03,  9.86679178e-03, -2.23895870e-02, -7.99391493e-02,  8.95671919e-02, -5.97387962e-02,  4.51333448e-02,  3.48345004e-02, -1.71988662e-02,  4.23046798e-02, -5.79758584e-02,  9.21743065e-02,  6.63400888e-02,  5.07116674e-05, -4.25844491e-02,  6.21391572e-02, -6.15848079e-02},
 {-4.70544547e-02, -3.87953594e-02, -4.39342447e-02,  2.29080413e-02, -2.00073328e-02,  1.57823712e-02,  4.95912544e-02,  4.94678915e-02, -2.59742960e-02,  1.35779753e-01, -3.03979777e-02, -2.59226956e-03,  4.15524729e-02, -7.07306415e-02,  3.42550091e-02,  5.61588965e-02, -2.88443789e-02, -6.42118156e-02,  7.45071396e-02,  5.34263663e-02,  9.86951962e-03,  9.07060876e-02,  7.99786747e-02,  3.02285384e-02,  3.61057408e-02,  7.01222569e-02, -1.10998526e-01, -2.08365526e-02,  1.95206869e-02,  7.97277391e-02, -2.34854147e-02,  3.43226530e-02,  6.66944310e-02,  2.29980890e-02,  4.31384705e-02,  6.42708242e-02,  3.50789353e-02,  4.89156879e-03,  2.67479755e-02,  8.64532962e-02},
 { 3.99309583e-02,  2.04117931e-02, -1.41081680e-02, -5.85371889e-02, -1.68716647e-02, -5.34920283e-02,  3.65669690e-02, -6.83219507e-02, -7.25318640e-02,  1.72974821e-02, -2.26339139e-02,  7.20281601e-02,  1.92346461e-02,  1.56642459e-02, -3.03243939e-02, -8.13770369e-02,  1.48076592e-02, -3.78178712e-03,  1.08227534e-02,  1.64097585e-02,  4.55967821e-02,  6.89401925e-02, -7.16065243e-02, -6.33904412e-02, -8.88913032e-03,  3.40467915e-02, -2.03554444e-02,  9.52125713e-02, -5.53948339e-03, -2.40123877e-03,  3.94459488e-03, -1.53492400e-02, -7.95548037e-03, -6.54467195e-02,  7.12453574e-02, -3.49221230e-02, -1.27092712e-02,  2.80068815e-02,  6.22220300e-02, -4.33854163e-02},
 { 5.37418649e-02,  1.17053790e-02, -5.67169078e-02, -4.13828827e-02, -1.55184828e-02,  2.01195967e-03, -5.38382009e-02,  7.02539738e-03,  3.51962969e-02,  7.58569762e-02,  2.69753672e-02,  4.76066396e-02,  4.57815379e-02, -3.36864106e-02, -7.53550306e-02,  3.56658129e-03,  4.48189266e-02,  2.38325186e-02,  2.56425906e-02,  4.94593866e-02,  2.69053821e-02, -4.94276658e-02,  7.98225179e-02, -2.27708705e-02,  6.63414923e-03,  1.26255006e-02,  6.46658838e-02, -4.77119163e-02,  3.85394692e-02,  6.77651167e-02, -2.52881888e-02,  4.75889333e-02,  7.61392713e-03,  6.26822701e-03,  2.96917148e-02, -3.94326895e-02, -1.01993064e-05, -1.33830504e-02,  2.64438577e-02, -4.42062058e-02},
 { 4.75076064e-02, -6.55506477e-02,  4.91021462e-02, -9.49609801e-02, -8.23586360e-02,  4.25588451e-02,  4.94359508e-02, -4.29877155e-02, -5.72658107e-02, -4.59568799e-02, -6.04070015e-02,  7.66122118e-02,  1.73434021e-03, -8.99397396e-03,  7.19140917e-02, -4.28087376e-02, -2.99641117e-02, -7.39681944e-02,  3.83583345e-02,  4.68286546e-03, -7.65432492e-02, -7.63614550e-02,  4.38816026e-02, -1.63890123e-02,  3.93302590e-02,  3.21594290e-02,  7.57534504e-02,  3.46336812e-02, -8.44648257e-02,  3.89229320e-02,  4.46428768e-02,  4.72234860e-02, -2.39162855e-02, -5.26387319e-02, -3.06103230e-02, -5.30302599e-02,  6.53343350e-02,  5.50258830e-02,  3.16806473e-02, -7.08428845e-02},
 { 9.45095497e-04,  4.40181717e-02,  2.19876063e-03, -6.67543784e-02, -5.50416932e-02,  9.63986069e-02,  5.26480936e-02, -4.91839796e-02,  4.73563932e-02, -5.11772977e-03, -5.86240590e-02, -6.55430034e-02, -2.60257386e-02,  6.34151474e-02, -1.48950436e-03, -7.28415102e-02,  5.35503216e-02,  8.02404433e-02,  2.61615142e-02,  2.86862459e-02,  1.37883788e-02, -2.13827360e-02,  4.14822921e-02, -7.66895665e-03,  1.28002726e-02, -4.15180512e-02,  7.91309178e-02,  2.90510207e-02, -4.69431207e-02,  7.12443003e-03,  3.58473957e-02, -4.22711596e-02, -2.31654122e-02,  6.25163391e-02,  3.91238891e-02, -5.00022061e-02,  3.24114375e-02,  5.46231754e-02,  5.30101880e-02, -6.72438815e-02},
 {-1.15943462e-01, -2.26514041e-02, -6.85355291e-02, -8.89614969e-03,  4.61105481e-02,  2.76985951e-02, -4.57710251e-02,  2.03368813e-02, -3.99032347e-02,  6.56789988e-02,  4.48904373e-02,  1.64280906e-02,  7.71014541e-02,  7.54021928e-02, -3.64106633e-02,  8.95012021e-02,  5.45116700e-02, -3.87699977e-02,  7.66658485e-02, -4.31002155e-02, -2.98742224e-02, -5.79703227e-02,  8.28978419e-02, -1.44223375e-02, -5.25956415e-02, -4.68431190e-02, -6.73599960e-03, -4.12219912e-02, -5.77148572e-02, -5.30774407e-02, -6.92565814e-02, -3.15944701e-02,  7.70539194e-02, -9.85195395e-03,  2.81891897e-02,  8.56397953e-03, -6.14391491e-02, -2.29439922e-02, -9.08670574e-02, -2.91641671e-02},
 {-3.59318815e-02, -2.33542360e-02,  5.61481342e-02, -2.86626555e-02, -5.50813824e-02,  9.52285379e-02, -5.36224693e-02,  6.08640127e-02,  1.01956269e-02,  1.57172196e-02, -7.36132264e-02,  1.78700255e-04, -4.78712507e-02, -2.34817564e-02, -5.62095195e-02,  5.40534221e-02, -5.26340678e-02, -5.14900349e-02,  6.48227036e-02, -6.41781688e-02,  2.72495169e-02, -3.17422971e-02, -6.16470203e-02, -5.33878338e-03, -5.62722608e-02, -1.07705686e-02, -4.03532162e-02, -6.40790910e-02,  4.27737795e-02, -4.40741777e-02, -7.73366243e-02,  4.69702063e-03, -1.55524435e-02, -3.70249599e-02, -8.38128924e-02, -2.29773223e-02, -7.12879747e-02, -7.82436356e-02,  1.16621377e-03, -6.91135824e-02},
 { 2.70232558e-02,  2.17498746e-02, -4.98229591e-03, -7.77662843e-02, -6.73619807e-02,  8.38913694e-02,  1.28249908e-02, -1.90507285e-02, -4.48669158e-02, -3.04059759e-02, -2.97008101e-02, -4.78390940e-02, -7.20596761e-02, -6.54052719e-02,  2.84793638e-02, -8.80963169e-03,  7.82124326e-02, -2.04154830e-02, -4.40112688e-02, -2.70502865e-02, -7.88337514e-02,  1.00795587e-03, -8.45863968e-02, -7.12015107e-02,  5.17198211e-03,  6.94305003e-02, -7.19310343e-02, -4.28570993e-02,  4.85228375e-02, -3.11590675e-02,  4.87433095e-03, -1.97695848e-02,  5.71313724e-02,  5.70768714e-02, -5.30773848e-02, -6.29957765e-03, -3.74078974e-02,  4.77642752e-02, -6.06734678e-02, -1.16963508e-02},
 { 2.74878293e-02, -4.43192795e-02, -1.77019797e-02, -1.82536989e-02, -7.57439658e-02,  8.02744403e-02,  3.79398949e-02,  3.22073027e-02,  2.44151559e-02,  2.81969327e-02,  7.95991942e-02,  1.18835308e-02,  9.72206611e-03,  7.66386464e-02,  3.44134029e-03,  6.63068667e-02,  7.31250048e-02, -4.24700826e-02,  2.69043036e-02, -3.27358656e-02,  6.05883040e-02,  1.84586495e-02,  4.58972305e-02,  2.00561807e-02, -3.30536142e-02, -7.17395395e-02, -7.70107433e-02, -1.54088046e-02,  4.12829258e-02, -5.20233065e-02,  1.17019042e-02,  1.08713647e-02,  2.02322733e-02, -6.74872920e-02,  8.35193992e-02, -9.91951791e-04, -8.17320421e-02, -2.73567671e-03, -4.01483774e-02,  6.10538907e-02},
 { 7.95011222e-03, -4.67588231e-02,  7.45796263e-02, -4.01521325e-02, -6.08890988e-02,  2.72769853e-02,  1.97879449e-02,  3.32720950e-02, -7.66773298e-02, -6.42959923e-02, -5.94544262e-02, -1.62216574e-02,  1.20413601e-02, -6.19762391e-02,  3.40560973e-02,  1.77587196e-02, -1.46678016e-02,  2.20095515e-02,  3.37561518e-02,  6.70271367e-03, -2.19196677e-02, -2.51341537e-02, -1.10236332e-02, -4.29615602e-02, -5.01846746e-02, -5.19070402e-02, -4.68823165e-02,  7.81288594e-02,  7.89171606e-02, -2.75168568e-03,  2.08306536e-02, -1.69677734e-02, -6.32029474e-02,  5.97211719e-03, -1.62879378e-02,  5.58475852e-02,  5.36761731e-02,  8.08864534e-02,  1.35033727e-02,  2.32663229e-02},
 {-2.16135494e-02, -4.76326868e-02, -6.69620782e-02, -4.22623977e-02, -6.90899929e-03, -7.29571432e-02,  1.38271833e-03,  5.35060614e-02, -7.90938661e-02, -1.99545901e-02,  9.07376874e-03,  6.58895895e-02, -5.13745025e-02, -6.19322881e-02, -1.39622148e-02, -1.30518712e-02,  6.92729745e-03,  5.26356995e-02, -8.31706598e-02,  3.35154943e-02, -8.18665400e-02, -3.77079658e-02, -2.91214907e-03, -1.26076266e-02, -5.23488922e-03, -1.10229068e-02, -6.24601766e-02,  8.19271728e-02, -2.65157805e-03,  4.11695950e-02,  5.82734980e-02,  6.43698797e-02,  3.55140343e-02, -7.53636705e-04, -1.07494388e-02,  3.59190218e-02, -5.17489612e-02,  3.66104059e-02,  2.39458121e-02,  2.89885197e-02},
 { 3.51105211e-03, -3.99135724e-02, -2.40306314e-02,  7.54898116e-02,  4.99228165e-02, -1.16564501e-02,  3.99920978e-02, -6.39630556e-02, -5.91100082e-02, -7.90396929e-02, -6.56672120e-02, -7.28345662e-02,  4.25468720e-02, -1.49128065e-02, -1.69346891e-02, -4.47855368e-02,  2.69784760e-02,  2.20506340e-02, -5.75199910e-02, -3.30664143e-02,  8.06724653e-02,  1.50045669e-02,  2.54491027e-02, -6.88603073e-02, -6.25484288e-02, -7.22065102e-03, -3.99619788e-02, -3.74621013e-03,  8.49386901e-02,  7.72127435e-02, -7.91491345e-02,  2.01164875e-02,  8.03074464e-02, -2.81855948e-02, -6.79549798e-02,  6.28826693e-02,  6.62670145e-03, -7.30024204e-02, -6.63569123e-02,  2.80287080e-02},
 {-7.03559816e-02, -2.19809189e-02, -2.00457368e-02,  5.04818112e-02,  2.74034515e-02, -3.63559574e-02, -6.98224008e-02,  3.01686581e-02, -8.03328454e-02,  6.50199726e-02,  4.34730090e-02, -7.69622475e-02, -3.11645940e-02, -3.82565288e-03, -5.04706893e-03, -7.67653957e-02, -2.41715126e-02,  1.48563562e-02,  1.64239593e-02, -4.38448749e-02, -1.53900664e-02, -1.20956283e-02,  1.95761528e-02, -5.61123975e-02, -2.54198089e-02, -2.29486171e-02, -7.30828941e-02,  8.48774984e-02,  5.03605306e-02, -3.48097757e-02,  4.26313989e-02, -6.46646470e-02,  6.90435693e-02, -3.21961865e-02,  1.88196693e-02,  4.81268913e-02, -8.38403404e-02,  7.13794231e-02, -7.94287026e-02,  4.15535830e-03},
 {-1.86820943e-02, -2.46932898e-02,  5.77915199e-02, -6.65118098e-02,  5.31681851e-02,  6.89384118e-02, -2.56816167e-02, -1.15679661e-02, -7.18059540e-02, -1.79777499e-02,  7.44143650e-02,  4.98938374e-02,  3.77462283e-02,  4.63866219e-02,  3.28350216e-02, -4.44055572e-02, -1.94975045e-02, -3.38294171e-02,  1.16915911e-01,  6.53818324e-02,  3.91701683e-02, -2.52414420e-02,  1.62535440e-02,  1.17397681e-03, -8.96548033e-02,  8.07872117e-02, -5.60163222e-02,  2.50239242e-02,  2.09247340e-02,  4.44826856e-02, -1.39959101e-02,  2.65483577e-02,  1.20809954e-02, -8.20796471e-03,  4.72479165e-02,  4.96446621e-03, -2.23259851e-02,  4.18823659e-02, -4.37718295e-02,  6.01617135e-02},
 {-6.44614995e-02, -2.65779309e-02,  7.19013587e-02,  5.94345555e-02, -4.37016711e-02,  7.09740818e-02, -3.26114446e-02,  1.28545836e-02, -4.32635993e-02,  2.84350524e-03,  5.56005649e-02, -8.81310925e-02,  3.64368968e-02, -6.65303320e-02, -3.30812596e-02, -7.36762723e-03, -3.91283818e-02,  5.10469675e-02,  9.95583311e-02, -1.47490958e-02, -3.78782488e-02, -6.87569603e-02,  6.19869726e-03, -9.94089320e-02,  4.73603457e-02,  6.18799552e-02,  1.40291397e-02, -1.13806147e-02,  3.14863585e-02, -6.17018938e-02, -9.28229243e-02, -6.94740489e-02,  3.12331598e-02,  7.80990273e-02, -8.33045542e-02, -9.80258957e-02, -2.52527501e-02,  2.76009012e-02, -3.25287273e-03, -1.20122684e-02},
 {-7.05851689e-02,  7.97982588e-02, -1.66751780e-02, -7.98463300e-02, -4.15256061e-02,  6.32442757e-02, -3.96320261e-02, -5.64373508e-02,  2.63302540e-03,  6.63962215e-02,  2.42507197e-02,  4.06842716e-02,  2.44035553e-02, -1.34917609e-02, -1.63812563e-02,  6.26726300e-02, -1.56377237e-02, -3.56214345e-02,  8.42370316e-02, -6.01204112e-03, -3.02181859e-02, -3.23954560e-02, -5.41632734e-02, -6.68437257e-02, -5.83351254e-02, -6.39921278e-02,  4.87507321e-02, -4.76834588e-02, -3.44013982e-02,  7.40969703e-02,  2.61428934e-02,  4.10795398e-03,  7.74286017e-02,  3.01930923e-02, -3.76616828e-02, -4.00057696e-02, -6.85415119e-02,  7.32072666e-02,  1.90360956e-02,  9.36421901e-02},
 { 3.41151133e-02, -7.52183376e-03, -6.81767687e-02, -7.73090199e-02,  1.02617003e-01,  5.84598957e-03,  3.12765911e-02, -9.08951387e-02, -1.43533451e-02, -7.63794733e-03,  6.41456246e-02, -3.36600691e-02,  8.02935958e-02,  3.54457460e-02, -6.70501441e-02,  4.84423675e-02, -1.14683332e-02, -4.56708446e-02,  1.54549703e-02,  3.32497507e-02, -5.18175699e-02, -2.69902814e-02,  2.42337734e-02, -1.57372635e-02,  1.79342311e-02,  8.06049854e-02, -4.32419181e-02, -4.55921106e-02, -3.89750376e-02,  8.69511720e-03, -2.22546104e-02, -7.00688586e-02, -5.78313097e-02,  1.66649036e-02, -3.87798660e-02,  2.26030871e-02, -2.13084966e-02, -4.04478908e-02,  5.41678518e-02, -9.11849923e-03},
 { 5.29409498e-02,  4.71011288e-02, -3.07241827e-02, -5.36039732e-02, -1.59741770e-02,  4.67425361e-02,  2.96796449e-02, -9.67453793e-02,  8.97871628e-02, -6.94423616e-02,  4.71769609e-02, -1.63324811e-02,  2.04899181e-02, -2.48422311e-03,  2.04565711e-02,  3.31360996e-02, -2.59827619e-04,  6.97715357e-02,  7.09560290e-02, -2.04373207e-02,  2.91547757e-02, -5.59454858e-02, -5.17477170e-02, -4.63646613e-02,  4.57960553e-02, -3.92056778e-02,  1.36645632e-02,  3.33199613e-02, -4.34073880e-02,  1.01149771e-02,  9.46274213e-03, -1.07681379e-02, -3.54463346e-02,  7.86897093e-02, -1.89608354e-02, -8.27759951e-02,  8.03446863e-03, -1.53179588e-02,  3.07542514e-02,  4.21417467e-02},
 { 3.97910504e-03, -2.63335034e-02,  2.26667952e-02, -3.77623662e-02, -1.44192725e-02,  1.27866901e-02,  5.50260209e-02, -5.35385646e-02, -5.53893447e-02,  9.24836248e-02,  5.30478097e-02, -2.86277309e-02, -6.46607950e-02,  3.36091630e-02, -4.40067574e-02, -1.01147741e-02,  1.10483617e-01, -8.14594477e-02,  4.21847738e-02,  3.99085023e-02,  4.67132553e-02, -6.16217777e-02,  2.71309912e-02, -8.70899111e-02,  2.10950505e-02,  9.15028006e-02, -1.04475357e-02, -7.51154348e-02, -4.03368324e-02,  6.78132102e-02,  2.22022664e-02,  4.14519645e-02,  6.94035292e-02,  9.97112598e-03, -2.49359924e-02, -7.59865344e-02, -5.72145022e-02, -6.02988303e-02, -6.60884604e-02, -4.59833480e-02},
 { 2.45619435e-02, -5.83831482e-02, -5.02108177e-03, -1.85573734e-02, -1.55857326e-02,  8.36882964e-02, -7.78004006e-02, -7.47299567e-02,  3.23423999e-03, -6.37215972e-02,  6.04917109e-02, -3.24438848e-02,  6.85677724e-03, -1.68933603e-03, -3.15624028e-02,  4.18728366e-02, -5.38081527e-02, -5.22192344e-02,  1.91186089e-02, -2.30373852e-02, -9.87029448e-02, -9.50225070e-03,  1.20762261e-02, -6.50119036e-02,  3.71486954e-02,  1.94878411e-03, -4.02419455e-02, -7.89170787e-02,  5.53824119e-02, -4.73641716e-02,  3.54814827e-02, -2.70130988e-02,  8.15467387e-02, -8.01313743e-02, -5.07680587e-02, -1.03723370e-01,  1.05902124e-02, -3.15796956e-03,  4.99891452e-02,  4.62920479e-02},
 { 3.60321477e-02, -5.00601493e-02, -2.21916642e-02, -4.95874733e-02,  9.79588106e-02, -6.14064597e-02,  1.18733589e-02,  9.97633394e-03, -1.49135245e-02, -6.43027052e-02, -4.13465165e-02, -8.12551230e-02,  5.52498661e-02, -4.25512381e-02,  2.98267007e-02, -1.47680100e-02, -5.61313555e-02, -4.93852831e-02, -2.70086452e-02, -3.27287987e-02, -5.10382354e-02, -7.56373778e-02,  6.47909045e-02,  2.35271715e-02, -4.22747843e-02,  4.54605743e-02,  4.88426071e-03,  5.04616611e-02, -5.66776795e-03, -6.69315308e-02,  8.90920833e-02, -7.47963861e-02,  6.01168759e-02, -1.88843887e-02, -1.84150971e-02, -4.76080514e-02,  6.49038926e-02,  1.14019420e-02,  6.82198182e-02, -1.57733932e-02},
 {-1.97864976e-02,  2.09577028e-02,  3.49434279e-02,  9.08714533e-02,  6.05855770e-02, -5.55569343e-02,  5.22622950e-02, -8.94179754e-03,  4.68617231e-02,  5.00779459e-03, -8.69986489e-02, -9.41771865e-02, -2.49098036e-02,  4.53424826e-02, -2.95551866e-02, -1.22360997e-02, -1.99706368e-02, -2.85757370e-02, -8.24654922e-02, -3.75148878e-02,  7.32674599e-02,  1.95739698e-03,  4.24112193e-03, -5.02268374e-02,  5.01536950e-02,  5.30254468e-02,  2.02721637e-03, -2.42857579e-02,  7.90753737e-02,  5.28397150e-02,  4.43960950e-02, -2.50600390e-02,  1.08383002e-03, -8.63128752e-02, -3.58047113e-02, -7.35236704e-02,  3.34767811e-02,  1.94059107e-02,  2.06939951e-02,  2.16165166e-02},
 {-1.48114106e-02,  1.11475572e-01, -9.14215446e-02,  5.91523759e-03, -6.44385070e-02,  2.17662174e-02,  5.20888157e-02,  7.00031370e-02,  1.90911349e-02,  2.75613870e-02, -4.64616157e-02,  4.71108072e-02,  5.87146953e-02,  1.41476644e-02,  4.57402095e-02, -3.08689126e-03, -8.26953575e-02, -5.31562604e-02, -2.41276296e-03,  1.00606047e-01,  2.15484458e-03, -7.64899403e-02,  1.19413503e-01, -5.78981228e-02,  6.10196171e-03,  3.56132239e-02,  7.85957873e-02, -2.81646997e-02, -4.23851684e-02,  2.05561873e-02,  7.28915706e-02, -3.46563570e-02, -1.80802271e-02, -8.28826278e-02, -2.23933510e-03,  5.87956198e-02,  7.25835934e-02,  3.75042111e-02,  8.94128308e-02, -2.22174209e-02},
 {-2.68410966e-02,  7.81318545e-02, -5.00487648e-02, -7.52361193e-02,  9.22122505e-03,  2.82562780e-03, -2.89793015e-02, -1.85341258e-02, -8.48554894e-02, -2.72711981e-02,  6.94488287e-02, -3.41838114e-02, -6.75689578e-02, -1.15437433e-02, -4.85576764e-02, -2.54654940e-02, -1.48614272e-02, -6.80120066e-02,  7.46878609e-03,  8.88217054e-03,  2.68203057e-02,  3.65013964e-02,  7.09948614e-02,  1.19057894e-02,  4.43565063e-02, -2.82053538e-02, -5.92860430e-02,  6.73871413e-02,  6.03246763e-02,  2.22353525e-02,  2.14306321e-02, -1.15812279e-01,  9.45346430e-02, -2.61830501e-02,  5.26713058e-02,  2.90416293e-02,  9.67063159e-02,  2.21439395e-02, -2.69794967e-02,  1.07235812e-01},
 { 4.85573336e-02, -5.22826985e-02,  4.45948727e-02, -3.37209478e-02,  4.05150801e-02, -7.85303935e-02,  5.81986830e-02,  7.06682056e-02, -2.73220334e-02, -2.82117911e-02,  2.61155646e-02, -5.38514741e-02, -7.09159905e-03, -7.00978115e-02, -5.97137809e-02,  1.06183067e-02, -7.74226785e-02,  5.11527881e-02, -1.91516429e-02, -4.35423218e-02, -3.35792378e-02, -5.88093586e-02,  3.46098132e-02, -8.30234885e-02, -8.18791166e-02, -6.42504692e-02,  3.93424518e-02, -3.75246704e-02,  8.52191821e-02,  6.83086887e-02,  4.77500185e-02,  8.36407125e-04,  9.58755165e-02, -7.01781437e-02, -8.29888508e-03,  7.85793469e-04,  2.83509996e-02,  6.02019671e-03, -4.08622660e-02,  1.01457238e-01},
 { 1.80261920e-03,  4.57920544e-02, -6.21421412e-02, -4.04181965e-02,  5.78453653e-02, -5.36051765e-02,  6.67139143e-02, -2.62621101e-02,  1.82760693e-02,  7.64088631e-02, -2.60904171e-02,  5.92343882e-02, -5.95830008e-02,  7.24237934e-02, -1.95872542e-02, -8.48536938e-02,  4.95921671e-02, -4.17862274e-02, -1.92709900e-02, -2.54454538e-02,  2.28433753e-03,  7.95643553e-02, -3.77941877e-02, -5.20051643e-03, -3.56211863e-03,  1.16665522e-02,  1.16022509e-02,  6.94109946e-02,  4.59096357e-02,  1.41152239e-03,  4.43086866e-03,  1.64782703e-02,  1.50704710e-03, -3.08559034e-02,  8.47849920e-02,  3.16189937e-02,  6.20693788e-02, -1.32228574e-02, -2.35392917e-02,  7.90657103e-02},
 {-2.02158839e-02, -5.28539233e-02, -5.85938804e-02,  3.52404006e-02, -4.12167087e-02, -9.69936028e-02, -3.31387669e-02, -7.99995065e-02, -4.63370271e-02, -2.56003886e-02,  1.59466472e-02,  3.15249674e-02, -6.95413426e-02, -4.97283377e-02,  3.41183943e-04,  4.92018498e-02, -1.88592691e-02,  1.09901349e-03, -8.52101892e-02,  9.55623109e-03, -2.23207120e-02,  1.85068063e-02, -4.89126667e-02, -2.25278107e-03, -7.87737519e-02,  5.62720858e-02,  1.77096575e-02,  3.82758640e-02, -1.87742766e-02, -3.18144746e-02, -6.67926073e-02, -7.57224932e-02, -4.83415974e-03, -3.78042236e-02,  3.07513569e-02, -5.42054214e-02,  6.77677169e-02,  5.09068742e-02, -5.04879793e-03,  7.08162785e-02},
 {-8.49077478e-03,  1.04185408e-02,  2.38300245e-02, -3.45799290e-02,  4.63411137e-02, -6.30339682e-02, -2.24727094e-02,  7.06220493e-02, -8.80887881e-02,  1.44269183e-01,  1.08037656e-02,  2.78329384e-02,  3.75916660e-02, -5.67134619e-02, -3.33594121e-02,  3.14003378e-02,  1.64062064e-02, -7.03801438e-02, -1.90348048e-02, -3.62241454e-02,  4.65129875e-03, -3.61502431e-02,  5.67855835e-02, -2.13570092e-02, -6.37833178e-02,  2.29859743e-02, -5.97471669e-02,  3.10698599e-02, -4.51383591e-02, -6.05857298e-02,  8.26753750e-02, -4.89899190e-03,  8.13823417e-02,  3.28382738e-02,  2.19630376e-02, -8.48047435e-02,  3.31816524e-02,  5.84352091e-02,  8.37564375e-03, -6.46554306e-02},
 {-3.90972309e-02, -2.25664042e-02,  6.05213605e-02,  1.42643781e-04, -2.76803710e-02,  8.11037943e-02, -6.47339374e-02, -3.18222456e-02,  5.54466769e-02,  6.39851158e-03,  4.76671271e-02, -2.95493901e-02, -2.70393621e-02,  7.39958063e-02,  5.91926761e-02, -4.16402929e-02,  1.12406880e-01,  9.89253446e-03,  6.04662895e-02, -1.77673418e-02, -3.71218547e-02,  3.99237201e-02, -5.17750457e-02,  3.07149496e-02, -6.04805499e-02, -3.29898001e-04, -1.25051346e-02,  6.14270903e-02, -7.27323517e-02, -2.82196272e-02,  4.68083173e-02, -6.88584447e-02, -4.15796861e-02,  6.94910362e-02, -2.95190420e-02, -5.97100668e-02,  4.71624769e-02, -4.55753356e-02, -1.62160825e-02, -2.12599114e-02},
 { 2.21046954e-02,  2.67102625e-02,  4.53786459e-03, -5.91089251e-03, -4.78772037e-02, -3.42613123e-02, -7.13370368e-02, -6.85089314e-03,  6.39069676e-02,  2.82233558e-03,  5.88398241e-02, -3.48232202e-02, -2.01821327e-02,  8.15785080e-02, -8.37281533e-03, -4.51119542e-02,  4.13789935e-02, -2.87290085e-02, -1.74268906e-03, -8.86749923e-02, -3.89652848e-02, -1.36628374e-02, -9.56416130e-03, -8.35722461e-02, -8.32537860e-02, -3.48355658e-02, -3.86404246e-02, -4.89038229e-02,  2.81228218e-02, -3.92818376e-02, -3.85884382e-02,  7.42137879e-02,  7.54444394e-03, -5.93687072e-02, -7.71319633e-03, -7.72458613e-02,  4.37259190e-02,  2.50120033e-02, -6.86934143e-02, -2.19165627e-02},
 {-4.40928936e-02, -4.27920558e-02, -6.79421201e-02,  3.19689251e-02, -5.06481230e-02,  3.01209427e-02,  4.11863886e-02, -4.51962464e-03, -4.94360551e-02,  1.01130068e-01, -2.25919317e-02, -1.48095833e-02,  5.41368388e-02,  6.17189566e-03,  1.77659129e-03, -5.43605983e-02,  6.49004653e-02, -5.74028194e-02,  9.78895277e-02,  1.25650298e-02,  5.13264090e-02,  1.47636572e-03, -4.59272303e-02, -1.81022251e-03, -1.02526911e-01, -7.64886104e-03,  2.76045445e-02, -4.54341024e-02, -5.75362444e-02, -4.12085354e-02, -8.46762508e-02,  4.97187451e-02,  5.16829118e-02, -7.13936007e-03, -4.96482011e-03, -2.13841647e-02, -5.08948006e-02,  8.30142200e-02, -1.23620704e-02,  2.59867627e-02},
 { 7.66581437e-03,  3.64336334e-02,  8.14708322e-03, -4.12169658e-02, -3.80594879e-02, -7.27683073e-03,  2.83014234e-02,  2.20515020e-02,  3.91857103e-02,  4.62987646e-02,  9.69794579e-03, -7.13205710e-03, -2.38992088e-02, -3.75812910e-02, -1.03299171e-02, -1.21814003e-02, -8.09601601e-03, -3.81156765e-02,  1.11712413e-02,  6.83196485e-02, -2.42728405e-02,  1.28488494e-02, -7.17258304e-02,  5.33998758e-02,  4.28616889e-02,  4.47201431e-02,  7.62740001e-02, -3.95131968e-02,  4.42665666e-02,  2.64555681e-02, -7.58077130e-02,  9.92510393e-02, -2.64072493e-02,  1.46717373e-02, -7.14367554e-02, -7.59543777e-02, -6.89236075e-02,  6.46616593e-02,  2.61208173e-02,  7.75224566e-02},
 { 3.13141681e-02,  4.14495394e-02,  9.59477797e-02,  4.41047959e-02, -3.97394113e-02,  1.57946032e-02, -3.35861742e-02, -1.01604238e-01, -2.85039051e-03,  3.69714834e-02,  4.43482995e-02,  1.74519827e-03, -1.69536136e-02,  1.80006884e-02, -4.85840552e-02, -1.33530684e-02,  6.79800659e-02, -7.30525628e-02,  9.55374539e-02, -6.85913041e-02, -5.94992861e-02,  7.25701172e-03, -5.80321848e-02,  3.83135094e-03,  2.82052401e-02,  2.32043341e-02,  5.42373471e-02, -4.38702404e-02,  4.95485626e-02,  8.20569918e-02,  1.53485006e-02,  5.95040619e-02,  4.08969037e-02,  9.86720622e-02,  5.22625595e-02, -3.35792676e-02,  7.73882668e-04, -4.00239900e-02,  1.45901982e-02,  9.72072408e-02},
 {-3.56865302e-02, -6.01236261e-02, -2.14301180e-02, -2.09922027e-02, -1.26799960e-02, -4.18417789e-02, -5.11598960e-02,  5.19606881e-02,  3.15979235e-02, -6.68134689e-02, -5.98725565e-02,  6.28616437e-02, -7.45978281e-02, -6.12786710e-02, -1.21457316e-02,  7.60633945e-02, -3.13856043e-02, -6.19164594e-02, -3.80426608e-02,  3.19653563e-02,  5.00144958e-02, -6.20756447e-02,  7.01410547e-02,  2.63076406e-02, -2.42720712e-02,  5.92935318e-03, -2.78343796e-03, -2.89015211e-02,  4.44039851e-02, -2.01773718e-02, -9.55719277e-02, -1.71307698e-02,  9.77088790e-03, -2.02362295e-02,  8.45655217e-04, -3.93177308e-02,  3.03371605e-02,  4.30234522e-02, -4.42677271e-03,  8.16820785e-02},
 {-3.71735170e-02,  2.61435471e-02, -3.62130515e-02,  3.73795861e-03,  6.29063845e-02,  4.28563394e-02,  3.74172479e-02, -9.06285346e-02, -4.23371196e-02, -1.97267309e-02,  7.00905770e-02,  6.55901758e-03, -3.46104503e-02,  2.33310908e-02,  1.30072292e-02,  3.73678356e-02,  8.24305862e-02,  2.81650126e-02,  1.32334093e-02,  1.76940318e-02,  5.89128807e-02, -2.50166412e-02, -6.98607266e-02,  3.33862798e-03,  2.31860653e-02,  1.38291242e-02,  1.27308804e-03, -5.14907315e-02,  5.41608594e-02,  7.95958266e-02,  3.12562771e-02,  2.78877113e-02, -7.96820223e-02, -6.49402589e-02,  8.01174343e-02,  4.11237851e-02, -2.46422528e-03,  2.26788446e-02, -8.21569487e-02,  5.04002795e-02},
 { 4.31182608e-02, -7.47614959e-03, -4.21393774e-02, -3.31578515e-02, -7.39993080e-02,  7.84136951e-02,  6.39091283e-02, -2.30164081e-02, -6.31148443e-02, -5.12760170e-02,  4.18343954e-02,  3.15731601e-03,  7.10314810e-02,  7.48032425e-03,  4.04968001e-02, -1.39944879e-02, -4.75328416e-02,  3.67789567e-02, -6.00641631e-02, -5.97750694e-02,  6.14001267e-02,  6.44174144e-02,  1.30908312e-02,  8.20012093e-02, -2.44894158e-02,  2.92646755e-02,  2.62171570e-02,  6.35428131e-02, -1.88307595e-02, -2.57795565e-02,  2.04698965e-02, -3.57651524e-02,  5.50972819e-02, -6.00533895e-02, -1.21766776e-02, -2.69827507e-02,  4.20841388e-03, -4.04622220e-02,  1.96717009e-02, -6.14455640e-02},
 { 6.34845048e-02, -8.47786218e-02,  5.38902171e-02, -7.80730695e-02,  5.32083847e-02, -7.06923231e-02,  2.91629788e-02, -5.76763861e-02,  4.26023267e-02,  7.94007033e-02,  4.00392339e-02,  2.85967756e-02,  4.12304252e-02,  5.50882258e-02,  6.20280206e-02,  1.27241658e-02, -7.77212381e-02,  1.01378821e-02,  6.29591346e-02,  1.63799915e-02, -6.50374405e-03,  5.99821992e-02, -8.07122365e-02, -5.91307580e-02,  7.12480769e-02,  6.03551231e-02,  1.71862934e-02, -1.66224558e-02, -6.50520027e-02,  8.93512461e-03, -3.81774157e-02,  4.36928123e-02,  2.27793027e-03,  1.26107438e-02, -6.99958131e-02,  3.02679539e-02, -6.56582415e-02,  6.40400797e-02,  2.79741827e-02,  1.92281645e-04},
 { 7.46437460e-02,  6.28964305e-02,  1.76863521e-02, -3.39895077e-02,  6.63887709e-03,  2.69275457e-02,  3.50681692e-02,  4.38063741e-02, -5.64063191e-02,  1.16564557e-02,  8.09545815e-02, -7.49467462e-02, -2.03500316e-02, -7.07351789e-02, -8.49536732e-02,  4.07844484e-02, -8.49023163e-02,  3.95434797e-02, -4.63303216e-02,  4.17661369e-02,  6.23513162e-02, -5.61594144e-02, -3.03737409e-02, -5.68010882e-02, -8.46840441e-02,  7.51995891e-02, -1.77531689e-02, -1.59521848e-02, -3.98562811e-02,  3.40317860e-02,  7.69637227e-02,  8.16241503e-02, -8.49189609e-03,  6.24011010e-02,  7.28313923e-02,  2.66310573e-03, -6.07342348e-02,  2.66786665e-03,  5.67562431e-02, -2.38946937e-02},
 { 8.41525868e-02, -2.77401917e-02,  2.93702411e-04, -1.13464929e-02,  5.87772131e-02, -1.41287204e-02, -2.68434118e-02,  5.02252057e-02, -3.04580573e-02, -2.66617108e-02, -7.17735365e-02, -5.05233146e-02,  6.44520670e-02,  7.96428397e-02, -4.06882428e-02,  6.19654171e-02, -2.38926485e-02,  7.64678642e-02,  4.50047553e-02,  1.00119896e-02, -5.66289462e-02, -3.18353400e-02,  1.92754287e-02, -7.04408810e-02, -1.01608341e-03, -7.43250251e-02, -6.11835346e-02,  7.29538426e-02, -2.69999485e-02,  7.42493430e-04,  6.38605431e-02, -6.04964383e-02,  7.45554343e-02,  5.57507128e-02, -5.75767271e-02,  7.80773014e-02,  3.12161446e-02,  3.99048999e-02,  7.68011883e-02, -7.26889595e-02},
 { 8.52340311e-02, -6.53911978e-02,  5.91368750e-02, -8.02323967e-02, -8.10739845e-02,  4.21537235e-02, -4.81350310e-02,  4.57100980e-02,  7.68599063e-02,  1.84475780e-02, -2.69618239e-02, -5.69399260e-02, -4.61513288e-02, -1.80633552e-02,  1.28675466e-02,  5.64814322e-02,  2.47464292e-02, -7.16047958e-02,  6.44308254e-02, -5.43769635e-02,  8.43378976e-02, -5.11175580e-02, -5.31740077e-02, -6.57069683e-02, -5.54176196e-02,  1.24031119e-02, -2.62348782e-02,  1.50376149e-02,  4.95697744e-02,  4.35169078e-02, -2.69104857e-02,  4.52615134e-02,  8.12343955e-02, -3.46334726e-02, -2.87734978e-02, -5.48255742e-02, -5.98535948e-02, -3.70834246e-02,  8.16084892e-02,  6.39307573e-02},
 {-5.34362942e-02,  4.37624045e-02,  2.37233043e-02, -1.32959569e-02,  4.32277052e-03, -2.31919177e-02,  4.94493097e-02,  8.11714679e-02, -9.63962171e-03, -7.09373727e-02,  2.39103343e-02, -4.59068306e-02, -7.47785866e-02,  8.31462592e-02, -4.12584431e-02,  7.51056895e-02,  2.37987209e-02,  2.71054842e-02,  4.42472063e-02,  3.22155729e-02,  2.73126047e-02, -1.20958909e-02, -9.15941969e-03,  7.78075904e-02,  6.42268732e-02, -6.36944547e-02,  2.26141531e-02, -5.08140353e-03, -2.46499851e-02, -5.12593761e-02, -5.87132685e-02, -5.41468970e-02, -6.15694337e-02, -2.81670975e-04, -2.27354206e-02,  5.69382198e-02, -2.17146110e-02, -3.79343741e-02, -3.27571779e-02,  2.12715026e-02},
 {-5.48666902e-02, -3.69201414e-02,  6.62029013e-02, -3.75353321e-02, -4.99318652e-02, -2.61402037e-03,  4.89458069e-02, -3.16074453e-02,  5.76405972e-02,  4.75258715e-02,  7.38362223e-02, -3.12633589e-02, -4.77921143e-02, -4.38219197e-02, -6.26577586e-02, -8.87559056e-02,  2.58204322e-02,  6.49497434e-02,  1.16177820e-01, -3.83734740e-02,  4.63588350e-03,  3.17319296e-02,  8.82350057e-02,  1.36288442e-02, -7.82613829e-02, -1.30799385e-02,  1.32262614e-03,  1.89825930e-02,  4.33850624e-02, -4.94818315e-02,  1.38762491e-02, -1.68489618e-03,  2.79112104e-02,  8.05757269e-02,  7.69549161e-02, -7.52985626e-02,  6.08833656e-02, -1.70673504e-02, -7.58371577e-02,  1.59852896e-02},
 { 1.62257999e-02,  8.05054009e-02, -3.02197635e-02, -2.92136390e-02,  5.56090027e-02,  1.94299519e-02,  1.53650381e-02,  4.60503474e-02, -6.01781271e-02, -4.07504812e-02, -3.68830957e-03,  6.27773553e-02,  1.41041605e-02,  5.83489984e-02, -2.36435188e-03, -4.43185493e-02,  1.41183368e-03,  3.34466845e-02, -2.65122894e-02, -6.97240755e-02,  3.43880430e-02,  3.73898037e-02, -2.29580905e-02,  2.21007932e-02, -2.75870189e-02, -5.16844392e-02, -2.36217421e-03,  1.89701729e-02,  6.07087724e-02,  2.55316170e-03, -8.18719715e-02,  4.04691696e-02,  5.40515920e-03, -4.71629668e-03, -2.59781047e-03, -3.08885463e-02,  6.66259080e-02, -1.88339502e-02,  1.48074003e-02,  7.02228025e-02},
 {-6.18556440e-02, -5.37752286e-02, -3.36567573e-02,  2.04332769e-02,  2.04756763e-02,  5.40729910e-02, -1.08806312e-03, -1.09553531e-01, -1.05579314e-03,  1.83511768e-02, -1.08670086e-01, -6.77648187e-02,  8.78724176e-03,  6.85370490e-02, -3.71770412e-02,  4.82331887e-02, -4.45894226e-02, -5.96586540e-02,  9.98343080e-02, -5.63460663e-02,  2.16438044e-02, -1.07220814e-01,  8.48253071e-02, -6.73184693e-02, -5.36946654e-02,  7.78734982e-02,  5.33706397e-02, -2.26788484e-02, -6.83355406e-02,  1.29079586e-02, -6.25286996e-03,  3.10044754e-02,  9.50924978e-02, -7.13013485e-02, -6.12365529e-02,  3.03619802e-02, -4.99102362e-02,  3.69465910e-02,  4.44694869e-02, -1.64435599e-02},
 {-2.03812383e-02,  7.55588263e-02,  9.48331319e-03, -5.00968918e-02,  7.54370296e-04,  2.92103663e-02,  8.24647248e-02,  4.16415259e-02, -7.31134713e-02,  6.54160306e-02,  3.95910814e-02, -4.42463309e-02,  8.33798200e-03,  6.44550994e-02,  6.81575015e-02,  2.17670798e-02, -4.99015413e-02,  2.63324883e-02,  8.10458288e-02,  8.31531584e-02,  2.84746513e-02, -9.92190614e-02, -5.48607484e-02,  3.34931873e-02, -5.26763871e-02,  6.25594705e-02, -3.64126824e-02, -2.02123597e-02, -2.36499384e-02,  1.86543502e-02,  6.70595095e-02, -3.20856050e-02, -5.45457378e-03, -3.94661352e-02,  2.16321182e-03, -6.23781458e-02,  8.14776346e-02,  6.30125254e-02,  2.30839476e-02, -4.61736973e-03},
 { 2.74075419e-02,  3.33194137e-02,  9.14793555e-03,  6.58711717e-02, -1.77716110e-02,  1.04590334e-01,  8.75964239e-02, -4.23589796e-02,  3.61883081e-02,  5.13978377e-02, -5.58623560e-02, -8.80996883e-02,  2.99049355e-02,  7.71866962e-02, -1.04479939e-01,  6.31324425e-02, -1.74830090e-02, -9.32288691e-02,  7.35393241e-02, -4.19033319e-02, -1.06597587e-03, -8.81117061e-02, -3.99985090e-02,  3.34614217e-02,  9.54414066e-03,  4.77835210e-03, -5.28239682e-02, -1.62882730e-02,  2.36431211e-02,  2.19787955e-02, -2.64338031e-02, -3.19303386e-02,  1.46517828e-02, -1.36577627e-02,  5.42105250e-02, -2.14618240e-02,  1.02803066e-01,  5.61093576e-02, -6.24144711e-02, -8.27829074e-03},
 { 5.56713641e-02, -7.82143474e-02, -9.59930867e-02, -3.89735736e-02,  9.72566977e-02,  9.04514343e-02, -3.43991444e-02, -7.23473504e-02,  2.46375073e-02, -3.48910876e-02,  4.11415696e-02, -7.38788024e-02,  3.32185216e-02, -6.25206679e-02,  6.17663898e-02,  6.95963949e-02,  2.49039475e-02, -1.02748118e-01,  8.51138681e-03,  5.16188405e-02,  5.02642915e-02, -3.75695415e-02,  3.50646041e-02,  3.55859138e-02, -1.21137053e-02,  3.96954902e-02, -2.78409254e-02, -4.38312329e-02,  1.18703760e-01,  5.62689155e-02,  6.78419545e-02,  6.72848225e-02,  4.63984571e-02, -4.90346104e-02,  5.32431342e-02, -5.55607304e-02, -4.58442681e-02, -5.64231575e-02, -9.96471420e-02, -5.34722321e-02},
 { 2.82771885e-02,  6.96813539e-02, -3.80245559e-02, -3.53469476e-02,  1.26878276e-01, -5.95870353e-02,  5.38183935e-03,  6.45255717e-03, -2.01726481e-02, -1.36105024e-04, -4.36603911e-02, -3.02743297e-02, -4.42969473e-03,  3.70089523e-02, -8.20216909e-02,  2.73033176e-02, -3.63669768e-02,  2.55366531e-03,  3.19129676e-02, -8.74669477e-03, -1.10119386e-02, -1.13744825e-01,  8.56436267e-02,  7.18196183e-02, -4.44088615e-02, -2.70114783e-02, -8.21159128e-03, -6.43805563e-02,  4.12654467e-02, -4.86576520e-02,  5.95131554e-02,  8.90171900e-03, -1.19389631e-02, -7.67769963e-02,  3.09565663e-03, -9.69569162e-02, -2.48991209e-03,  6.42213523e-02, -9.12141800e-03, -8.16532448e-02},
 { 2.71206978e-03,  2.00267751e-02,  1.89817101e-02,  8.17595236e-03, -3.24910991e-02,  6.07043244e-02,  7.06438646e-02, -8.46709125e-03, -4.10131132e-03, -2.43868325e-02,  4.69662957e-02, -1.08810617e-02, -4.11765277e-02,  7.01236352e-02, -9.05886516e-02,  4.59875837e-02, -4.35591489e-02, -5.32391816e-02, -7.69028068e-02,  1.08763650e-01, -3.93743590e-02,  4.13844325e-02, -4.30346280e-02,  6.95172697e-02,  4.72467169e-02, -4.92546968e-02, -4.13959213e-02, -2.79540867e-02,  5.54380864e-02, -4.89571467e-02,  4.47423831e-02,  2.97354497e-02,  9.32344943e-02, -5.90275638e-02, -2.86280885e-02,  1.43411336e-02,  6.39645085e-02,  1.28604351e-02,  6.32077008e-02,  1.44176036e-02},
 { 6.55561537e-02,  9.42982659e-02, -1.02527507e-01,  3.98007743e-02, -6.43629655e-02, -8.35312977e-02, -2.32448038e-02, -4.40711854e-03,  8.79166573e-02, -6.04841635e-02, -7.97020420e-02, -8.78281891e-02, -2.84233899e-03, -5.67523576e-02, -1.41973058e-02, -5.45206256e-02, -7.48576149e-02,  4.04655598e-02,  4.59177531e-02,  2.37230044e-02, -3.48596222e-04, -1.02177687e-01,  4.79610916e-03,  1.62755679e-02, -3.26625891e-02, -9.60387196e-03,  2.87545417e-02, -3.71353365e-02,  3.16881426e-02,  1.89258419e-02, -5.58685064e-02, -5.98712787e-02,  7.46921152e-02, -1.05408043e-01, -9.06267390e-02, -4.35683951e-02,  6.19934984e-02,  3.31957415e-02, -3.98485139e-02, -1.72179844e-02},
 {-7.86695350e-03, -3.33719887e-04, -3.03565674e-02, -4.69145365e-02,  7.55131384e-03,  2.03763377e-02,  4.52839062e-02, -6.37801588e-02,  5.20711578e-02,  4.59404327e-02,  7.67383426e-02,  6.52612299e-02,  5.37131652e-02,  4.34722677e-02, -1.14112506e-02, -1.01482466e-01, -5.85753545e-02, -5.41169569e-02, -8.31839349e-03,  1.01634882e-01,  4.59444374e-02,  2.35133246e-02,  3.25221531e-02, -6.94120005e-02, -1.42261693e-02, -4.60783094e-02,  1.88926235e-02, -7.10026994e-02,  9.20969527e-03,  5.93542047e-02, -3.38908564e-03, -8.65579396e-02,  1.14006899e-01,  4.37448099e-02,  4.20072563e-02,  7.86914211e-03,  1.07584141e-01,  7.04099610e-02,  2.44192258e-02,  9.95005202e-03},
 { 7.89690539e-02,  8.94222930e-02, -8.61209929e-02, -4.95142080e-02, -3.13019082e-02,  8.94423015e-03, -6.29324690e-02, -3.10937781e-02,  1.83283333e-02, -5.03167994e-02,  5.37974872e-02,  2.79988721e-02, -2.39402484e-02,  3.97334695e-02, -1.71608981e-02,  1.14238251e-03, -9.67520848e-02, -5.85828312e-02,  1.12185441e-02, -5.39877340e-02, -3.78797613e-02,  5.59684969e-02, -2.11953297e-02,  3.94517109e-02, -1.94617100e-02, -1.08502507e-02,  6.59131706e-02,  8.15233812e-02,  9.20242742e-02,  5.46279848e-02,  3.75572443e-02, -4.59503662e-03, -2.84919588e-06, -3.23438160e-02,  6.82501122e-02, -6.58605546e-02,  9.09816399e-02,  2.88596489e-02,  4.34127189e-02,  3.49919014e-02},
 { 8.40514302e-02,  8.33333731e-02, -1.19528165e-02, -4.02205102e-02,  4.08332944e-02, -7.83397928e-02, -5.32829762e-02,  4.99448813e-02,  7.48278424e-02, -9.24284291e-03,  7.50315636e-02,  1.76207703e-02, -9.72336754e-02, -4.22240570e-02, -8.30101594e-02, -7.83601254e-02, -6.23540021e-02, -6.23546466e-02, -6.15443848e-02, -1.25519726e-02,  8.70044716e-03, -8.79571680e-03,  4.95437384e-02, -8.10480565e-02, -8.82561058e-02, -3.90403345e-02,  2.98351943e-02, -5.88367321e-02,  2.88047716e-02,  5.76052479e-02,  6.29700869e-02, -8.73978287e-02,  1.15509801e-01, -3.08265444e-02,  7.90756568e-02, -3.72593887e-02, -5.92532195e-02, -4.85120490e-02,  4.26985100e-02, -9.50282998e-03},
 {-5.24661317e-02,  1.23637281e-02,  1.16956455e-03,  3.84023972e-02, -2.53523123e-02,  4.72086668e-02,  3.24544497e-02,  5.52337244e-02,  6.67860135e-02, -6.84811324e-02,  7.66415298e-02, -5.23936749e-03, -5.87741174e-02,  9.86059103e-03, -1.93408821e-02,  5.34152202e-02, -6.02981448e-02,  2.86903847e-02,  8.45127478e-02,  5.32984808e-02, -8.83284733e-02, -1.53724886e-02, -6.67720363e-02, -8.61117020e-02,  3.99856605e-02,  5.43756485e-02, -9.04254802e-03, -4.98730503e-02, -2.23868806e-02,  4.23896201e-02,  6.22138381e-02, -1.67559665e-02,  7.51881450e-02, -6.17872849e-02,  1.72456391e-02, -6.69112578e-02, -7.32753426e-02,  3.48543748e-02,  7.86301419e-02, -4.41337228e-02},
 { 8.94370750e-02,  6.67907447e-02,  3.76190059e-02,  3.65184769e-02,  9.56971794e-02, -7.63965249e-02,  7.39593059e-02,  4.31149676e-02,  4.06130925e-02,  4.13627252e-02, -1.05573451e-02, -5.92287146e-02,  5.59600033e-02,  2.60244012e-02, -1.94123518e-02, -7.72445556e-03, -4.25797477e-02,  1.46910758e-03, -7.06521347e-02, -7.18817189e-02, -7.27429241e-02, -2.81091984e-02,  1.03445211e-02, -8.26520249e-02, -4.07756008e-02, -2.86683650e-03, -2.74483934e-02, -4.98455390e-02, -2.10620388e-02,  3.43741290e-02,  4.84857783e-02,  4.09177952e-02, -3.63280959e-02,  1.12607172e-02,  4.58717495e-02, -6.70188293e-02, -9.69987661e-02,  7.29148090e-02, -1.94223411e-02, -4.46776301e-03},
 { 9.30272639e-02, -7.28948936e-02, -3.08801290e-02, -1.65494427e-03,  9.41140503e-02,  1.29546402e-02, -1.40760764e-02, -3.57090347e-02, -7.03784004e-02,  3.21992263e-02,  8.10297497e-04, -9.06645358e-02, -6.93477243e-02, -8.12542364e-02, -9.99309346e-02,  4.81969044e-02, -5.62495068e-02,  6.23521209e-02,  9.07850266e-02, -6.90299869e-02, -4.12299782e-02,  4.76642773e-02,  4.52522514e-03,  3.79628614e-02,  6.37084916e-02, -8.95212311e-03, -5.75197265e-02,  4.87026088e-02,  6.30870387e-02,  1.94212385e-02,  6.12385236e-02,  3.82458530e-02,  2.70630401e-02, -6.53491393e-02, -2.92546339e-02, -1.57610495e-02, -8.62848572e-03,  8.06008205e-02, -7.17725232e-02,  6.01038598e-02},
 {-3.24622467e-02,  4.46903240e-03,  3.37543823e-02, -8.86608660e-02, -7.09604546e-02, -3.45964618e-02,  3.85265835e-02, -9.16562006e-02,  5.10208569e-02,  5.00841960e-02,  3.12415157e-02, -7.07926676e-02, -2.82908399e-02, -2.10096706e-02, -4.49521467e-03, -5.72948232e-02,  2.96631698e-02, -3.78021151e-02,  4.22723144e-02, -5.45815118e-02, -5.08637764e-02,  5.85663244e-02,  5.19794375e-02, -8.81159753e-02, -2.94215698e-02,  3.85685265e-02,  2.06460450e-02,  8.82261619e-02,  4.67110910e-02, -5.18292561e-02,  7.80937355e-03,  6.56850934e-02, -8.86939541e-02,  6.76980317e-02, -4.09139656e-02,  3.91674414e-02,  2.93633584e-02,  1.29151773e-02,  6.72555789e-02, -5.43064363e-02},
 { 4.07624654e-02, -5.96714430e-02, -2.01933738e-02,  2.05977689e-02, -7.33794570e-02, -3.79489758e-03, -1.80426948e-02, -3.23769413e-02,  7.90926255e-03,  3.37149724e-02, -9.63685066e-02,  6.65425360e-02, -3.34158093e-02,  6.09744042e-02, -5.83715625e-02,  1.07996725e-02,  2.17284299e-02,  1.04005011e-02,  6.16641715e-04, -6.41712770e-02, -8.21501911e-02,  7.57277384e-02,  3.92229743e-02, -1.39960914e-03,  4.24376503e-02, -1.40802283e-02, -6.82798773e-02, -7.71227181e-02, -7.61025995e-02,  4.20493037e-02, -6.02565110e-02,  3.85752507e-02, -3.88451219e-02,  2.40733027e-02,  2.51093917e-02,  4.33280915e-02, -2.47599185e-02,  1.98754072e-02,  6.83193207e-02,  7.57808760e-02},
 {-5.15127592e-02,  5.86858131e-02,  6.00790121e-02, -2.99920216e-02,  1.94215644e-02,  5.07463589e-02, -3.87262926e-02,  1.95423397e-03, -3.99695560e-02, -4.07153778e-02,  3.52516212e-02, -2.33980175e-02, -3.61819542e-03, -3.67430188e-02,  8.41609910e-02,  2.69577280e-02,  6.73631206e-02, -3.62543613e-02, -5.20002879e-02, -7.36461803e-02,  5.25255613e-02,  7.40749687e-02, -1.95102505e-02, -2.65982207e-02, -5.06952628e-02,  7.59469206e-03,  2.58433055e-02,  4.83785346e-02, -9.30652469e-02,  7.87475482e-02,  2.40306202e-02, -4.88358811e-02, -1.80166606e-02,  3.03773396e-02, -5.87910973e-02, -1.74991743e-04,  6.00095093e-02,  5.92832007e-02, -6.72411174e-02, -1.83784943e-02},
 { 5.17734364e-02,  1.70673449e-02, -3.87400016e-02,  4.46110702e-04, -4.71161678e-02, -5.00339232e-02, -4.42248955e-02,  9.70133301e-03, -9.29241627e-03,  3.67188118e-02, -2.18603946e-02, -3.71246040e-02,  2.54013482e-02, -2.04255544e-02, -1.79262348e-02, -7.41776312e-04,  3.82585311e-03,  4.21659052e-02,  8.88831094e-02,  4.35178094e-02, -2.79805120e-02, -5.71987033e-02, -4.29616682e-02, -8.70720111e-03,  4.06927355e-02, -6.90153018e-02, -5.15496172e-02, -2.44486965e-02,  5.56400940e-02,  4.23110425e-02, -7.53514543e-02,  7.67335817e-02, -4.94416058e-02,  8.38690475e-02, -3.41729894e-02,  4.12293710e-02, -2.30481775e-04,  8.36853459e-02,  7.34676048e-02, -3.37517485e-02},
 {-4.56490479e-02, -5.98946065e-02,  2.61995103e-02, -2.97864564e-02, -6.58339411e-02, -1.57073792e-02,  2.63778642e-02,  1.55107426e-02, -2.71971971e-02,  2.72931661e-02,  6.26303405e-02,  3.89653142e-04, -5.22693507e-02,  5.00815138e-02, -6.23230599e-02, -5.74821644e-02,  1.82516426e-02,  7.54876658e-02,  3.32310721e-02,  1.19476998e-03, -7.01841041e-02, -1.67017486e-02, -3.80587019e-02, -4.41734446e-03,  5.64383203e-03, -3.16467881e-02, -3.14292945e-02, -2.29191110e-02, -2.44281138e-04, -5.58690578e-02, -2.58088578e-02,  8.97388607e-02, -9.05162022e-02,  8.62140059e-02,  4.84332852e-02, -4.76399995e-02, -5.86645491e-02,  6.03613295e-02, -6.06393628e-02,  4.08750139e-02},
 { 3.81155945e-02, -1.49465157e-02,  9.60221887e-02,  1.35264518e-02, -5.19518591e-02,  4.94721644e-02,  5.85023649e-02, -6.52476698e-02, -2.26562805e-02, -3.83267812e-02, -3.37547474e-02, -3.06382719e-02,  5.11428006e-02,  1.93042364e-02,  9.78237577e-03,  3.40340026e-02, -5.02334572e-02,  9.33384523e-03,  3.61803882e-02, -8.00189003e-02,  4.78702858e-02, -8.09534341e-02, -7.67938569e-02,  7.77822221e-03, -2.30176486e-02, -2.83460971e-02,  6.68535233e-02,  3.88094713e-03, -8.26146975e-02,  4.75919396e-02, -7.81578496e-02, -6.87849671e-02, -6.83205500e-02,  1.27833318e-02, -8.05598721e-02, -7.49397725e-02, -6.65112510e-02,  4.95437458e-02, -2.81712925e-03,  3.83229554e-02},
 { 3.78719121e-02,  1.48863168e-02,  7.94075429e-02, -4.07408662e-02, -1.27487546e-02, -5.08786254e-02,  2.52544731e-02,  6.09598123e-02, -6.94252923e-02,  3.34097035e-02,  1.33026410e-02, -6.95322752e-02, -5.52307032e-02, -3.29478867e-02, -7.64835924e-02, -1.41000953e-02, -3.03513892e-02,  2.45067887e-02, -5.38232503e-03, -6.51642680e-02, -5.16812550e-03, -1.89608745e-02, -3.06415893e-02, -3.48040275e-02, -2.82080844e-02,  8.14224631e-02,  1.54408766e-02, -5.58783077e-02,  3.14966589e-02, -1.63932121e-03,  7.93239474e-02,  3.96437086e-02, -4.78191860e-02, -2.01061517e-02,  7.28031546e-02,  2.91014407e-02, -2.28633322e-02, -1.07221864e-02,  3.01313680e-02,  6.21843040e-02},
 { 2.04612911e-02, -8.40920657e-02,  6.13876842e-02, -1.04581814e-04,  9.31335799e-03,  7.34663904e-02, -5.87192327e-02, -3.53257619e-02, -2.12352653e-03, -2.21780618e-03, -2.29700860e-02, -2.29534060e-02, -1.03360666e-02,  3.86176892e-02, -6.25076368e-02,  6.10785149e-02,  5.01999408e-02,  3.02580092e-03,  2.33620740e-02, -7.67303854e-02, -8.28987733e-02, -5.24545684e-02,  6.72425851e-02, -3.97451296e-02, -2.80552637e-02,  1.84577145e-03,  8.25860277e-02, -8.13681632e-02, -1.42212193e-02,  5.50228395e-02, -3.07373907e-02, -5.10452762e-02, -5.35365865e-02,  3.57634178e-03, -4.23627421e-02, -2.15297937e-02,  1.04127014e-02,  7.88513571e-02,  1.01061992e-03,  4.08188887e-02},
 { 4.42468226e-02,  2.85584237e-02,  7.71973580e-02, -3.21789309e-02,  1.25268381e-02,  6.93658814e-02,  7.34285712e-02, -4.99261506e-02,  8.32877681e-02,  6.43007532e-02, -5.10403998e-02, -1.81584992e-02,  4.53534052e-02,  6.84325323e-02, -3.92894493e-03, -1.20528685e-02,  2.18399186e-02,  3.74261104e-03,  8.64750892e-03, -4.89572138e-02,  4.11960892e-02,  5.29097132e-02,  4.96967584e-02, -3.56358178e-02, -8.35297909e-03, -5.43200783e-02, -6.79373741e-02,  5.57602197e-02, -6.76079094e-02, -2.11984478e-03, -1.37388604e-02, -5.20529114e-02, -4.62522544e-02,  2.18216404e-02,  1.74293816e-02, -6.36648983e-02,  8.23026076e-02, -5.25433868e-02, -2.78403349e-02,  3.36522833e-02},
 {-5.46388328e-03,  7.91915506e-02, -6.08437285e-02,  2.81388462e-02,  6.38574958e-02, -4.85586822e-02,  9.36920196e-03, -5.04886433e-02,  2.87360251e-02,  4.15968299e-02,  4.31047380e-02,  1.79425776e-02,  5.17874956e-04, -8.32914039e-02,  5.83465695e-02, -4.97126766e-02, -3.96659747e-02,  6.44018799e-02, -4.99718860e-02,  6.86046183e-02,  7.61052817e-02, -6.31820709e-02,  2.08747387e-03, -4.09093052e-02, -7.69236833e-02,  8.46923143e-02, -3.70871797e-02,  6.41591549e-02,  7.06892163e-02, -5.97936772e-02,  3.45535278e-02, -5.16656898e-02,  6.68284744e-02, -5.41905127e-02, -6.44645095e-03,  2.57732868e-02, -5.02879433e-02,  8.23805481e-02,  5.30642718e-02, -1.01170689e-03},
 {-1.63503864e-03,  1.32857710e-02, -4.07404080e-03,  7.04997778e-02,  5.59174195e-02,  5.82336970e-02,  1.51151363e-02,  8.28257203e-02, -2.51909140e-02,  3.88822379e-03, -4.29352634e-02, -7.28814527e-02, -5.28720580e-02, -6.20282330e-02,  1.04828728e-02,  2.64801402e-02,  3.92877460e-02, -2.76007093e-02,  5.02058417e-02,  2.37092040e-02, -3.85696888e-02, -2.85449624e-02,  2.95950528e-02, -5.81774190e-02,  3.45476940e-02, -1.00100059e-02, -7.46110156e-02,  4.38651145e-02,  1.54642807e-03, -2.14608591e-02, -1.74077824e-02,  4.33711410e-02,  3.90095077e-02,  8.54155049e-02,  2.09071841e-02,  5.19051626e-02, -3.69987972e-02,  1.33932298e-02, -1.02799255e-02, -3.77574493e-03},
 { 2.12698970e-02,  6.99923187e-02, -2.44836938e-02, -1.39396358e-02,  4.61417697e-02, -1.91689339e-02,  7.80284056e-04,  2.81834006e-02, -2.63752583e-02,  5.17479815e-02, -5.66461124e-02,  2.10148804e-02,  5.76353706e-02,  7.31939916e-03, -8.21722895e-02, -3.27977315e-02, -3.32023352e-02, -1.18703451e-02, -3.12238112e-02, -8.61201733e-02,  5.78259863e-02,  3.19487089e-03,  8.03783312e-02,  3.41232792e-02,  5.02743125e-02, -1.88679192e-02,  6.12255111e-02, -4.90200557e-02, -1.40957460e-02,  6.65430576e-02, -6.55234139e-03,  3.95882986e-02, -8.50284025e-02,  3.90942954e-03,  2.99595733e-04,  5.88988587e-02, -4.06492651e-02,  7.04980046e-02, -4.29343730e-02, -7.49359354e-02},
 {-1.11493776e-02,  3.77809219e-02, -3.88151854e-02,  2.86445469e-02,  6.58045486e-02,  2.46660952e-02,  3.61993723e-02,  7.74668455e-02,  7.02807158e-02,  2.58313473e-02, -2.38268189e-02,  5.47288470e-02, -7.25186840e-02,  3.26594757e-03,  5.98324314e-02,  8.20761919e-02,  1.98810315e-03,  6.78362772e-02, -6.55669570e-02, -7.12585673e-02, -1.21976128e-02,  5.11820614e-02, -1.79148763e-02, -2.19884254e-02, -2.70179957e-02,  5.39837219e-02,  7.37815872e-02,  6.77130148e-02, -8.09048265e-02,  5.01369834e-02,  4.82545011e-02,  2.38117371e-02,  5.51268905e-02, -1.77531354e-02, -6.79792389e-02,  4.33588848e-02, -1.91444401e-02, -8.28739181e-02, -1.12803723e-03,  3.77557389e-02},
 {-1.59728788e-02,  8.26641917e-03,  7.90758338e-03,  2.52619609e-02,  1.89536139e-02,  3.70484777e-03,  3.28185856e-02, -6.12615459e-02, -6.04984276e-02, -7.17236847e-02, -6.31764010e-02,  1.88992992e-02, -8.34060386e-02,  7.39890710e-02,  2.01404653e-02,  4.59279586e-03,  8.27476755e-02,  1.08389288e-01,  8.59729946e-02,  7.66917272e-03, -6.96700811e-02,  1.72232296e-02,  5.17522730e-02, -2.99538337e-02,  5.61828092e-02,  1.43778361e-02,  3.13927755e-02,  6.62650466e-02, -6.28605932e-02, -6.37038499e-02,  4.36906777e-02, -2.47333869e-02, -7.60706812e-02, -2.09308825e-02,  5.80533296e-02, -4.52866405e-02,  3.73166278e-02,  4.90493327e-02,  4.26870361e-02, -8.80367309e-02},
 {-5.56483807e-04, -8.31511617e-03,  6.36774600e-02,  6.88743591e-02,  2.68986300e-02,  8.78462270e-02,  1.08441498e-04,  6.16198741e-02,  3.71733047e-02,  4.29696925e-02,  2.30843667e-02, -5.13719171e-02,  1.80096496e-02, -2.00757701e-02, -2.89664604e-02,  6.83078766e-02,  9.49370563e-02, -6.59819245e-02,  4.44839522e-03, -4.13409136e-02, -3.09921708e-02, -1.27966078e-02, -3.59622575e-02, -3.85511890e-02,  4.36268300e-02, -2.71494891e-02,  7.16266185e-02,  9.04459041e-03,  6.52975366e-02, -4.75307070e-02, -5.78954034e-02,  5.08527197e-02,  6.52977312e-03, -7.27838138e-03, -1.08963381e-02, -7.81634971e-02, -3.84410843e-02, -5.34789488e-02, -3.21337804e-02,  3.68798412e-02},
 { 4.03101929e-02,  7.87996650e-02,  3.95041145e-02, -1.81544516e-02,  3.78990248e-02, -5.53842597e-02,  7.21777091e-03, -7.39380866e-02, -4.18918170e-02, -1.29679311e-02, -1.06438637e-01,  2.05687601e-02,  8.60809386e-02,  4.90320325e-02,  1.37111489e-02,  5.32131605e-02, -6.74195811e-02, -5.72623499e-03,  1.00232940e-02, -5.98377176e-03, -4.25856449e-02, -5.25287427e-02, -5.33103496e-02, -8.46030414e-02, -9.99168232e-02,  3.08432691e-02,  2.20894981e-02, -6.79805875e-02, -6.32514581e-02, -3.50650363e-02, -3.05813197e-02,  6.78883940e-02,  6.67154565e-02,  9.15668346e-03, -4.88299690e-02, -8.39374438e-02,  7.67467692e-02, -3.56814712e-02, -1.10218311e-02, -7.58173093e-02},
 {-2.71172989e-02,  1.07273855e-03, -3.23214643e-02, -3.29046436e-02, -2.96604671e-02,  3.27911004e-02, -5.33022657e-02, -5.81233278e-02,  7.99247101e-02, -3.00688483e-02,  3.78339104e-02, -8.18830058e-02,  1.21025406e-02,  6.33148253e-02,  4.83348109e-02,  6.19329214e-02, -7.22601786e-02, -1.46752149e-01, -1.96821559e-02,  1.17395697e-02, -6.57595769e-02, -9.04585123e-02, -5.79605922e-02,  6.17931820e-02, -1.01302572e-01, -7.82838538e-02, -2.21829936e-02, -5.25210835e-02,  8.21707398e-02,  4.04855162e-02, -7.32113346e-02, -3.09432130e-02, -2.77984608e-02, -4.01435904e-02,  4.00678851e-02, -9.54519138e-02,  8.55646208e-02, -4.57027517e-02, -8.23207498e-02,  5.80023825e-02},
 {-2.90373378e-02, -3.58934440e-02, -7.25744739e-02, -6.79139569e-02,  3.05921957e-02,  2.35872567e-02,  1.07826605e-01,  2.71038450e-02,  6.44390881e-02, -7.21089020e-02, -7.36361444e-02, -9.91519615e-02,  6.76955879e-02, -6.78839833e-02, -5.47987819e-02,  9.62787792e-02,  2.16419082e-02,  1.24431949e-03, -1.54708996e-02,  7.24524260e-02,  1.75436847e-02,  5.85485324e-02, -6.50234669e-02, -1.03445426e-01,  2.88961176e-02,  2.84028817e-02, -4.47030514e-02, -1.78547259e-02,  2.80213319e-02,  3.92808765e-02, -3.82458344e-02, -7.95182139e-02,  2.20687650e-02,  1.91294290e-02, -2.02006754e-03, -5.09964749e-02,  7.87932649e-02,  4.00312468e-02, -4.97723883e-03,  8.39113146e-02},
 {-5.52485697e-02,  9.03782099e-02, -8.36809278e-02,  7.80169212e-04, -1.17616888e-04, -4.42531072e-02, -3.85424383e-02,  4.44247983e-02, -7.08090514e-02,  3.28186564e-02, -5.44327535e-02,  1.86227020e-02,  5.46307117e-02,  1.66651271e-02, -7.55076632e-02,  1.80626009e-02, -1.19411163e-02, -1.49429768e-01, -5.53185157e-02,  7.04434291e-02,  5.12064882e-02, -1.41964117e-02, -4.70418483e-02, -7.54663944e-02, -4.50020768e-02, -2.75853034e-02,  7.49372244e-02, -7.59565082e-05,  9.68376994e-02, -3.47734541e-02,  1.97003270e-03, -7.79447183e-02,  1.08222112e-01, -8.72936323e-02, -8.57097656e-02, -7.76022598e-02,  8.64849091e-02, -8.37161317e-02, -5.50396815e-02,  2.70294175e-02},
 { 1.78507306e-02,  7.63476491e-02, -9.35198069e-02,  5.49541153e-02,  1.04500592e-01, -4.53087725e-02,  9.53368843e-02, -2.15442274e-02,  3.07819974e-02,  3.73430960e-02, -2.73111593e-02, -4.86393385e-02,  5.56646362e-02,  7.19601139e-02, -1.00328416e-01,  1.90768652e-02,  3.04014478e-02, -5.85671589e-02, -5.23155257e-02, -1.84533074e-02,  4.75480072e-02,  1.56844091e-02,  6.51466250e-02,  1.29731651e-02,  9.94809251e-03, -5.18436991e-02, -5.85262887e-02, -4.99460800e-03,  1.92590728e-02, -6.95204586e-02,  2.52931565e-02, -5.38344383e-02,  8.02090168e-02, -1.18754776e-02, -1.15051448e-01, -4.87475619e-02,  5.59422784e-02,  7.62893409e-02, -1.05170934e-02, -6.85800537e-02},
 {-4.51402850e-02, -6.04430810e-02, -9.41801667e-02,  2.03865636e-02, -2.73038521e-02,  7.27940500e-02,  1.17103629e-01, -5.37072532e-02, -5.23078553e-02, -6.74360693e-02,  5.70878349e-02, -7.74146989e-02,  4.09138203e-02,  4.18588705e-02, -1.01029590e-01, -1.30065633e-02, -3.86893004e-02, -1.02613918e-01, -1.49401231e-02, -9.35009774e-03, -2.58490462e-02, -9.58210230e-03,  2.33162772e-02,  3.81327840e-03, -4.90330495e-02, -1.19403936e-02, -6.40166849e-02,  4.39610407e-02,  1.46380082e-01,  5.73974028e-02,  3.86988446e-02, -7.65794218e-02,  6.54850751e-02, -1.04892865e-01, -2.56729638e-03,  5.91850560e-03, -6.96160132e-03, -6.58892766e-02, -9.82133597e-02,  4.54866178e-02},
 {-8.05385876e-04, -3.26668546e-02, -1.13486774e-01,  8.17835107e-02,  1.56863984e-02, -7.97071494e-03,  5.85146956e-02,  1.68882555e-03,  1.13561014e-02, -3.59425992e-02,  3.89556810e-02, -7.14474693e-02, -6.19096868e-02,  4.92298715e-02, -1.02851436e-01,  1.60089731e-02,  2.67560920e-03, -8.87153670e-03, -3.44825946e-02,  7.91959763e-02, -7.76036531e-02, -1.55473091e-02,  7.24062398e-02,  2.38343440e-02, -4.72974554e-02, -1.03995865e-02, -5.40447757e-02,  6.16949750e-03,  9.09939930e-02,  4.22119163e-02, -3.86236124e-02, -7.57232830e-02,  1.49165541e-02, -3.43632922e-02,  2.36552451e-02,  2.57481243e-02, -3.47558712e-03, -2.30560042e-02, -3.46589275e-02,  8.85970667e-02},
 { 1.24977082e-02,  2.54500769e-02, -5.76850176e-02, -2.46017165e-02, -6.31802678e-02, -6.21842816e-02,  9.81586948e-02,  8.82341191e-02,  6.30620196e-02, -1.90739823e-03, -6.97535500e-02, -7.57830516e-02,  1.87887289e-02, -5.92499366e-03, -9.62337628e-02,  1.00350995e-02, -1.21910781e-01, -1.00589707e-03,  5.53946942e-02,  8.11835006e-02,  3.35981883e-02,  8.25986937e-02,  1.06249191e-01,  3.95817729e-03, -8.18661824e-02, -1.45209022e-02,  1.57598723e-02,  5.80761917e-02,  5.07370420e-02,  5.21998443e-02,  5.78679591e-02, -8.85361899e-03,  1.59601197e-01, -5.29281758e-02,  3.49746719e-02, -6.31253347e-02,  1.32140573e-02, -2.12435871e-02,  6.45528063e-02,  2.68353149e-02},
 {-5.17831035e-02, -5.15169948e-02, -1.84867512e-02,  2.72596702e-02, -1.50684277e-02,  4.87680100e-02,  3.17927301e-02,  2.58532465e-02, -3.68225835e-02, -3.52230780e-02,  9.61590409e-02, -3.25407684e-02, -7.33884275e-02, -7.23476112e-02, -3.93619761e-02,  3.77398692e-02, -5.26371300e-02, -8.91328529e-02, -4.37041670e-02, -2.10222024e-02, -1.06413150e-02,  2.62567140e-02,  5.74827120e-02, -6.64795488e-02,  7.16731250e-02, -1.00753298e-02,  3.76396216e-02,  1.50987981e-02,  9.59148780e-02,  6.09880909e-02, -4.51399125e-02,  4.00826223e-02,  2.69042421e-02,  3.63382399e-02,  1.94085818e-02,  6.43571988e-02,  7.72269294e-02,  3.25949490e-02, -6.34407019e-03,  3.25760879e-02},
 {-7.30600655e-02,  4.92244326e-02, -1.29236698e-01, -6.03111349e-02,  1.32045234e-02, -6.04036413e-02,  7.03515112e-02, -6.56054839e-02,  7.38266632e-02, -2.19486142e-03, -6.71236813e-02, -8.22041854e-02, -4.67552245e-03, -7.93221444e-02, -1.69064179e-02, -6.13320805e-03, -2.76536252e-02,  4.20360900e-02,  7.00001121e-02,  6.08462133e-02, -2.86383294e-02,  2.50500422e-02,  8.66547413e-03, -8.34877789e-02, -2.11076662e-02,  8.00626948e-02,  1.86043121e-02,  7.05202296e-02,  7.85511658e-02,  7.12147728e-03,  4.26722877e-03, -1.18093975e-01,  1.45879999e-01, -6.50224239e-02,  3.07462141e-02,  7.42992014e-02,  3.56501192e-02, -8.13330465e-04,  9.33154300e-02,  7.61215985e-02},
 { 8.29118863e-02, -5.58432713e-02, -8.44406560e-02,  5.42725697e-02,  6.73559457e-02, -9.39262379e-03, -2.44317092e-02, -5.46588860e-02,  6.30759597e-02,  5.31420577e-03, -2.61675660e-02,  4.21937816e-02, -3.89454328e-02,  6.65226765e-03, -1.56782083e-02,  2.27596890e-02,  3.68425548e-02, -8.06373282e-05, -4.70566563e-03,  1.05865793e-02, -1.27095237e-01,  3.76328453e-02, -1.60655845e-02, -4.52594757e-02, -7.75157511e-02,  4.14525308e-02, -3.31643745e-02,  5.35363052e-03,  9.99164730e-02,  6.58557005e-03,  8.70304089e-03, -5.74558079e-02,  8.74577984e-02, -9.30113420e-02,  5.91693223e-02,  5.17242067e-02, -6.09246269e-03,  3.56621593e-02, -6.38072714e-02,  6.42386675e-02},
 {-2.56059580e-02, -1.52794935e-04, -6.28247634e-02,  7.09330961e-02,  7.64069632e-02,  4.44024988e-02,  6.72653168e-02,  1.37061784e-02, -2.21930165e-02,  8.63411697e-04, -8.26048926e-02, -5.06694056e-03,  3.96510437e-02,  6.37575611e-02,  4.47463132e-02, -3.21815237e-02, -7.63324648e-02, -6.17004558e-03, -1.67420786e-02,  8.00651833e-02, -2.15744097e-02, -5.30117899e-02, -5.83518147e-02, -2.34370064e-02,  4.91849035e-02, -5.64972535e-02, -1.12889692e-01, -3.85629088e-02,  8.62535536e-02, -3.10880803e-02,  1.01265967e-01,  1.18008871e-02, -4.12733033e-02, -6.02967478e-02,  2.15600822e-02, -7.50514939e-02, -4.31940258e-02,  7.80778825e-02,  9.23691969e-03,  4.76243049e-02},
 {-3.73813771e-02,  3.94664109e-02, -2.68612639e-03,  4.15256210e-02,  4.96180058e-02, -1.69762149e-02,  5.54977283e-02,  3.70213725e-02,  5.15294112e-02, -5.15369279e-03, -9.16709900e-02, -1.60064921e-02, -2.17338707e-02,  7.79664442e-02,  3.00206449e-02,  5.39658330e-02, -2.34042928e-02,  3.59363258e-02,  7.27606118e-02,  4.40620668e-02, -1.02026343e-01, -4.11321409e-03, -2.43442273e-03,  4.46366630e-02, -8.34992826e-02, -5.59487082e-02, -9.38910395e-02,  2.32863408e-02, -2.17458960e-02, -6.38100728e-02,  6.25956282e-02,  2.54342612e-02, -4.87890169e-02, -5.30423597e-02,  5.26885688e-02, -4.03225981e-02,  6.61123395e-02,  6.87005967e-02, -1.73898265e-02,  3.67584862e-02},
 { 2.15820093e-02,  3.46280038e-02, -5.09150443e-04,  6.22121394e-02,  6.27102852e-02, -2.85281818e-02, -1.33682797e-02,  1.75595898e-02, -5.82288310e-04,  6.40450567e-02,  3.85286883e-02,  5.94158377e-03,  4.35691662e-02, -6.41707182e-02,  3.01976204e-02,  4.67817038e-02,  6.44005463e-02, -4.87031303e-02,  7.31598288e-02,  4.89309318e-02, -2.38477867e-02,  2.72370502e-02, -2.41171848e-02, -3.65527086e-02,  8.41046311e-03, -3.85121107e-02, -7.59592280e-02,  7.47117028e-03, -8.49666521e-02,  5.69607764e-02, -5.64446189e-02, -3.36742066e-02, -2.05236319e-02,  1.97111275e-02,  4.55210619e-02, -2.50937399e-02, -6.79340586e-03,  1.00816302e-01,  6.59733079e-03,  8.36761817e-02},
 {-5.79411350e-02, -2.06892621e-02, -4.34416309e-02, -5.46509549e-02,  7.62001649e-02,  7.43694156e-02,  3.39740589e-02,  6.09593168e-02,  2.76256651e-02,  3.71046253e-02, -1.01446323e-01, -7.63368653e-03,  3.97870317e-02,  2.49388069e-03,  4.46854271e-02,  7.73562640e-02,  1.20162666e-01,  2.71687307e-03, -8.48093536e-03, -3.37383002e-02, -7.45263025e-02,  7.52833560e-02,  1.27098639e-04, -1.06972568e-02, -8.20124671e-02, -3.50475907e-02,  4.27990369e-02,  1.66343469e-02,  6.72568753e-02,  5.33832721e-02,  2.39456464e-02,  6.66112751e-02,  1.51092419e-02,  5.04312338e-03,  1.38011863e-02, -3.93941924e-02, -5.83897829e-02, -2.86902580e-03,  8.09351131e-02,  5.82357012e-02},
 { 6.47959709e-02,  2.60683615e-02, -3.14308293e-02,  3.02910432e-02,  8.81537143e-03,  4.81480286e-02,  6.96915761e-03,  3.16668376e-02, -5.68041913e-02,  2.58226879e-02,  3.93562987e-02,  4.81181927e-02, -5.04650176e-02, -4.94635105e-02, -3.85164283e-03, -7.39916787e-02,  1.15870880e-02,  5.13129272e-02,  7.82697182e-03,  6.18026890e-02, -9.34962407e-02, -1.26381610e-02,  2.27460731e-02,  8.19281042e-02, -3.23979221e-02,  5.48647605e-02, -8.77591819e-02,  1.95359327e-02,  4.22912650e-02, -4.62978333e-02, -4.13084999e-02, -9.35423840e-03,  1.63103512e-03, -2.37072036e-02, -6.57051429e-02, -3.41244712e-02,  6.10719584e-02,  2.93558873e-02, -3.23079922e-03,  6.59415945e-02},
 { 6.08238056e-02, -6.13322929e-02,  3.85885164e-02, -8.48814622e-02,  2.03282442e-02,  1.73661616e-02,  8.14023335e-03, -4.86561283e-02, -5.37620373e-02, -7.46408701e-02,  2.79865600e-02,  7.73550421e-02, -5.22617362e-02,  2.93893404e-02, -6.69184625e-02,  3.07892840e-02, -1.72792282e-02,  8.66717622e-02,  1.31306564e-02,  5.19711711e-02, -4.04966250e-02,  6.96849963e-03,  2.65917350e-02,  7.43653998e-02, -7.40525797e-02,  3.31918783e-02, -5.07173091e-02, -6.72209710e-02, -4.02415358e-02, -8.49519223e-02, -3.00330259e-02, -1.40116001e-02,  3.61278392e-02, -3.48376334e-02, -1.45949619e-02,  4.76823263e-02,  2.05142628e-02,  9.37293321e-02,  7.24351108e-02,  9.05662030e-02},
 {-4.00364548e-02, -6.97304159e-02,  3.66179608e-02, -5.42048588e-02, -8.79373029e-03, -1.29166702e-02, -2.08758526e-02, -5.14125563e-02, -6.12362884e-02, -7.92241693e-02, -8.01414922e-02, -5.81297241e-02,  4.87640500e-02,  2.67171934e-02, -4.73790169e-02, -4.51952079e-03,  8.47105309e-03,  1.60999410e-02,  1.46562383e-02, -9.26690735e-03,  2.24805567e-02,  8.87168348e-02, -1.89219303e-02, -6.55025020e-02,  1.21798702e-02, -6.05301186e-02, -1.39818499e-02,  2.42981743e-02, -4.65037972e-02, -8.52614790e-02,  5.96482418e-02,  8.48096386e-02, -8.17484856e-02, -4.65470627e-02,  5.44665158e-02, -5.79902120e-02,  3.03217825e-02,  4.08214256e-02,  1.97437406e-02, -4.79353890e-02},
 {-5.14526293e-02, -1.88597851e-02,  2.75945254e-02, -1.24782873e-02,  8.38259384e-02,  5.64659350e-02,  3.98684256e-02,  6.24203472e-04,  3.66882421e-02,  4.39909585e-02,  5.02624996e-02, -3.05028073e-02, -5.42994216e-03, -4.68845032e-02, -7.23850057e-02,  6.91542774e-02, -3.65032144e-02, -5.03018349e-02, -6.15725406e-02,  4.03386578e-02, -7.56432638e-02,  1.26001947e-02, -7.15382621e-02,  5.69268130e-02, -6.53603449e-02,  2.65772957e-02, -4.00152467e-02,  6.39252365e-02, -4.64225635e-02, -3.65993083e-02,  1.09387813e-02,  7.74100348e-02,  8.04912373e-02,  9.31676179e-02, -6.92348033e-02, -5.09544648e-02, -7.06181377e-02,  8.37681964e-02,  6.86901063e-03,  3.38457935e-02},
 { 7.72552937e-02,  5.51399626e-02,  1.12080639e-02, -8.16863552e-02,  3.76212457e-03, -6.46869689e-02, -5.88011667e-02, -3.15378383e-02, -6.10908531e-02, -2.92471964e-02,  6.95464462e-02,  6.43824860e-02,  5.82181178e-02,  3.71727869e-02,  5.05217053e-02, -7.07816929e-02, -2.23508961e-02,  8.95653293e-02,  6.02695607e-02,  1.90315116e-02,  6.63790330e-02,  6.67184070e-02,  7.13169873e-02,  1.73463579e-02, -5.50257191e-02, -5.25618307e-02, -4.58907289e-03,  4.62941118e-02, -7.35622346e-02,  1.93738274e-03,  7.12205842e-02, -7.20806867e-02,  4.12601680e-02,  4.08555381e-02, -7.61988293e-03,  5.16457036e-02,  8.89400113e-03, -7.82883540e-02,  3.00719459e-02, -2.15078574e-02},
 {-7.23108053e-02, -3.91835012e-02, -1.05434668e-03, -6.25862507e-03,  8.08238760e-02, -5.86822480e-02,  4.68054637e-02,  9.04915109e-03, -7.42460862e-02,  6.67570531e-03,  4.80480716e-02, -8.31053630e-02, -3.62808001e-03,  3.75784095e-03,  4.24382649e-02,  1.05393259e-02, -5.30604757e-02, -6.44056350e-02,  4.30245930e-03,  8.27764273e-02,  3.99010926e-02, -3.64855155e-02, -3.18905562e-02, -1.71116479e-02, -6.99243993e-02,  2.20071385e-03,  3.88031155e-02,  8.06857869e-02, -5.48918471e-02, -1.21097947e-02,  5.90953380e-02,  8.02196264e-02, -3.40209380e-02, -2.85209902e-02, -5.71785197e-02,  1.38302948e-02,  8.29077661e-02,  7.52747059e-02,  7.34657645e-02,  4.73641083e-02},
 {-6.28997162e-02,  4.95118741e-03,  8.38208422e-02, -2.78149336e-03, -5.51581569e-02,  8.41051042e-02, -5.36525436e-02, -2.02732552e-02, -3.38876294e-03, -3.22842994e-03,  3.15523967e-02,  8.34553018e-02,  5.14316075e-02, -6.14059940e-02, -6.78686723e-02,  5.86848520e-02, -1.33240437e-02, -4.16662730e-02,  9.33722407e-03,  1.00888293e-02,  3.46449912e-02,  3.44008990e-02, -4.42765141e-03, -2.75676809e-02,  4.18347456e-02, -5.04607968e-02, -3.60324159e-02, -3.15336920e-02,  7.57967960e-03, -7.54143894e-02, -1.85373798e-02,  3.96588817e-02, -3.57071534e-02, -7.79261673e-03,  6.29606172e-02,  8.66271369e-03,  2.96988096e-02,  5.29117212e-02, -5.76065369e-02, -7.46070519e-02},
 { 6.73404932e-02,  3.40548158e-02,  7.74071813e-02, -1.81337371e-02,  5.44223636e-02, -8.91780853e-03,  4.32736427e-02, -7.72587433e-02,  7.10272342e-02, -6.73387498e-02, -3.90456431e-02, -5.60984015e-02, -3.56416628e-02, -1.36756152e-02,  7.77410120e-02, -3.40497494e-02,  7.91827589e-02, -6.77153468e-04, -6.87982142e-02, -6.06338680e-03, -7.08554164e-02,  7.93347806e-02,  4.07019854e-02,  3.31746191e-02,  5.64577430e-02, -2.90312730e-02, -1.56080127e-02,  1.19366497e-03,  3.72046903e-02, -4.67306860e-02, -5.09846099e-02, -7.51259997e-02,  6.89141154e-02, -2.46972330e-02, -1.98995322e-02,  7.09670484e-02, -2.87781619e-02,  7.57487863e-03,  3.39534804e-02, -1.63737908e-02},
 {-6.92620641e-03, -3.43463309e-02, -1.94068681e-02, -3.93457264e-02,  6.35978803e-02,  1.09347804e-02,  2.51364373e-02, -5.34511730e-02,  6.41365647e-02,  8.18365961e-02,  7.85031170e-02, -6.85358047e-02,  6.90204650e-03, -6.65019229e-02,  5.05054072e-02,  1.50057143e-02,  3.09674237e-02,  3.29566151e-02,  3.21391560e-02,  2.77742483e-02,  3.50165251e-03,  6.97399080e-02, -7.27913380e-02, -6.38575256e-02, -1.00394785e-02,  2.75513325e-02,  5.55097461e-02, -8.28256086e-02, -2.35951599e-02,  6.24949932e-02, -6.68368787e-02,  7.70161971e-02, -3.19541735e-03,  2.37925835e-02, -4.83621396e-02, -5.63160807e-04,  2.09551062e-02,  3.91806737e-02,  8.38136002e-02, -1.87491737e-02},
 {-6.66289404e-02,  5.05050309e-02, -1.46039494e-03, -5.87383993e-02,  5.22542745e-03, -2.09554099e-02,  1.93300657e-02,  2.02838778e-02,  4.14420478e-02,  2.43275184e-02,  2.29676645e-02,  2.79457793e-02, -8.06606263e-02, -5.17692529e-02, -7.74948895e-02,  6.28328845e-02, -3.27835344e-02, -3.07785608e-02, -5.08775562e-03, -7.30723664e-02,  1.91166196e-02, -3.36481966e-02,  4.72693220e-02, -5.49711101e-02, -5.43563031e-02, -3.71396095e-02, -3.08514182e-02, -7.81288221e-02,  6.14095479e-02, -3.85685004e-02, -4.95523550e-02,  7.90165812e-02,  5.37323765e-02, -2.25762650e-03, -5.08715510e-02,  3.13949808e-02, -7.21325427e-02,  5.06905541e-02,  4.96333523e-04,  3.62669560e-03},
 {-1.24160266e-02,  7.54522383e-02,  9.99150649e-02, -2.60435492e-02,  8.82161260e-02,  1.43281836e-02, -6.78794608e-02, -2.74890196e-02, -1.09663084e-02, -4.31699716e-02,  5.12413010e-02, -6.74943551e-02, -2.00575478e-02, -2.25822087e-02,  6.55577779e-02,  7.33879805e-02, -5.56580238e-02, -1.47410985e-02,  2.88278330e-02,  3.02855461e-03, -2.39182282e-02, -1.31380633e-02,  9.53639206e-03,  4.03388031e-02, -6.56062886e-02,  4.73298728e-02, -1.13767469e-02,  6.04814626e-02,  4.26549800e-02, -4.84594051e-03, -5.16613247e-03,  2.63629276e-02, -6.24607876e-03, -3.58894877e-02, -1.51408706e-02,  6.59022480e-02,  6.41912082e-03, -3.70689780e-02,  3.77331711e-02, -9.42834243e-02},
 {-9.59130470e-04,  1.24468552e-02,  2.40845457e-02, -2.49213576e-02,  2.03874297e-02, -6.86055273e-02, -5.85847907e-02,  1.82080343e-02,  3.92990559e-02,  5.78510873e-02, -4.99936491e-02, -2.60319412e-02,  6.02919981e-02,  1.09007090e-01, -4.07412611e-02,  1.91153735e-02, -8.22895095e-02, -8.53716675e-03,  4.39511351e-02,  6.59024045e-02,  3.89023460e-02,  3.32901888e-02, -4.42615002e-02,  7.54755661e-02, -2.63251420e-02, -3.10933348e-02,  1.96601041e-02, -8.27161688e-03,  7.88174421e-02, -5.06352559e-02, -5.26250973e-02, -5.48829744e-03,  5.89391179e-02, -1.97558738e-02, -1.26771415e-02,  6.44283444e-02,  5.31903468e-02, -1.73301958e-02, -6.70078397e-02, -6.02615774e-02},
 {-5.39223896e-04, -2.93194633e-02,  5.45950532e-02, -2.20480599e-02,  6.25332296e-02,  2.61372440e-02,  2.17119344e-02,  4.82862182e-02,  4.24786471e-02,  5.03430739e-02,  1.69651173e-02, -2.03010347e-02,  1.90347843e-02, -5.10022417e-02, -3.77524160e-02,  9.83476453e-03,  3.82136777e-02, -1.07477363e-02,  9.10882875e-02, -2.50054859e-02, -1.42520601e-02,  4.53917608e-02,  7.57997856e-02,  1.02517620e-01, -2.52685547e-02,  2.97265295e-02, -5.29797338e-02,  6.90910891e-02, -2.46095844e-02, -8.79862532e-03,  9.71727744e-02,  2.67453734e-02, -4.29138020e-02, -7.40170628e-02, -3.84858856e-03, -7.09174350e-02, -1.45000648e-02,  3.10414229e-02, -1.09337725e-01,  3.33456583e-02},
 { 1.04922401e-02, -3.26624364e-02,  2.82968581e-02, -4.52582166e-03,  1.24901637e-01,  1.53329561e-03, -8.15990474e-03, -6.16827719e-02,  9.74323824e-02,  4.63940501e-02, -6.59573972e-02, -7.09609613e-02,  6.62735552e-02,  6.19033072e-03,  1.20090935e-02,  8.08300078e-02,  6.90823644e-02, -2.07281355e-02, -5.92648163e-02, -7.32491314e-02, -6.83365837e-02,  5.57362661e-02,  3.03360112e-02,  2.11847667e-02, -6.42187297e-02, -8.61081257e-02, -4.82691415e-02, -6.77475855e-02,  8.75275433e-02,  4.21953723e-02, -1.98900327e-02, -6.46434873e-02, -6.21739924e-02,  4.93222773e-02, -8.76563489e-02, -7.18004480e-02,  7.05754980e-02, -8.30937177e-02, -8.50858241e-02,  3.47776636e-02},
 { 9.16238427e-02, -6.90677837e-02,  3.81485224e-02, -3.19375694e-02,  1.33888409e-01,  6.67617917e-02, -4.62772325e-02, -1.97512526e-02, -4.59587090e-02, -8.61442685e-02, -3.07506490e-02, -8.73518363e-02,  3.59038897e-02,  9.50153321e-02, -1.01804815e-01,  1.23995421e-02, -2.02171225e-02, -1.12010032e-01, -1.28568858e-02,  2.60263830e-02, -1.23962481e-02, -4.59014289e-02,  4.92140763e-02,  6.28984347e-02, -1.02056302e-01, -7.63733461e-02,  3.10739297e-02,  5.17643355e-02,  7.85401687e-02, -2.91029029e-02, -6.33104239e-03,  5.30274659e-02, -2.91471165e-02,  2.33307909e-02, -4.27300446e-02, -9.72442031e-02,  5.93648367e-02, -3.90893668e-02, -1.80823728e-02, -4.21330482e-02},
 {-6.25578240e-02, -4.85995486e-02, -1.02527209e-01, -4.67723906e-02,  1.40901342e-01, -1.20101012e-02,  8.73607099e-02,  3.27264592e-02,  7.26164728e-02, -9.39284116e-02,  3.46596129e-02,  6.75065219e-02,  1.16378218e-01,  7.78593868e-02, -1.32252015e-02,  3.72844078e-02, -2.87423208e-02, -2.72646011e-03, -4.25791889e-02, -3.38274688e-02,  2.80268304e-02, -9.56710353e-02, -3.34777236e-02,  7.36900344e-02, -9.17764679e-02,  4.07174937e-02,  1.11565627e-02,  7.32050184e-03, -1.55023085e-02,  4.79147118e-03, -1.94730368e-02, -3.24856229e-02,  1.00299537e-01, -4.16261517e-02, -2.95291413e-02, -1.10557228e-01, -2.83785705e-02, -4.68871072e-02, -7.65183717e-02,  9.06949863e-02},
 {-2.87674516e-02,  6.29282976e-03, -3.83312516e-02, -4.15312164e-02,  1.25502899e-01, -5.01103327e-02,  1.06431685e-01,  1.26863550e-02,  2.18714122e-02, -2.68427394e-02,  1.04918797e-02, -7.07787741e-03, -4.56474759e-02,  8.34832117e-02, -7.06806257e-02, -1.06368391e-02,  1.48744341e-02, -4.04633805e-02, -6.63071871e-02, -4.28197440e-03, -1.72428582e-02, -1.14657611e-01,  6.35748059e-02,  7.33144302e-03, -9.29641426e-02, -9.40093398e-02,  1.01660147e-01,  4.26610298e-02,  1.38377165e-03, -5.02098724e-02,  6.31363019e-02, -3.44220027e-02, -3.35039608e-02,  5.88600524e-02,  2.67281346e-02, -4.99164611e-02,  2.84394659e-02,  2.08315942e-02,  2.42193155e-02,  8.07675719e-03},
 { 1.53205944e-02,  8.76469072e-03,  6.34015072e-03,  3.29284854e-02,  4.96981703e-02,  8.15491229e-02,  7.61655197e-02,  5.44593520e-02,  2.79235095e-02, -6.55821487e-02,  1.90628674e-02, -1.87457539e-03,  5.64140007e-02,  4.85486388e-02, -2.65563447e-02,  8.24972615e-02,  3.82081419e-02, -1.11435622e-01, -7.25763813e-02,  1.00447565e-01, -3.17631010e-03, -7.92033374e-02, -6.25245720e-02,  8.81092064e-03,  3.52752283e-02, -4.01613601e-02, -3.71995792e-02,  6.20616674e-02,  4.73018736e-03,  4.54279743e-02,  7.30251297e-02,  4.29987907e-02,  1.05037145e-01, -8.62227008e-02,  3.06182494e-03, -6.49197623e-02,  8.65214467e-02,  9.34173539e-03, -9.22097564e-02,  2.76931468e-02},
 { 6.97005242e-02,  1.00949347e-01,  4.81770113e-02,  2.36134534e-03,  1.16183020e-01, -2.37354729e-02,  8.40982944e-02, -6.07382581e-02, -4.31002490e-02,  1.51624270e-02, -1.38458041e-02,  5.34404814e-02,  7.72319585e-02,  1.78025588e-02, -6.86827004e-02, -4.45642248e-02,  7.21533597e-03,  2.42545822e-04, -1.29574984e-02, -6.37689605e-02,  8.33381340e-03,  1.49036897e-03,  7.41401911e-02, -1.04812808e-01, -3.23086642e-02, -6.33349419e-02,  4.41117771e-02, -1.26665961e-02, -1.50722656e-02,  2.71469485e-02,  5.34344576e-02, -3.54480818e-02,  6.61560381e-03,  2.62575294e-03, -2.87659504e-02, -8.65193605e-02,  1.03452444e-01,  3.32569107e-02,  4.65746634e-02,  9.93522406e-02},
 {-3.75128612e-02,  9.48977768e-02, -3.36690657e-02, -4.32135798e-02,  6.35437071e-02,  6.99047521e-02,  1.32098287e-01, -2.90297456e-02,  3.00844163e-02, -7.30170822e-03,  1.40225450e-02, -3.35511006e-02,  5.05161509e-02, -9.44498926e-02,  5.28380880e-03, -7.03748595e-03, -7.57941902e-02, -1.20434977e-01, -3.39973234e-02,  1.11923972e-02, -6.17730916e-02, -1.04517788e-02,  7.27833137e-02,  3.19197588e-02, -2.25447081e-02,  7.50090331e-02, -5.87612651e-02, -4.80283387e-02,  6.74370602e-02, -7.19300145e-03, -2.83776633e-02, -9.70063880e-02,  3.42196412e-02, -1.13093127e-02, -5.38175879e-03,  6.90290406e-02,  4.21670787e-02,  3.13568935e-02, -7.82069787e-02, -2.33969912e-02},
 { 1.46915633e-02,  8.86866003e-02, -7.03042746e-02,  3.99024487e-02,  5.94972335e-02, -9.41726845e-03,  2.41564098e-03,  5.06855771e-02,  7.62601197e-02, -6.34267554e-02,  3.96793634e-02,  2.02108119e-02, -2.83171013e-02, -3.00652366e-02, -8.54861811e-02, -6.84714615e-02, -6.58122599e-02, -1.25377839e-02,  5.27492240e-02, -1.87536981e-02, -5.02639115e-02,  8.83349478e-02,  5.92716709e-02, -3.65392230e-02, -2.62055472e-02,  5.23506589e-02, -4.76944447e-02,  6.73471019e-02,  1.08384244e-01, -1.58277098e-02,  1.19517535e-01, -1.10617936e-01,  4.36471887e-02, -1.42073501e-02,  7.15675727e-02, -6.81623966e-02,  1.23836668e-02,  3.44682485e-02,  3.79746556e-02, -4.32447530e-02},
 { 3.53630409e-02,  8.68044570e-02, -1.17446996e-01, -4.54808362e-02,  6.57266676e-02,  7.85467103e-02,  9.31480899e-02,  1.93220079e-02,  9.86305922e-02,  3.90014686e-02, -7.48909712e-02,  6.62602112e-02, -7.89170489e-02,  7.67041929e-03, -6.16280511e-02,  6.32234663e-02, -1.02377214e-01, -4.22625756e-03, -1.59372408e-02, -2.02737730e-02, -5.62162921e-02, -3.44245955e-02,  5.40650785e-02,  7.04635009e-02,  2.78430786e-02,  2.23220233e-02, -7.81176016e-02, -6.42491728e-02,  9.63656381e-02, -1.92811887e-03,  8.84801336e-03,  3.67177092e-02,  1.35331959e-01, -1.14583699e-02, -3.93773578e-02,  4.12772261e-02, -1.72208101e-02, -2.43795177e-04,  2.67981887e-02, -4.28332016e-02},
 { 2.65276022e-02, -5.48631363e-02,  8.83690268e-03, -8.25240016e-02,  1.00296542e-01, -5.36942407e-02,  8.36850926e-02, -3.65494721e-04, -3.44099514e-02,  2.14235112e-02,  1.70943085e-02,  3.09136510e-02, -7.11411750e-03, -1.84315331e-02, -1.09083235e-01,  9.40028653e-02, -7.34608546e-02, -5.07181836e-03, -5.77522069e-02, -7.55425021e-02,  1.13707222e-02, -3.10607981e-02,  2.18459237e-02, -5.20953909e-03,  3.48827839e-02,  4.46125120e-02, -1.09703407e-01, -4.32035979e-03,  4.40789992e-03, -1.65794082e-02,  1.03112586e-01, -7.56603247e-03,  1.37930483e-01, -3.66207846e-02, -3.65105532e-02,  2.30041333e-02, -4.81328964e-02,  6.86785160e-03,  3.40318978e-02,  3.58708133e-03},
 {-1.34622296e-02,  7.75329545e-02,  4.57189791e-02, -1.94918010e-02,  4.10279930e-02, -8.99559930e-02, -3.46916653e-02,  3.20477113e-02,  2.82565840e-02,  3.94104607e-02, -8.61376226e-02, -4.41304892e-02, -3.84465344e-02, -4.87665273e-02, -3.08113638e-03, -3.27314660e-02,  3.47778089e-02,  1.23936189e-02,  9.51965749e-02,  8.84750858e-02,  3.04668136e-02,  7.57631585e-02,  8.94884616e-02,  2.69008931e-02, -8.38432243e-05, -6.44536167e-02, -7.12968782e-02,  5.01719788e-02, -1.26406420e-02,  4.88580503e-02,  1.27266655e-02, -4.72264178e-02,  4.85098064e-02, -1.04932755e-01, -5.16341627e-02,  3.47144790e-02, -1.01267137e-01,  2.09786613e-02,  3.37245353e-02,  3.91229428e-02},
 { 1.75332669e-02,  8.30806121e-02, -6.65895715e-02,  3.74765843e-02,  9.23309401e-02,  5.85357435e-02, -5.58724441e-02, -4.30033095e-02,  9.29504037e-02, -5.14669940e-02,  6.97693005e-02, -7.18718842e-02, -8.06279704e-02, -5.13049960e-02, -9.75028053e-02, -6.70382008e-02,  2.31287219e-02, -7.93485194e-02, -6.05464131e-02, -1.24590015e-02,  6.61336910e-03, -6.68723062e-02, -5.33004515e-02,  6.63189366e-02, -1.07258558e-02, -1.65774841e-02, -6.99851364e-02, -6.13168404e-02,  1.92478318e-02,  1.70927290e-02, -2.35080961e-02,  5.26092499e-02, -3.58641669e-02,  3.07998154e-02, -6.75872564e-02, -4.87437099e-03, -2.17345357e-02, -2.21709665e-02,  1.61368847e-02, -4.41251248e-02},
 { 3.12519819e-02, -9.98402201e-03,  2.30220426e-02,  8.02228376e-02, -6.71787634e-02, -5.31661026e-02,  1.41492365e-02,  3.33494022e-02,  6.07721992e-02, -3.09998635e-02,  3.35837677e-02,  1.28278024e-02, -8.36618468e-02, -3.20880264e-02,  5.32331616e-02, -3.89909782e-02, -3.53489332e-02,  2.39824653e-02, -6.02870248e-02,  1.16078388e-02, -2.49337889e-02,  5.86632118e-02,  8.75845701e-02, -4.73845080e-02, -2.70382483e-02,  7.95771275e-03, -6.20693192e-02,  6.87630624e-02, -2.79050376e-02,  7.78484866e-02, -6.66669831e-02,  4.15195115e-02,  2.31803879e-02,  4.16056290e-02, -6.16036914e-02,  2.40259264e-02, -2.34902482e-02, -1.59106161e-02, -2.84992158e-02,  5.48273884e-02},
 { 1.91845503e-02,  6.59506842e-02,  4.66447175e-02,  3.28067504e-02,  7.46271163e-02, -2.32772082e-02, -8.89904201e-02,  2.97630262e-02,  1.14852027e-03,  4.72120456e-02, -2.13272553e-02,  3.84745598e-02,  5.30899391e-02,  3.95726226e-02,  8.92963074e-03,  4.07237746e-02,  5.06895548e-03, -1.51680438e-02, -1.12009943e-02, -3.54385823e-02,  1.92073602e-02, -2.52542049e-02,  3.77810188e-02, -4.26038681e-03, -7.83173591e-02, -2.67096553e-02,  2.59301066e-03,  4.09806962e-04, -1.17880190e-02,  6.42952546e-02,  5.41707203e-02,  6.28282502e-02,  4.70840670e-02, -4.35618088e-02, -5.94633892e-02,  5.36755919e-02,  1.37555655e-02,  5.78247197e-02, -5.51650263e-02, -3.70926932e-02},
 {-8.74671862e-02,  6.01490922e-02,  1.02424338e-01, -4.32735421e-02, -3.04853432e-02, -4.28785160e-02,  4.01937477e-02, -5.43514118e-02,  4.38798219e-02, -2.98166163e-02, -7.64289945e-02, -5.33658080e-02, -7.28977248e-02,  3.33941393e-02, -3.19830924e-02,  1.48539348e-02, -1.74107887e-02,  8.45494643e-02,  4.57077846e-03,  4.75909971e-02, -6.48552179e-02, -2.51338221e-02,  2.41465890e-03,  6.50895759e-02, -8.46052356e-03, -8.45465213e-02,  2.41823550e-02, -6.99289367e-02,  2.51715388e-02, -3.33450874e-03,  6.51227087e-02,  1.19476542e-02,  3.31176110e-02,  2.38717198e-02,  3.92298996e-02,  3.30648944e-02, -5.81508763e-02, -6.69924244e-02, -2.65427050e-04,  2.45780628e-02},
 {-5.10964990e-02,  7.02276304e-02,  7.52061307e-02, -1.87276897e-03,  5.76810203e-02, -3.31688449e-02, -7.53185153e-02, -6.32041842e-02, -6.50661532e-03,  8.71674567e-02, -8.26052651e-02,  7.87670389e-02, -6.50531286e-03,  8.70810747e-02,  7.08248690e-02, -1.24357175e-02,  1.09646976e-01,  7.24598467e-02, -6.85666725e-02,  2.43937615e-02, -6.67210594e-02,  5.22767901e-02,  3.34065892e-02, -2.54189465e-02,  1.59595981e-02, -6.89732202e-04,  1.81727041e-03,  4.84035164e-02,  5.74333668e-02,  6.16896302e-02, -1.14741027e-02, -4.47995886e-02,  3.60611789e-02,  6.08373173e-02,  5.81519157e-02,  3.13782319e-02,  9.22702253e-02, -1.58072785e-02, -2.56842487e-02, -5.54618873e-02},
 { 1.39936525e-02,  4.96112369e-02, -1.71889607e-02, -2.30724737e-02, -3.95262837e-02,  1.02708936e-01,  8.65797233e-03, -1.95316132e-02,  2.57583167e-02, -3.61971259e-02, -6.40830472e-02, -1.80790350e-02, -2.14135628e-02,  7.13265613e-02,  4.12535481e-02,  9.19808149e-02,  6.24288544e-02,  7.87142888e-02, -7.22386688e-02,  6.83716163e-02, -6.26034662e-02,  7.13506788e-02, -8.85373447e-03,  1.75505225e-02, -7.61816725e-02, -1.02632910e-01, -9.17616021e-03,  2.83685885e-02,  4.89824638e-03,  2.53568757e-02, -5.77512244e-03,  8.37174207e-02, -7.98374340e-02, -1.99948531e-02, -4.65606265e-02,  6.21904284e-02, -2.00011153e-02, -3.89115065e-02,  7.42236376e-02,  1.05484761e-01},
 { 5.03010908e-03, -1.04470382e-04,  1.00535646e-01,  7.27665722e-02, -1.02013703e-02,  5.78506812e-02, -9.18389298e-03, -5.54174632e-02,  3.75853255e-02,  4.54138368e-02, -2.07221378e-02,  5.08445352e-02,  1.26984389e-02,  7.61751980e-02,  5.04872985e-02, -5.01507707e-02,  3.27931717e-02,  3.81506584e-03,  4.71781045e-02,  4.70577963e-02, -7.16164261e-02,  3.32699195e-02, -6.04466498e-02,  2.93012895e-02, -8.50934610e-02, -3.29098776e-02, -9.60396528e-02,  9.67280753e-03, -3.58486474e-02,  6.21727221e-02,  1.31844456e-04,  8.65878612e-02,  1.58878732e-02,  1.05028432e-02,  2.36411039e-02, -7.74167329e-02,  8.76097903e-02, -1.59116648e-02,  1.83831137e-02,  9.38663781e-02},
 {-4.92122136e-02,  7.71850124e-02, -2.21193209e-02,  1.34588666e-02, -6.07147105e-02,  5.31775914e-02,  2.44794320e-02, -2.68942416e-02, -2.66280416e-02,  1.04659901e-03,  3.80700640e-02, -2.92652994e-02, -2.16366481e-02,  2.59581823e-02, -5.38313873e-02,  6.89574331e-02,  6.48037940e-02,  7.72087052e-02, -1.91274285e-02,  2.54495367e-02, -7.55850151e-02,  5.35794534e-02, -1.12836538e-02, -5.22832572e-03, -3.46687473e-02, -6.37976900e-02,  1.13735776e-02, -2.72991415e-02, -7.31648803e-02,  5.71151190e-02, -2.71351002e-02,  6.18619006e-03,  1.13599868e-02,  2.17501838e-02,  7.09951147e-02,  3.36370952e-02, -2.46987045e-02,  2.21579336e-02, -5.31988256e-02,  7.73809999e-02},
 { 2.34191939e-02, -6.35495260e-02,  6.85266182e-02,  7.74242030e-03, -3.06368228e-02, -7.12291822e-02, -4.84997109e-02,  3.05033624e-02,  1.96417328e-02, -1.68165918e-02,  4.34034541e-02,  8.70752856e-02,  7.98723176e-02, -3.04391906e-02,  7.48554394e-02, -3.38305272e-02,  3.22914422e-02,  6.77695200e-02, -6.07135929e-02, -9.13082343e-03, -2.02388130e-02, -4.97766174e-02, -1.72456931e-02, -2.57276837e-02,  1.05932942e-02, -3.83405313e-02, -9.34382007e-02,  4.78438362e-02, -8.82703960e-02, -1.50338989e-02,  7.05950558e-02, -5.96394874e-02, -6.79153800e-02,  9.24439542e-03, -5.27608208e-02,  1.19513208e-02,  2.23085172e-02, -7.91676044e-02, -6.47618324e-02,  5.07558025e-02},
 {-3.14709917e-02, -7.19724149e-02,  5.27813192e-03,  6.85015917e-02,  1.44881597e-02, -3.72968405e-03,  2.29892544e-02,  2.99599059e-02, -7.61289075e-02,  6.23379946e-02, -6.81640133e-02, -6.56902120e-02, -7.39462376e-02,  7.03052878e-02,  4.87332158e-02, -7.04521909e-02,  6.03343062e-02, -1.53365228e-02,  7.84776174e-03,  4.26044948e-02,  8.68987292e-02,  8.25626627e-02,  5.84188960e-02,  3.81081477e-02,  6.97173551e-02, -7.12760612e-02, -5.97623661e-02, -7.89322555e-02, -7.61711672e-02, -6.05717162e-03,  1.53652932e-02, -1.34226391e-02, -6.12491034e-02,  5.79844043e-02,  6.93688020e-02,  1.54784117e-02, -4.87803333e-02,  7.37607852e-03, -5.66015951e-03, -4.79387827e-02},
 {-8.22534561e-02,  1.99665166e-02,  4.36732583e-02, -3.62691982e-03, -2.25322247e-02,  5.23465946e-02,  1.05387298e-02, -2.32031755e-02,  2.17987020e-02,  3.60116139e-02,  6.84519261e-02,  7.51656890e-02, -4.49308101e-03,  1.26686962e-02, -1.11412192e-02,  6.05670772e-02, -3.79495807e-02, -2.59279497e-02,  5.69477826e-02, -4.85163555e-03, -1.15713924e-02, -2.19671032e-03,  3.16842161e-02, -6.33907542e-02, -6.66048676e-02,  1.69198774e-02,  2.26238575e-02, -2.93966252e-02,  3.70270275e-02,  2.74325907e-02, -2.02595666e-02, -6.02994598e-02, -6.62691221e-02, -2.44220290e-02, -3.08349226e-02,  5.06029651e-02, -3.55562493e-02, -7.27600884e-03,  6.69929460e-02, -1.45865502e-02},
 {-7.62847587e-02,  4.01760340e-02,  7.22336769e-02, -5.35564683e-02, -7.87577033e-02,  2.80515924e-02,  5.59411198e-02,  5.41462004e-02,  7.85661489e-02, -9.97565687e-04,  7.17176199e-02,  9.42364335e-03, -8.15415084e-02,  4.40920591e-02, -7.49386027e-02,  3.55855152e-02,  5.02759814e-02, -6.03443086e-02,  4.34425622e-02, -4.59943675e-02, -6.30520284e-03,  8.25251341e-02, -4.89276946e-02, -1.98525563e-02,  7.35851675e-02,  3.89909968e-02,  2.33753324e-02,  5.00169694e-02,  5.72885722e-02, -3.07724364e-02, -7.88436159e-02, -6.15960360e-02,  2.15754509e-02,  5.99917769e-03, -9.25199687e-03,  2.13114768e-02, -1.20014027e-02, -6.99058473e-02,  4.95369583e-02, -2.58768201e-02},
 {-3.33903395e-02, -7.78560862e-02,  5.58871664e-02, -6.68453202e-02,  2.97295628e-03,  8.08686763e-02, -6.97532818e-02, -7.15616420e-02,  2.61320379e-02,  6.50061220e-02,  1.43689113e-02,  1.86006892e-02, -3.06809917e-02, -2.07963549e-02,  7.69169331e-02, -1.50446305e-02,  3.42847742e-02,  6.33330196e-02,  9.09494061e-04, -8.27646479e-02,  7.77720660e-02,  3.85261029e-02,  7.51708224e-02, -1.09711289e-02, -6.56835437e-02,  4.82243188e-02,  5.53500205e-02,  5.66507243e-02,  4.75572497e-02,  4.88992454e-03,  1.66272912e-02,  4.07250710e-02,  2.67912839e-02,  5.79995029e-02, -4.99593057e-02, -1.71683356e-02, -3.64438109e-02, -7.66392276e-02,  1.31267197e-02, -3.85048091e-02},
 {-6.98697846e-03,  4.72531803e-02, -3.43415923e-02,  6.56027859e-03,  4.55205850e-02,  9.98456683e-03, -2.56219273e-03,  3.78047414e-02,  1.09091029e-02, -8.23811069e-02,  7.73786455e-02, -1.97805511e-03, -5.61361648e-02, -4.21304405e-02, -1.70252100e-02, -5.30514196e-02, -2.96759829e-02, -7.00273588e-02,  8.58800206e-03,  1.98519882e-03,  1.43958004e-02,  7.71086961e-02, -4.26890068e-02,  6.10490255e-02,  6.20340370e-02,  5.74100912e-02, -6.44659027e-02, -4.36968356e-02, -1.16852494e-02,  4.79503758e-02,  8.35837349e-02, -2.31557880e-02,  8.08240771e-02, -2.12817639e-02, -3.12637351e-02,  2.96274144e-02,  1.45503813e-02, -4.58130576e-02,  8.21851641e-02, -4.85049374e-02},
 { 3.23895700e-02,  5.51534183e-02, -3.62117472e-03, -6.27273992e-02, -2.86642592e-02, -7.11009279e-02,  2.70332326e-04,  3.47448550e-02, -4.09635678e-02, -2.04894203e-03,  2.50105467e-03,  1.21332398e-02, -5.49918227e-02,  5.14525697e-02,  5.40221110e-02, -7.39258677e-02,  6.37380183e-02, -4.05437090e-02, -4.17000428e-02,  7.09470734e-02, -2.98443101e-02, -4.50937338e-02,  4.09115702e-02, -1.10650472e-02,  2.38047224e-02,  6.77270666e-02,  1.88525617e-02, -3.32984552e-02,  4.80552688e-02, -1.18554551e-02,  5.54292873e-02,  7.15102032e-02,  7.04141110e-02, -2.92947097e-03, -3.64261977e-02,  1.62486453e-02, -6.71196133e-02,  3.08343600e-02,  5.06739430e-02, -8.31772685e-02},
 {-5.99184930e-02,  5.80808148e-02,  2.39863079e-02, -2.84712948e-02, -1.04929116e-02, -3.40869464e-02,  4.32701185e-02,  3.74696180e-02, -1.46791218e-02,  4.10678573e-02, -4.24973015e-03, -8.00442845e-02, -9.36441682e-03,  1.02280334e-01,  6.55517727e-02,  7.40062296e-02,  2.71369517e-02,  8.13514888e-02, -1.07859010e-02, -2.48879809e-02, -1.73760206e-02, -2.65483558e-02, -6.98257163e-02, -3.90073210e-02, -1.61823947e-02,  2.95114238e-02,  5.48416637e-02,  2.50357594e-02,  5.71706668e-02, -7.92451873e-02,  1.08986780e-01, -7.25863874e-02,  2.55848225e-02, -3.05322465e-02,  4.91848662e-02, -4.31300141e-02, -8.30824003e-02, -9.07100365e-02, -8.07025060e-02,  2.03534067e-02},
 { 6.42335862e-02, -4.39172313e-02,  5.31909913e-02,  8.83637592e-02,  2.35731024e-02,  4.02771588e-03, -5.85439093e-02,  5.89771792e-02,  4.44052480e-02, -7.09544718e-02,  5.16670160e-02,  7.02345222e-02, -5.61583526e-02,  2.73548383e-02,  5.53519558e-03, -2.27365680e-02, -3.94198000e-02,  6.35855272e-02,  1.74404029e-02,  1.77592598e-02,  8.83460119e-02, -1.85369365e-02,  1.55552113e-02,  1.33902021e-02,  3.89409065e-02, -7.82810152e-02,  3.84703949e-02,  1.58358980e-02,  9.59021151e-02, -2.21832003e-02, -1.09551447e-02, -6.12551272e-02,  1.14046540e-02, -7.07840174e-02, -8.43308717e-02, -8.60322714e-02,  9.39598866e-03,  1.23244971e-02, -4.95506674e-02, -4.03273068e-02},
 { 8.63937661e-02,  8.31963271e-02,  6.50312603e-02,  1.03253976e-01,  1.30092576e-01, -8.07830656e-05, -3.94769199e-02, -4.76383977e-02,  1.03891054e-02,  3.24207135e-02, -6.13777898e-02,  6.33679330e-02, -4.95274104e-02,  2.58964840e-02,  2.25153826e-02,  1.06199294e-01,  4.62795123e-02,  1.92355085e-02, -6.07033707e-02,  8.10933486e-02,  8.59618336e-02,  3.81452078e-03, -6.07242584e-02,  1.12851560e-01, -2.60973144e-02, -4.21459638e-02,  1.66051183e-02, -9.95423943e-02,  4.93456535e-02,  3.22389118e-02,  1.80560090e-02,  4.73972439e-04, -6.39940053e-02, -2.16143318e-02, -1.04497790e-01,  3.27770645e-03,  7.62786865e-02,  3.71188670e-02,  2.62014056e-03,  4.11864705e-02},
 {-6.46027911e-04, -2.11055595e-02,  7.68216252e-02,  4.31106575e-02,  9.10893455e-02, -2.22981609e-02,  1.67355090e-02,  6.11804649e-02, -4.83874828e-02,  2.75265202e-02, -3.54439579e-02, -4.85143214e-02, -7.63626304e-03,  7.38250138e-03, -5.13981916e-02, -2.20484063e-02, -1.04148068e-01, -7.52601698e-02, -7.60806873e-02, -5.85888932e-03,  8.53841305e-02,  7.54246041e-02, -8.17912072e-02, -3.29114497e-02, -4.20407887e-04, -5.38735278e-02,  4.19829451e-02, -7.80488849e-02,  4.95543480e-02, -5.13471738e-02,  8.45688134e-02, -6.44681451e-04,  7.69389421e-02,  7.39603639e-02,  5.22414632e-02,  5.05117029e-02,  3.47062163e-02, -7.08628073e-02, -1.58097409e-02, -4.27490696e-02},
 {-4.13322747e-02, -2.51100827e-02, -8.65146518e-02, -8.97983462e-03,  6.39259070e-02,  3.58229876e-02, -2.52440739e-02, -4.02053334e-02,  1.01043649e-01, -4.03611884e-02, -2.27592066e-02, -3.56749110e-02, -2.57159919e-02, -3.43503468e-02, -8.17739516e-02,  8.69860798e-02, -7.12110400e-02, -1.77586358e-02,  2.86803395e-02, -4.97319475e-02, -1.14738559e-02,  1.71025787e-02, -8.12734589e-02,  1.02705345e-01, -3.17086652e-02, -4.17956784e-02, -1.34727750e-02, -8.47218484e-02,  6.54923171e-02,  6.92806318e-02,  1.00668319e-01,  4.14158255e-02, -5.41388020e-02,  2.91425996e-02, -9.50454324e-02, -5.49128503e-02, -1.65942051e-02,  1.65635534e-02,  3.87389623e-02, -6.66265115e-02},
 { 7.98528735e-03, -4.97862548e-02,  4.31030206e-02, -6.21085837e-02,  4.43249196e-02, -3.96612473e-02, -1.19148372e-02,  4.52039801e-02,  9.66223255e-02, -4.92662005e-02,  1.51713965e-02,  3.27743329e-02,  1.03601955e-01,  1.15423491e-02,  6.68011897e-04,  1.11421213e-01, -8.44863802e-03, -5.71148209e-02,  4.71216701e-02,  4.78062928e-02,  8.26457515e-02,  3.83215919e-02,  3.69598493e-02, -5.29866293e-02, -1.97461853e-03,  3.47038470e-02,  4.86512519e-02, -9.54836383e-02,  4.90565673e-02,  7.18988106e-03,  3.16223651e-02,  1.58356410e-02,  2.20926702e-02, -6.12372905e-02, -7.27893263e-02, -6.00028373e-02,  1.16199970e-01, -2.08722483e-02, -5.19995280e-02,  6.45737797e-02},
 {-5.88299967e-02,  7.67966509e-02,  6.18296973e-02,  1.61766689e-02,  8.53060782e-02,  6.96002245e-02, -5.04385075e-03,  5.53408191e-02,  4.47818730e-03,  4.21229377e-02, -4.43337392e-03, -6.68978989e-02,  9.88329053e-02,  1.00752987e-01, -9.02762860e-02, -2.45988388e-02, -3.76291834e-02, -5.45837767e-02,  7.56724775e-02,  8.44508782e-02,  3.50868516e-02,  7.43592232e-02, -4.15285490e-02,  7.22747147e-02,  4.97473516e-02, -5.70333650e-05, -2.82414239e-02,  3.22024636e-02,  7.20605031e-02, -3.52152288e-02,  8.91133994e-02,  9.06426236e-02,  2.42818687e-02, -4.22553830e-02, -8.26647803e-02,  7.07020387e-02, -5.31683601e-02, -9.19997767e-02,  1.83998402e-02, -5.95617900e-03},
 {-2.14416664e-02, -2.35626139e-02, -8.59937668e-02, -3.81870717e-02,  5.19915596e-02,  4.27285209e-02,  1.00503884e-01, -3.00255641e-02,  8.01440254e-02,  4.56378497e-02, -1.66595390e-03,  7.93124288e-02,  1.13402335e-02, -2.67264806e-02,  3.22075300e-02,  8.52950290e-02,  4.86507872e-03, -9.55983251e-02, -2.10680515e-02, -2.24085781e-03,  5.45927435e-02,  5.54556996e-02,  4.93061095e-02, -4.56432253e-02, -6.04610853e-02, -9.74027216e-02,  3.93389314e-02, -4.54484075e-02,  5.88342696e-02,  6.48231506e-02,  6.25376850e-02,  1.47606973e-02,  2.67715827e-02,  5.74351735e-02, -3.55344489e-02,  3.27559263e-02,  4.26445380e-02, -8.73651356e-02,  4.47928160e-02,  1.94505844e-02},
 {-1.32788401e-02, -1.74823739e-02, -5.59257483e-03, -2.87750587e-02,  1.06752172e-01,  2.97365170e-02,  4.95660864e-02,  4.59224824e-03, -1.04415342e-02, -1.09366722e-01, -4.56071310e-02, -2.04787143e-02, -7.60768056e-02,  6.35228679e-02,  2.38076057e-02,  9.00140032e-02, -1.05196372e-01,  5.21098338e-02, -7.01960251e-02,  5.88852838e-02, -1.40018668e-02,  4.86853831e-02,  2.08369773e-02,  3.07760425e-02, -9.72158164e-02, -1.52620720e-02,  4.14288118e-02,  5.84989041e-02, -1.86190400e-02, -3.51760387e-02,  4.39441614e-02, -1.55855538e-02, -5.51965460e-03,  2.80945431e-02,  4.70808856e-02,  8.47603977e-02, -1.98027100e-02, -2.35050265e-02, -5.99384196e-02,  3.17973271e-02},
 {-4.62953411e-02, -7.71100540e-03, -8.88850018e-02, -1.80406272e-02, -4.29414958e-02,  2.67177001e-02, -1.60339344e-02, -5.97567158e-03,  4.18214239e-02,  4.31135297e-03, -7.63778687e-02, -1.87059380e-02, -1.65425036e-02, -2.68686768e-02, -1.12435728e-01, -2.09690295e-02, -9.75718573e-02, -6.45113960e-02,  4.06976342e-02,  6.01337366e-02, -1.08222309e-02,  1.11109808e-01,  5.16093187e-02,  2.98410449e-02, -4.63033430e-02,  2.59093810e-02, -8.86782706e-02, -3.36694829e-02, -6.83281198e-03,  5.82860969e-02,  5.75782768e-02,  6.06989525e-02,  7.13339150e-02, -4.56086770e-02, -6.11896887e-02,  5.11003705e-03, -3.83493826e-02, -8.61493498e-02, -2.51637995e-02,  3.00459433e-02},
 { 1.46878595e-02,  2.52269637e-02, -6.60154000e-02,  3.65845449e-02,  5.17966226e-02,  3.48933935e-02,  4.16795872e-02, -4.08345014e-02,  3.56022902e-02, -7.26945773e-02,  1.79022532e-02, -4.92705293e-02, -8.46281201e-02, -8.27380177e-03, -3.55965756e-02,  1.44068925e-02, -7.49945492e-02,  1.96411386e-02,  8.90332386e-02, -3.75081673e-02,  6.59979694e-03,  1.69742736e-03,  3.75846550e-02, -2.41362955e-02, -8.63871947e-02,  5.54214679e-02,  1.37756141e-02,  5.82045056e-02,  8.65539014e-02,  5.55395894e-02, -2.93547343e-02, -8.37031826e-02, -5.31850383e-03,  1.85940862e-02, -8.19043964e-02, -1.78345330e-02,  1.02022924e-02, -6.99337292e-03,  2.07310487e-02,  8.24017003e-02},
 {-6.86733797e-02,  2.70902421e-02, -7.77362660e-02, -4.24208045e-02, -3.80435959e-02,  3.85022676e-03,  8.68671909e-02,  3.12894508e-02, -3.37669142e-02,  4.85910289e-02, -7.56577179e-02,  1.13250073e-02,  3.59924883e-02, -5.39390221e-02,  5.01203127e-02, -4.10196036e-02,  3.34955230e-02,  3.31600942e-02,  5.79343662e-02,  8.66575539e-02, -4.69729304e-02, -1.37851723e-02, -1.02561451e-02, -6.15206035e-03,  1.52385700e-02, -2.85642259e-02,  7.37762428e-04, -7.33870501e-03,  2.59918123e-02, -8.02005306e-02, -5.94572024e-03,  2.19257474e-02,  4.99892309e-02, -1.14102159e-02, -6.71878234e-02, -5.02635129e-02,  2.71598529e-02,  3.92219573e-02,  3.23142372e-02,  2.79371701e-02},
 {-5.87339560e-03,  8.95837881e-03,  5.68610653e-02,  1.48536928e-03,  6.86945245e-02,  5.41681051e-02,  7.99027383e-02, -7.35043287e-02,  7.14510866e-03,  3.26345861e-02,  4.56116721e-02,  6.00944236e-02, -5.46909273e-02, -2.51407716e-02, -4.46123593e-02, -6.28557848e-03,  1.61391392e-03, -2.20386293e-02, -4.63264436e-02,  6.43255189e-02, -8.21301863e-02, -6.13915212e-02, -7.27910735e-03,  7.07638934e-02, -9.34367403e-02, -3.58265154e-02, -1.21559855e-02,  2.32963413e-02, -3.04923672e-02, -4.09053676e-02,  8.18574727e-02,  2.70112008e-02, -3.16720419e-02,  3.52322720e-02, -3.74184400e-02, -2.11937912e-02,  2.04872172e-02, -3.87593955e-02,  1.77253075e-02,  5.15006855e-02},
 { 8.16004053e-02, -8.16967990e-03, -7.05529824e-02, -1.78805981e-02,  5.03803603e-02, -6.86061084e-02, -2.64137872e-02, -6.31705374e-02,  5.62741905e-02,  6.74374849e-02, -6.81746006e-02,  3.29405069e-02,  5.71107231e-02, -4.74741310e-02, -2.09392738e-02,  6.36195124e-04,  2.69008595e-02, -3.66381109e-02,  2.16940902e-02,  4.08154279e-02, -4.88339700e-02,  2.95583569e-02,  5.39319478e-02,  3.64227109e-02,  1.58067252e-02,  8.16741139e-02, -2.20101587e-02, -1.44348126e-02,  9.42622498e-02, -2.57498883e-02, -1.98138617e-02,  1.54503379e-02,  7.31356293e-02, -2.53852643e-02,  2.24508811e-02, -6.09824769e-02, -1.48304524e-02,  5.82519695e-02, -1.07076243e-01,  2.87568513e-02},
 {-9.34389047e-03,  2.92597264e-02,  1.45225227e-02,  1.16107902e-02, -7.35199526e-02,  2.55046189e-02, -6.67741075e-02,  3.78292836e-02,  2.14836113e-02,  1.00049824e-02, -2.39687390e-04,  5.42642362e-02, -1.32820113e-02, -1.92401242e-02, -1.45370215e-02, -4.10754792e-02,  3.91512923e-02, -4.27632183e-02,  1.02697574e-01, -9.50025860e-03,  8.41733143e-02,  7.72421211e-02,  1.37134334e-02, -3.09079476e-02,  4.43867631e-02,  4.62515764e-02, -6.93977326e-02,  1.55132060e-04, -2.28638481e-02,  5.87926470e-02,  3.37419100e-02,  5.29095903e-02,  4.96407524e-02,  5.02340049e-02, -4.18040045e-02,  5.29425405e-02, -1.29316319e-02, -4.90176864e-02,  3.70288491e-02, -5.86853363e-02},
 { 5.07035293e-02, -2.46667750e-02,  1.03688687e-02, -2.28259079e-02,  2.23196317e-02,  6.15734570e-02,  1.55083230e-03, -3.06548551e-02, -4.72277813e-02, -2.17499193e-02, -1.68053322e-02, -4.15343083e-02, -4.24981862e-02,  8.81465375e-02, -2.90771220e-02,  3.16761509e-02, -6.76892400e-02, -4.05914709e-02,  3.77554297e-02,  8.54810104e-02, -7.07029849e-02,  2.35569216e-02, -4.48507592e-02,  6.95458278e-02, -5.82454838e-02, -5.53092994e-02, -9.01363492e-02, -1.04032330e-01, -6.83773011e-02,  6.83046430e-02,  1.12919984e-02,  3.46140675e-02, -6.96443617e-02, -2.00291574e-02,  1.17835514e-02, -9.64139998e-02,  2.76955627e-02, -3.12174056e-02,  6.19459786e-02, -4.71119396e-02},
 {-2.77672857e-02, -5.82915954e-02,  7.25920126e-02, -3.39269463e-04,  8.43327343e-02,  2.06271652e-03, -5.94484918e-02,  7.86972418e-02,  3.55465673e-02,  7.81880617e-02, -1.08135507e-01,  4.81894538e-02, -8.19050446e-02, -3.57378204e-03,  9.28913523e-03,  6.65225554e-03, -6.18136339e-02,  1.10818641e-02,  8.45177937e-03,  4.97684889e-02, -7.46453255e-02, -8.14840663e-03,  1.11556146e-02,  3.27589619e-03, -6.96150959e-02, -7.81219155e-02, -6.65403306e-02, -1.22893061e-02,  1.93377323e-02, -1.92989630e-03, -1.02931412e-03,  3.77694480e-02, -2.08508000e-02,  2.97183543e-02,  7.15415627e-02, -4.83141914e-02,  5.56911435e-03,  1.19853206e-02,  4.05527614e-02, -2.47658640e-02},
 { 8.16459358e-02, -4.96852472e-02, -5.40705919e-02,  6.24623708e-02, -6.44635558e-02,  2.26894394e-02, -5.98268881e-02,  6.11605905e-02,  7.03847827e-03,  6.88550994e-02,  1.38141606e-02,  3.50632258e-02, -2.19626166e-02, -2.16044001e-02,  7.13219643e-02,  5.94713017e-02,  9.87577625e-03, -5.06928116e-02,  1.58479083e-02, -4.85191196e-02,  2.92549538e-03,  9.46479291e-02, -3.08042504e-02,  6.26688004e-02,  3.11257970e-02, -2.66585555e-02, -4.15475294e-02, -9.61211398e-02,  1.06620453e-02, -5.15443608e-02, -2.09631398e-02,  2.40005273e-02, -6.43062443e-02,  7.20867515e-02, -2.56117713e-02,  2.03399546e-02, -5.61361164e-02,  1.40820500e-02, -1.40475137e-02,  4.22950387e-02},
 { 5.38491867e-02, -3.54403048e-04,  6.98684528e-02,  7.20829666e-02,  5.51235490e-02,  2.72551086e-03, -9.65456292e-02, -3.26501913e-02, -2.41856463e-03,  7.07094073e-02,  4.00081836e-03,  4.13541123e-02, -8.35521743e-02, -1.01440586e-02, -9.30214971e-02,  3.45054567e-02, -6.07338436e-02,  4.62253653e-02,  6.38420740e-03,  1.17105860e-02,  6.68921918e-02,  1.01412416e-01, -5.77204153e-02, -5.29651791e-02, -3.61059606e-02, -5.79347946e-02, -4.46697101e-02, -8.28527436e-02, -5.44086359e-02,  2.45411787e-02, -2.32653972e-02, -1.04968892e-02,  6.15507253e-02,  9.11772773e-02,  6.41523004e-02,  2.52833148e-03,  1.98272727e-02, -5.02965413e-02, -5.13971262e-02,  9.40247625e-02},
 { 6.02066033e-02, -3.70833389e-02,  8.40741396e-02, -6.32650331e-02, -3.72893512e-02,  2.66154092e-02,  3.38055268e-02, -2.81578079e-02, -2.41336860e-02,  2.56840549e-02,  2.08341908e-02,  3.23150456e-02, -7.71217644e-02,  6.85996190e-02,  3.85178835e-03,  7.73875564e-02, -3.25354449e-02, -3.62679623e-02, -7.09886104e-02,  3.58942077e-02,  7.20204860e-02, -2.56264079e-02,  7.73293665e-03,  4.51967716e-02,  6.87946156e-02, -6.70117959e-02, -5.46557978e-02,  1.38393622e-02,  1.41835632e-02, -5.25452718e-02,  8.14429522e-02, -3.85352708e-02, -4.28461749e-03,  4.13489752e-02, -5.26642688e-02, -1.60506312e-02,  4.81331646e-02, -2.39970293e-02, -7.15585575e-02,  2.99870479e-03},
 { 4.46974225e-02, -7.06763566e-02,  4.61111180e-02,  1.57789476e-02, -1.11126760e-02,  7.74481427e-03, -9.18856934e-02,  5.84510267e-02,  9.41625759e-02,  4.37654033e-02, -9.11611542e-02,  7.88304862e-03, -3.66991870e-02, -4.20229323e-02,  3.57940756e-02, -9.65911150e-03, -4.83348481e-02, -7.69912789e-04,  3.09194773e-02, -4.02810797e-02, -1.34717096e-02, -3.16550024e-02, -3.47385257e-02, -3.13339904e-02, -4.33077626e-02,  1.28733395e-02, -9.98251066e-02, -8.26015323e-02,  1.98056772e-02, -7.33199194e-02, -6.89053833e-02, -7.51259103e-02, -6.84881657e-02,  2.33623274e-02,  2.38282904e-02, -7.34933838e-02,  1.65818390e-02, -5.28496727e-02, -4.25849408e-02, -4.91722114e-02},
 { 4.15367372e-02, -5.22033870e-02, -1.35728633e-02,  5.83870895e-02, -6.65302873e-02, -7.51577839e-02,  7.50998035e-02,  4.45083790e-02,  3.67720053e-02,  4.24592756e-02, -9.60347205e-02,  3.88878621e-02,  3.08034830e-02, -3.45830396e-02,  6.51127547e-02,  2.19190624e-02, -6.23951666e-02,  7.06322193e-02,  2.79501267e-02,  8.63905400e-02,  3.11173759e-02,  6.38587549e-02, -6.61349893e-02,  4.28014062e-02, -7.86249246e-03, -3.74900363e-02,  6.27864897e-02,  3.24675553e-02, -5.65985516e-02,  6.12815209e-02,  4.71351705e-02,  1.56922732e-02, -6.90346956e-02,  2.03526448e-02,  1.87114701e-02,  3.76138417e-03, -6.75422028e-02, -3.72406505e-02,  5.65494113e-02, -3.86550501e-02},
 { 6.55470639e-02,  6.57309145e-02, -4.30904217e-02, -5.18391430e-02,  1.79040246e-02,  7.28580058e-02, -5.66149466e-02, -3.85260135e-02, -1.42287370e-02, -4.05231789e-02,  1.82150118e-02,  5.46022318e-02,  6.03379421e-02, -7.79351443e-02,  3.23282108e-02, -4.41665575e-02,  4.56398316e-02,  6.34488612e-02, -5.83223775e-02,  7.61316763e-03,  7.06523061e-02,  2.13783961e-02, -4.27596271e-02, -4.47397716e-02, -4.30706423e-03, -1.10255079e-02,  2.27452423e-02,  8.02045166e-02, -3.02208830e-02, -1.12759061e-02, -1.33024007e-02,  7.81854391e-02, -1.02251247e-02,  4.34193388e-02,  3.13824005e-02,  4.49061953e-02,  1.36002703e-02,  4.74735387e-02, -3.96955945e-02, -1.84274744e-02},
 {-4.85327803e-02, -1.95424948e-02, -3.91579680e-02,  1.15897292e-02,  5.36047108e-02,  4.50380854e-02, -4.89888228e-02, -2.21335515e-02,  1.45351505e-02,  4.53184582e-02, -4.85027358e-02, -6.33426234e-02, -2.54574278e-03,  8.14550593e-02,  1.65712871e-02, -3.08182500e-02, -6.42296579e-03,  5.57030067e-02, -4.14973311e-02, -1.59550533e-02,  8.33543763e-02,  6.37079552e-02,  2.65893620e-03, -2.99818236e-02, -6.54747561e-02,  6.20630421e-02, -5.39211147e-02, -5.14161326e-02, -8.36072769e-03,  5.74609227e-02,  4.85144332e-02, -7.02173039e-02, -7.59100541e-02, -8.52353498e-02,  2.42837463e-02,  2.81395633e-02,  7.55758807e-02,  4.83377650e-02, -5.46738841e-02, -5.60940355e-02},
 {-1.78825855e-02, -7.80600607e-02, -2.18235385e-02,  7.23458081e-02, -1.79206487e-02,  5.79836704e-02,  4.48479829e-03, -1.57774761e-02, -6.15467280e-02, -5.33344690e-03,  3.03276684e-02,  1.64195914e-02,  4.69914638e-02, -2.58864425e-02,  6.16187528e-02,  5.33526912e-02, -7.80183077e-02,  4.54484299e-02, -8.40131342e-02, -2.36307643e-02,  6.03140593e-02,  1.97867658e-02,  7.25651160e-02, -4.81571220e-02,  4.34099361e-02,  1.15098897e-02,  6.45668572e-03,  7.15339705e-02, -4.93801497e-02, -8.10204074e-03, -1.62320267e-02, -8.67617957e-04,  3.22329588e-02, -6.14008494e-02,  5.07972427e-02, -3.48247401e-02, -7.35094845e-02, -3.06606609e-02, -2.06077751e-02, -3.30230817e-02},
 { 8.38797167e-02, -1.27631500e-02, -6.87693479e-03,  4.68274653e-02, -4.22171056e-02, -1.50473239e-02,  5.12737148e-02, -6.53496832e-02,  2.64210533e-02, -3.87217104e-02, -7.48415291e-02,  1.28345389e-03, -8.85686278e-03,  7.09815845e-02, -2.33686287e-02, -4.67222817e-02,  8.20191205e-02, -3.70430835e-02,  4.53814231e-02,  8.07198137e-02,  4.40164562e-03, -4.00341488e-02, -4.39288877e-02, -2.89415568e-02,  6.50686845e-02, -8.43746811e-02, -3.34532596e-02,  6.72325119e-02,  7.04379454e-02,  6.47804290e-02,  5.84434643e-02, -2.70812437e-02,  2.57378165e-02,  6.41674623e-02, -3.83289680e-02,  2.49896497e-02, -7.28637204e-02, -3.04522719e-02, -4.88993116e-02,  1.54587599e-02},
 {-6.70850277e-02, -6.44225813e-03,  5.31048588e-02, -8.11640322e-02,  6.67985529e-02,  4.66436036e-02,  7.76920915e-02,  5.34331016e-02, -5.07305972e-02, -5.59080318e-02, -1.78386383e-02,  1.24131897e-02, -5.69880288e-03,  1.86517071e-02,  5.49480692e-02,  4.85633127e-02, -3.15834507e-02,  1.62619818e-02, -3.98070775e-02,  2.01415867e-02, -7.06868321e-02, -3.26947533e-02,  7.73036405e-02,  4.90772575e-02, -7.64352605e-02,  2.89205015e-02, -2.52561495e-02,  6.85337484e-02,  2.87145935e-02, -1.37415314e-02, -6.09492436e-02, -7.09190518e-02, -4.57878970e-02, -2.46654227e-02, -1.40974168e-02, -4.46855947e-02, -3.38767990e-02,  1.14122136e-02, -6.75752908e-02, -5.80213182e-02},
 { 4.08491120e-02,  5.89502342e-02, -1.71161685e-02, -2.98822224e-02,  4.29330468e-02,  3.70259210e-03,  7.23257586e-02,  8.03092569e-02, -2.84593701e-02,  6.81265295e-02,  7.64505267e-02,  7.22387526e-03,  4.49720770e-02,  9.46191549e-02,  3.07105463e-02, -5.39390147e-02, -4.68147360e-02, -2.77999099e-02, -2.86876429e-02,  6.86203921e-03, -4.92861159e-02,  6.50167018e-02,  5.43884672e-02,  9.62504745e-02,  3.34821604e-02, -2.97176093e-02,  1.30152013e-02,  1.68171711e-03,  1.97113696e-02,  3.60687710e-02, -5.60525507e-02, -2.95709502e-02,  6.64218515e-02, -8.94613713e-02, -6.77976534e-02, -1.21047748e-02, -8.51947218e-02, -7.50452951e-02,  1.86720006e-02, -7.56762316e-03},
 {-2.26068459e-02,  5.84970899e-02,  1.06245250e-01, -3.26562561e-02, -2.89005823e-02, -5.79218008e-02,  3.51581983e-02,  5.77511312e-03,  2.76436191e-02,  2.04551574e-02,  1.60290319e-02, -4.66575548e-02,  2.46207230e-02,  1.17603071e-01,  1.96943190e-02,  5.10524325e-02,  4.98313718e-02,  5.69329783e-02, -4.11862656e-02,  3.45531255e-02,  6.60136864e-02,  4.01496068e-02, -1.63955558e-02,  1.19776972e-01, -1.82852671e-02,  8.11509565e-02, -2.02883426e-02,  6.97067380e-02, -4.56322283e-02, -3.21843214e-02,  1.00891493e-01,  2.43287697e-03,  4.05690558e-02,  1.65799949e-02, -9.61134583e-02, -2.87073161e-02, -7.22201616e-02, -3.17455046e-02,  1.43500874e-02, -6.23286963e-02},
 {-3.49144861e-02,  7.83999041e-02, -4.58495021e-02, -4.12091389e-02, -1.01025226e-02,  3.30079570e-02,  3.57100517e-02, -4.27424945e-02,  6.41451925e-02, -7.10164309e-02,  7.54569396e-02,  2.83304155e-02, -8.83825868e-02,  8.69676992e-02, -5.31082833e-03,  1.58182010e-02, -9.90738273e-02, -2.16416344e-02, -2.57106181e-02, -2.07023472e-02,  6.36660382e-02,  9.46835428e-02,  3.19328234e-02, -1.33112865e-02,  2.22862624e-02,  3.54054198e-02, -9.99598801e-02,  4.70980164e-03, -9.75279044e-03,  5.65150715e-02, -3.28010693e-02,  6.52698800e-02,  5.86991496e-02, -8.17881152e-02,  5.20293489e-02,  1.18887825e-02,  4.40813750e-02, -8.00429508e-02,  4.30958308e-02, -8.56132135e-02},
 { 3.15325558e-02, -2.67405696e-02,  9.85234827e-02,  7.56438002e-02, -2.07184423e-02, -4.05840613e-02,  5.72011620e-02,  9.66486335e-02,  5.41510805e-02,  2.82097347e-02, -6.49548769e-02, -6.47563413e-02, -8.00815690e-03,  1.12986816e-02, -1.06569724e-02, -5.02096713e-02, -1.36822378e-02, -1.68417171e-02,  4.63105040e-03, -4.37388644e-02, -2.50951201e-02, -4.23001759e-02, -6.04267977e-02,  1.37958393e-01,  5.89303002e-02, -2.94597517e-03,  1.14515787e-02, -8.76566023e-02,  5.47430664e-02,  3.75935957e-02,  1.02163225e-01,  7.83418566e-02,  8.03673714e-02,  7.19820485e-02,  1.16651470e-03, -9.39317644e-02,  6.38840199e-02,  1.70956962e-02, -2.58198716e-02, -2.55068112e-02},
 { 5.98733425e-02,  8.28718841e-02,  4.75479886e-02,  3.89361084e-02,  6.42985553e-02, -8.55491776e-03, -7.73726180e-02, -4.65174904e-04,  4.31808122e-02, -1.25035554e-01, -1.51187796e-02,  6.96510747e-02, -4.78304438e-02,  6.96644336e-02,  7.07350373e-02,  2.99785677e-02,  1.50327841e-02,  5.44090159e-02,  3.53823602e-02, -4.11465839e-02, -5.17146513e-02, -5.64927496e-02, -4.33002487e-02,  4.85070571e-02, -6.93241507e-02,  5.72284777e-03,  4.87948488e-03, -8.27056393e-02, -3.58590037e-02, -1.72269729e-03, -1.74393300e-02, -2.94531398e-02,  2.55486183e-02,  6.20502010e-02,  2.73078699e-02,  5.83489202e-02, -8.18199292e-02, -7.11465552e-02, -2.77818814e-02, -3.27335112e-02},
 {-2.48683263e-02, -4.48546447e-02,  1.42793460e-02, -5.73635772e-02, -3.71040814e-02,  4.83633988e-02, -4.99546081e-02, -3.80827263e-02, -2.75126006e-02, -6.05115667e-02, -1.05888629e-02, -3.60276513e-02, -6.05279021e-02,  8.06246549e-02,  5.16372770e-02,  8.90584961e-02,  5.92382699e-02, -7.45491385e-02,  1.35016860e-02, -7.62476251e-02, -4.46831509e-02, -4.83752191e-02, -1.13093257e-01,  7.48825669e-02, -9.10030976e-02,  2.06623115e-02,  5.24317361e-02, -1.09446049e-01, -4.86484729e-02,  5.29940762e-02,  1.05330776e-02,  3.41112129e-02,  8.37984383e-02, -2.20179260e-02,  1.69031899e-02, -5.19131422e-02, -5.06187081e-02, -7.94470906e-02,  6.91879913e-02, -3.03778928e-02},
 { 8.03893339e-03, -2.89737456e-03,  9.41597223e-02,  6.47388073e-03,  2.60882778e-03,  7.98761919e-02, -3.41541506e-02, -5.79096526e-02,  1.13675538e-02, -5.49194477e-02, -2.10881680e-02, -6.31871372e-02, -3.87081169e-02,  9.01202671e-04, -2.51493901e-02,  2.22642552e-02, -4.72169137e-04, -2.63498034e-02,  1.91938505e-02,  8.22448917e-03,  1.28160138e-02,  3.25516611e-02, -6.39379397e-02,  8.78965929e-02, -1.13412037e-01, -2.23274995e-02,  3.99002433e-02, -6.48906082e-02,  6.67095631e-02, -9.05110501e-03,  1.64842699e-02,  1.18195387e-02,  6.30894229e-02,  2.94589978e-02, -1.51631385e-02,  2.03207210e-02, -2.48620585e-02,  3.51172946e-02, -4.30501960e-02, -5.29994606e-04},
 {-4.90813330e-02, -7.24938884e-02, -3.87609340e-02, -3.57030183e-02,  1.18986823e-01, -1.58514064e-02, -6.00128882e-02,  2.17241831e-02, -1.48461654e-03, -4.68934029e-02,  1.73145384e-02,  5.84820844e-02,  5.92896566e-02,  8.14978331e-02,  5.09860460e-03, -1.56998169e-02, -2.18076967e-02, -6.18392229e-02, -2.24376507e-02,  2.79577989e-02, -4.92959395e-02, -2.57220604e-02, -4.76719812e-02,  1.18052840e-01,  1.01377284e-02, -6.23257179e-03, -7.63844177e-02, -2.91819442e-02,  1.32035427e-02, -4.24278527e-03,  1.05976596e-01,  9.50257853e-02, -2.69883685e-02,  7.94281512e-02,  1.52778411e-02, -7.49282241e-02,  4.47345711e-02, -1.12014897e-02, -4.60266285e-02, -6.68945117e-03},
 {-5.05229756e-02,  8.80674943e-02,  3.67208757e-02,  9.28761717e-03,  1.12395417e-02, -6.05353713e-02, -1.52087025e-02,  2.32911706e-02,  1.71648879e-02, -5.43242879e-02, -4.48843837e-02, -6.94448221e-03, -3.87853570e-02,  7.89185464e-02,  2.62631960e-02,  9.17521417e-02,  1.01457238e-02,  1.51356717e-03,  3.51735651e-02, -9.17363092e-02,  1.86778232e-03,  1.10207148e-01, -6.98391125e-02,  1.15501136e-01, -2.60911193e-02,  1.84844043e-02,  5.57317995e-02,  3.85452770e-02,  2.82517578e-02, -6.86649904e-02, -1.93775687e-02,  4.42722365e-02,  6.20853379e-02,  1.79204009e-02, -1.64450984e-02, -1.05593232e-02,  6.44343570e-02, -1.70980524e-02, -5.96474260e-02,  6.12693653e-02},
 { 7.78103946e-03, -6.20047413e-02, -5.34109138e-02, -5.83373420e-02, -2.26965789e-02,  5.93030900e-02,  4.50656489e-02,  5.02796508e-02,  9.64275077e-02,  6.02972601e-03, -2.67914813e-02,  5.34715317e-02,  4.14920859e-02, -5.66388965e-02, -7.28919432e-02,  2.28470061e-02,  3.04151531e-02, -4.65143472e-02, -4.63870205e-02, -4.10829522e-02, -4.20297943e-02, -4.08519506e-02,  6.95432723e-03,  1.10765263e-01, -9.70483646e-02, -1.95896663e-02,  5.90985455e-02, -7.21807778e-02,  2.73636985e-03,  7.08244834e-03, -4.96350341e-02,  2.22669989e-02,  2.29691844e-02,  7.24628344e-02,  2.45758761e-02, -2.56833043e-02,  2.94671766e-02,  3.32820714e-02, -8.71191919e-02, -1.21541759e-02},
 {-9.07191187e-02,  4.88806458e-04, -6.03548139e-02,  4.73480262e-02,  9.07850859e-04,  8.00074190e-02, -1.43152289e-02,  8.94560367e-02,  1.13383196e-01,  7.75719015e-03,  4.95830812e-02, -5.62490225e-02,  7.48930052e-02,  1.01403579e-01, -9.00118127e-02,  1.03196017e-02,  4.16630413e-03,  3.44866402e-02,  7.77750611e-02,  7.85264671e-02, -5.48836999e-02, -3.35247666e-02,  3.37007679e-02,  5.28858155e-02,  2.40749437e-02,  4.73697782e-02, -3.80144715e-02, -4.30159681e-02,  5.50833680e-02, -9.42837074e-02, -2.89874896e-03,  9.07700509e-02, -2.74917558e-02, -2.03964561e-02,  3.11741158e-02,  8.43424052e-02, -7.96697382e-03,  4.27429304e-02,  4.93230298e-02,  6.78013116e-02},
 { 2.97317747e-02,  7.40816668e-02,  1.82886459e-02, -8.47840309e-03, -1.68098174e-02,  4.29776125e-02, -2.80915685e-02,  2.57966528e-03,  1.47632807e-02,  4.02210429e-02,  2.02826913e-02, -1.27226692e-02, -8.12574178e-02, -2.22581718e-03,  4.78722826e-02, -5.14151761e-03, -7.80562460e-02, -3.83978747e-02,  4.19480428e-02,  8.28296989e-02, -5.43531515e-02, -9.02317371e-03,  2.84489356e-02, -1.78338885e-02,  5.20141833e-02, -9.65379775e-02, -7.72630274e-02,  4.29486949e-03, -6.58783093e-02, -4.91684861e-02, -2.36433968e-02, -4.31476235e-02,  1.15642868e-01,  5.72468378e-02,  4.87022027e-02, -4.26038764e-02,  4.70300391e-02,  3.91727462e-02, -8.02200213e-02, -2.93644983e-03},
 {-5.16765304e-02,  4.54802029e-02,  1.17658805e-02,  3.40245590e-02, -5.74668031e-03, -1.93740684e-03,  8.18787441e-02,  1.14354156e-02, -4.09031808e-02,  4.02142666e-02,  4.59824353e-02, -1.00733079e-02, -7.35818967e-02,  1.91020500e-02, -2.03854032e-02,  3.16742025e-02, -7.34214038e-02,  5.48087470e-02,  1.41697228e-02, -7.72817507e-02,  3.27618122e-02,  4.77322526e-02, -5.45628332e-02, -6.10297844e-02, -8.73305574e-02,  5.99601194e-02,  4.55070287e-02, -2.91464683e-02,  7.56194890e-02, -1.19878007e-02,  5.98608851e-02,  5.19838259e-02, -1.60981377e-03,  1.49989985e-02, -5.86349443e-02,  5.95675558e-02, -5.46408296e-02,  5.43692708e-03, -1.16057247e-02,  1.05461599e-02},
 { 1.46546997e-02,  2.93164197e-02, -4.92056422e-02, -3.95524800e-02, -1.49202440e-02, -2.66750436e-02,  5.86702861e-02,  6.79720119e-02,  7.33276606e-02,  8.19147006e-03, -1.02514006e-01,  3.66333202e-02,  4.22877707e-02,  3.99232097e-02, -9.51345917e-03,  2.97116935e-02,  2.99333353e-02,  4.30505686e-02, -4.43700626e-02, -5.28020300e-02,  1.77771517e-03,  9.42440480e-02,  4.53948975e-02,  3.64776840e-03, -7.47987926e-02, -5.61087728e-02,  9.13318247e-03,  2.72594690e-02, -1.15555087e-02, -7.17863366e-02, -9.38077085e-03, -3.52604091e-02,  1.57533344e-02,  7.16642439e-02,  1.23986639e-02,  3.35831847e-03, -7.21088573e-02,  7.46914819e-02,  1.94035762e-03, -6.44447329e-03},
 { 7.80615956e-02,  2.73226816e-02,  4.85074930e-02,  5.01646698e-02,  7.71659389e-02,  8.09292495e-02, -5.63012622e-03,  3.57401036e-02,  3.67165059e-02, -6.09623417e-02,  6.25959947e-04, -2.52288934e-02,  2.98005436e-02,  3.05346064e-02, -4.70508263e-02,  7.74360672e-02,  1.73393004e-02, -2.01317091e-02, -4.40514386e-02,  6.31149560e-02, -6.93469942e-02,  1.10244285e-02, -5.56381792e-02,  5.35791703e-02, -3.10834050e-02, -8.26362893e-02, -1.08500347e-02, -7.95818269e-02, -4.56039123e-02, -5.85417915e-03,  7.91216940e-02,  2.68753245e-02,  7.42161199e-02, -7.06253797e-02, -4.02795970e-02, -3.04194260e-02,  8.81787837e-02, -2.60059237e-02, -5.64856827e-02, -2.70634778e-02},
 {-3.72108519e-02,  7.04971328e-02,  9.02223866e-03, -2.14458387e-02, -1.93897337e-02,  1.97467301e-03, -5.38304485e-02, -2.94624362e-02, -4.45368066e-02,  4.69009168e-02, -2.91651357e-02, -7.58850127e-02, -3.71292010e-02,  1.43159498e-02, -9.08031762e-02, -4.50741947e-02, -2.25834381e-02, -3.34283561e-02, -6.00427091e-02,  8.29979926e-02,  1.50750084e-02,  8.29928219e-02,  9.40167531e-03,  5.54901063e-02, -4.64588627e-02,  3.46183777e-02, -1.00676209e-01, -1.87904178e-03,  1.93257090e-02, -6.41317889e-02,  4.37380746e-02,  3.05442547e-04, -5.14343567e-02,  3.94938216e-02, -1.66290794e-02, -3.48696858e-03, -1.99061707e-02, -3.05663813e-02, -8.54374170e-02, -6.42734617e-02},
 { 7.47801512e-02,  5.85137028e-03,  8.72049257e-02, -2.51301900e-02,  7.40671307e-02,  6.90135956e-02, -1.96901299e-02,  1.33297527e-02, -3.90299670e-02,  4.44108807e-02,  3.38236094e-02, -8.43886693e-04, -6.67465702e-02, -3.69551480e-02, -1.48275690e-02,  7.02570751e-02, -2.34673824e-02, -6.08933112e-03, -6.04390986e-02,  3.53138484e-02, -1.15365367e-02, -1.54874464e-02, -6.86895698e-02,  2.30752565e-02,  2.57114116e-02,  5.41028008e-02,  6.59030816e-03, -1.10737011e-01, -6.99593825e-03,  4.07493301e-02, -4.68913466e-02, -3.44217718e-02, -8.40033293e-02, -5.01606567e-03, -3.40990797e-02, -7.69441947e-02,  2.58025080e-02, -1.27635701e-02, -6.10149205e-02, -4.33028191e-02},
 { 8.04701075e-02,  7.90728256e-02,  4.23602946e-02, -6.87544718e-02, -2.34674495e-02, -3.27262916e-02,  3.28559354e-02,  1.41689768e-02,  3.26029211e-02,  5.33951372e-02,  5.12165390e-02,  6.85771555e-02, -4.69662324e-02, -5.37940785e-02, -7.78377503e-02,  9.13641602e-03,  3.37437354e-02, -5.93854524e-02, -8.25677067e-02, -6.47103190e-02, -5.21073304e-03,  5.53195411e-03, -3.75641994e-02,  3.11562722e-03, -4.29562069e-02, -5.10831214e-02, -3.11005744e-03,  3.89246829e-02,  4.46628500e-03, -1.41554046e-02,  1.10390827e-01, -5.60179539e-02,  8.17808323e-03, -1.05717173e-02,  4.88443077e-02, -8.19338635e-02,  3.62074152e-02,  5.86304031e-02, -3.06828842e-02, -2.48522554e-02},
 {-2.99524106e-02,  1.74815599e-02, -3.00213750e-02, -9.96730383e-03, -1.17501942e-02,  9.44887400e-02, -6.18258268e-02,  4.74881753e-02, -5.67180850e-03,  1.99810211e-02,  2.96017416e-02, -6.02178015e-02,  2.01277435e-02, -2.55842153e-02,  4.56481166e-02, -6.73904791e-02, -7.33412281e-02,  5.43803871e-02,  3.78890932e-02, -5.83475158e-02,  2.83811986e-02,  8.75320211e-02,  6.15627505e-03,  9.78859067e-02, -1.03454791e-01,  4.84934971e-02, -1.02091938e-01, -8.74762610e-02, -9.01535749e-02, -6.08709864e-02,  4.99611441e-03, -8.86785425e-03,  2.71452442e-02,  1.38128391e-02, -4.69869599e-02, -6.99756369e-02, -4.63094711e-02,  4.89302166e-02, -4.49377187e-02, -3.28086056e-02},
 {-2.82889251e-02, -5.83161265e-02,  7.02004731e-02, -4.43657711e-02, -2.68120449e-02, -4.51149605e-02,  4.31345664e-02, -1.44061428e-02, -4.48392108e-02,  8.60797763e-02, -6.30111608e-05, -6.24182671e-02,  6.14245087e-02, -5.68663254e-02, -7.05394223e-02, -4.95928563e-02,  4.68804641e-03,  2.62103565e-02,  4.04069312e-02, -1.98980365e-02,  3.01969261e-03,  1.21399023e-01,  2.77305879e-02, -8.88199732e-03, -4.12534876e-03,  4.32042368e-02, -1.20242678e-01, -1.06106885e-03,  2.84495521e-02,  6.44469052e-04,  6.55247718e-02,  2.84880884e-02,  3.30426916e-02,  8.41835514e-02,  5.52486926e-02,  6.38407394e-02,  4.96573076e-02, -7.34310299e-02,  3.33394818e-02, -3.58867645e-02},
 { 3.38403285e-02,  9.26071256e-02,  9.40679982e-02,  4.03132252e-02,  2.34761108e-02, -7.43451416e-02,  6.75170124e-02, -4.54211645e-02, -3.28609496e-02, -5.75459413e-02, -5.53203598e-02,  3.13887410e-02, -7.82475024e-02,  3.44519652e-02, -6.35303408e-02, -2.19607968e-02,  6.99784979e-02,  1.60311181e-02, -4.89209220e-02, -1.91316400e-02, -5.00301877e-03, -1.67850743e-03,  1.63529404e-02,  9.93601829e-02, -6.39352575e-02,  4.70751897e-02,  1.54030500e-02, -8.03874731e-02,  1.16054295e-02,  5.87097332e-02,  3.86569798e-02, -2.99698208e-02,  7.60320276e-02, -4.79069166e-02,  8.25949311e-02, -5.79168387e-02,  1.10873422e-02,  1.00378068e-02,  1.29994575e-03,  2.68495083e-03},
 {-1.47964933e-03, -5.17914221e-02,  5.09734899e-02,  7.30712414e-02, -5.61408848e-02, -6.67677373e-02,  5.84259455e-04, -6.50313124e-02,  3.02284397e-02, -4.42820266e-02, -7.34450668e-02,  4.38417308e-02, -5.48839793e-02, -4.91146594e-02, -9.56830829e-02,  9.76482779e-02,  2.51118038e-02, -7.34799821e-03, -6.28913268e-02, -4.37584780e-02,  2.78473385e-02,  2.68696249e-02,  3.32148559e-02,  2.60179322e-02,  4.38928790e-02, -2.73467880e-02, -2.56462228e-02, -8.70154276e-02,  3.46988579e-03, -1.52498260e-02, -1.69370677e-02,  8.97789821e-02,  2.03339979e-02, -2.10328866e-02,  2.25705914e-02,  4.19730023e-02,  2.38391664e-03,  7.43993046e-03,  1.27628064e-02, -5.59213944e-02},
 {-7.34486654e-02, -2.12242138e-02, -1.06453802e-02, -5.12705408e-02, -3.97640318e-02, -2.39562467e-02, -3.82393934e-02, -4.37300652e-02, -1.34292804e-02,  6.23816140e-02,  6.46746159e-02,  2.36786362e-02,  7.97544122e-02, -3.12465690e-02,  5.38577028e-02, -2.82110069e-02, -5.66937253e-02,  4.18660901e-02, -7.39583448e-02, -3.54915485e-02,  3.86070162e-02,  6.92488551e-02, -1.53634427e-02,  6.98037744e-02, -8.05024952e-02,  2.67132074e-02, -1.35403052e-02,  6.78632259e-02, -7.93983787e-02, -5.70130709e-04, -7.94115383e-03, -1.52601965e-03, -3.72794978e-02, -5.63645102e-02,  3.55333127e-02, -1.38201648e-02, -8.17801654e-02, -6.56077713e-02, -6.19771257e-02,  4.95575592e-02},
 {-7.18736574e-02,  5.40462248e-02, -1.51734771e-02,  5.42139709e-02,  6.78273663e-02,  7.64828548e-02,  6.42972440e-02, -6.65384829e-02,  7.20944107e-02,  6.05049953e-02, -4.33438532e-02,  7.58116767e-02, -8.01846534e-02,  1.97272748e-02,  4.08505229e-03,  6.36351109e-02,  3.58510539e-02, -2.14328840e-02, -3.37226279e-02, -4.56933863e-02,  3.91011424e-02, -2.68105976e-02, -6.93485811e-02,  6.13876618e-02,  3.77030969e-02,  4.07496952e-02,  6.02427498e-02, -1.62069127e-02,  1.44313695e-02, -6.32895008e-02,  2.45699356e-03,  5.41204177e-02, -5.80366701e-02,  4.17269245e-02, -6.37376830e-02, -4.84754443e-02, -3.08308657e-02, -4.42381762e-02,  7.07831234e-02,  2.76570786e-02},
 {-3.20938490e-02,  6.01112060e-02, -5.50391190e-02, -2.66203005e-02, -4.71930988e-02,  6.18246011e-02, -7.07024708e-02,  3.34448703e-02,  6.15564771e-02, -2.02680975e-02, -4.41390425e-02, -2.59440392e-02, -2.31371671e-02,  5.21411411e-02,  7.87740946e-02,  2.43007913e-02, -7.13000540e-03,  4.77713626e-03, -3.04355137e-02, -3.70216556e-02,  6.00980222e-03,  1.71446986e-02, -5.76163940e-02,  2.01234575e-02, -1.94715522e-02, -5.81701174e-02,  8.28677863e-02,  6.21321499e-02, -7.49849528e-03, -3.77368890e-02, -5.06923944e-02,  1.24733215e-02, -2.56301947e-02, -1.78384930e-02, -7.98411015e-03,  8.99803638e-03, -5.54446392e-02,  3.46500501e-02,  6.52635247e-02, -2.99120415e-02},
 {-5.20527512e-02, -2.30137669e-02,  7.07686320e-02, -9.71733686e-03, -8.28076974e-02,  8.12086165e-02,  6.97888061e-02,  1.72697211e-04, -1.87575091e-02, -7.05340728e-02,  4.35657054e-02, -1.13878946e-03,  1.54604465e-02,  6.47869185e-02, -3.37229297e-02, -1.56398118e-02, -7.85238594e-02, -5.80616370e-02,  6.18608259e-02,  6.73384070e-02, -4.53810953e-02, -1.14833727e-03,  1.38619337e-02, -1.45367309e-02,  7.27797374e-02, -1.24436747e-02, -5.62469549e-02, -2.81611662e-02,  1.42139699e-02, -2.82478705e-02,  4.43884060e-02,  2.42617764e-02, -6.11685403e-02,  3.63569222e-02,  5.13225086e-02, -5.86925149e-02, -1.22573543e-02, -3.20042223e-02, -7.49442205e-02, -4.83484864e-02},
 {-1.70541033e-02, -5.44937700e-03, -2.30219215e-03,  8.24687481e-02, -7.97955245e-02,  3.62628698e-03,  2.23025158e-02,  5.74152619e-02, -2.21815258e-02, -7.89947808e-03,  4.51495945e-02, -8.29603150e-02,  7.06782192e-02,  4.67119515e-02, -4.82365005e-02,  4.02227044e-02, -8.20808709e-02, -2.83163153e-02,  3.89385894e-02, -3.55304591e-02,  7.59857744e-02, -1.05422363e-02, -7.16592148e-02, -5.54085523e-02,  8.35985243e-02,  4.64708805e-02, -3.62568498e-02,  1.24141574e-04, -5.94489276e-03,  8.19024444e-02,  5.44159710e-02, -7.38186687e-02,  3.98516804e-02, -6.52994514e-02, -2.19661966e-02, -5.29030710e-03, -5.96411116e-02, -6.29229620e-02,  2.24212632e-02, -4.81844619e-02},
 { 8.49376246e-02, -3.04778572e-02,  5.10909483e-02,  7.41389245e-02,  1.52704818e-02,  6.45319000e-02, -5.54028042e-02, -5.92745724e-04, -6.14089780e-02, -3.52643318e-02,  4.55616554e-03, -8.50357413e-02, -2.32810136e-02,  1.79826003e-02, -5.24306893e-02,  1.95170585e-02, -1.66932978e-02, -2.90974732e-02, -7.61782899e-02, -7.68235549e-02,  2.12209318e-02, -5.62137030e-02, -5.31538110e-03,  2.71527842e-02,  6.80747628e-02,  1.94130987e-02, -7.26375505e-02,  6.84350636e-03, -2.84884367e-02, -1.97052658e-02, -5.97955957e-02,  2.70878710e-02,  9.60758142e-03,  1.20225148e-02, -5.64373024e-02, -5.17615527e-02, -8.04887861e-02, -2.29796618e-02,  1.64742721e-03,  6.55597150e-02},
 {-4.88158427e-02,  2.21565627e-02, -1.33354301e-02,  2.44022664e-02,  5.96799254e-02,  1.35731734e-02,  1.76693895e-03,  9.30257738e-02, -4.05363850e-02,  6.29546866e-02,  3.58455144e-02, -8.20727274e-02, -7.63574541e-02, -6.87437430e-02,  4.63211052e-02, -1.36936386e-03, -1.22385425e-02,  3.97558101e-02,  4.33337241e-02, -4.36603129e-02, -3.32564086e-04,  7.17345178e-02,  5.67488112e-02, -1.10343797e-02, -8.06439891e-02,  3.67511883e-02, -2.51203272e-02,  2.14766636e-02, -5.79872988e-02,  1.68394973e-03,  5.27228229e-02,  2.95637199e-03, -1.23873269e-02,  2.69189160e-02, -7.66257122e-02, -7.42248073e-02,  5.07517979e-02, -3.37668955e-02, -3.83347794e-02,  4.69646342e-02},
 {-2.75231767e-02, -6.44044429e-02,  2.30503678e-02,  1.15733510e-02, -1.27424672e-02, -5.06677069e-02, -2.54480727e-02,  1.52731072e-02,  7.21141603e-03,  6.07051998e-02, -2.59097256e-02,  5.31256236e-02,  4.95900819e-03,  1.05461016e-01,  7.04767406e-02,  9.11661834e-02, -6.67681992e-02, -3.36900773e-03, -2.82557532e-02,  3.24019715e-02,  2.70444676e-02, -4.33713049e-02,  1.33988366e-03,  6.48882240e-02, -7.59549141e-02, -9.60897934e-03, -1.83121935e-02, -2.56776046e-02, -4.91510630e-02, -2.98950952e-02,  6.61168694e-02,  2.54780035e-02, -8.49213079e-02, -4.47163731e-02, -7.76921306e-03, -4.25895452e-02,  9.89377685e-03, -3.55839282e-02,  1.26699181e-02,  2.72925775e-02},
 { 3.22543047e-02, -5.34357168e-02,  2.44102976e-03,  4.04452123e-02,  3.67293134e-03, -7.20692948e-02, -9.06994343e-02,  9.44880471e-02,  4.56915163e-02,  7.10115582e-03, -4.40448970e-02, -2.87696719e-02, -8.25701430e-02, -7.33562559e-03, -1.21999923e-02,  4.40653749e-02,  4.71820831e-02, -3.33700366e-02,  2.53724437e-02,  1.30765261e-02,  4.47983369e-02, -1.65802408e-02, -9.93087292e-02, -1.77800246e-02, -8.04351270e-02, -5.14806211e-02,  1.62658980e-03, -1.33913355e-02,  1.87410731e-02,  1.40501102e-02,  3.66063230e-03, -3.90099958e-02,  2.07211021e-02,  1.85897779e-02, -2.38922164e-02, -4.45079766e-02,  2.26040147e-02,  1.15154777e-03,  2.74703447e-02, -9.59929749e-02},
 {-4.67067026e-02,  6.11992255e-02,  4.42024767e-02,  1.04610607e-01,  5.08566909e-02, -5.12788184e-02, -6.49367794e-02,  9.79586244e-02,  1.10824920e-01,  2.75044516e-03, -8.49064365e-02,  6.28880337e-02,  2.76930202e-02,  5.23901880e-02,  1.49383619e-02,  5.66336550e-02,  3.95804606e-02,  3.12622786e-02,  1.92488879e-02,  7.24163279e-02,  6.19301610e-02,  2.94306483e-02,  5.87186217e-02,  1.33420050e-01, -2.21518949e-02,  3.80198285e-02, -5.48144765e-02, -5.22447005e-03,  5.06135151e-02, -2.09898800e-02,  7.00894371e-03, -2.81276461e-02, -8.69151503e-02,  6.56843632e-02, -1.01562947e-01, -9.73398313e-02,  3.27020884e-03, -2.83196010e-02, -6.19824901e-02, -7.28242993e-02},
 {-6.07556626e-02, -1.32590323e-03,  6.84217662e-02,  1.86987650e-02,  8.95205513e-02,  2.25207973e-02, -3.25048193e-02, -1.03381742e-02, -3.76643464e-02, -1.39060374e-02, -2.04470064e-02, -5.34662716e-02, -8.15823898e-02,  8.72191191e-02, -4.73758876e-02,  9.68139991e-03, -8.59488472e-02, -3.02266125e-02, -2.63130590e-02, -5.51057309e-02, -2.14648787e-02,  1.03434786e-01,  3.61382999e-02,  1.31298587e-01,  3.66650224e-02,  3.21593471e-02, -9.80758071e-02, -4.92464527e-02, -7.04593258e-04, -1.04034469e-01,  2.66904070e-04,  1.25293322e-02, -7.88974315e-02, -4.18425389e-02, -9.27562937e-02, -2.02696789e-02,  3.23354779e-03, -1.19770368e-04, -5.83767742e-02, -1.65501554e-02},
 {-1.50169227e-02, -1.52237648e-02,  1.14347510e-01, -3.45655791e-02, -5.53249344e-02,  2.76957341e-02,  3.52601260e-02, -1.39792217e-02, -2.99200439e-03, -1.12698309e-01, -2.70023607e-02, -4.97424081e-02, -4.11389098e-02,  9.67060626e-02, -2.35847756e-02, -2.09002327e-02, -3.98145616e-02, -2.66484404e-03, -2.62303781e-02,  4.42033336e-02, -2.52378136e-02,  8.69161487e-02, -8.35615501e-05,  1.40820503e-01, -6.89791068e-02, -2.75702439e-02,  3.52784917e-02, -4.10895869e-02,  8.73186514e-02, -7.33313849e-03,  1.64815746e-02, -2.76110917e-02,  8.07934031e-02,  8.72327089e-02,  9.74118989e-03, -5.66709973e-02, -6.94278860e-03,  1.02792149e-02, -7.47242197e-02,  6.01628274e-02},
 {-6.46606013e-02,  2.15119310e-02,  5.99790588e-02,  6.04881980e-02, -3.87964211e-02, -6.12816773e-02, -6.05143085e-02,  1.94645263e-02,  4.08933572e-02, -3.83450575e-02, -2.30552256e-02,  3.29259746e-02, -2.73763891e-02,  1.13066472e-01, -6.11938909e-02, -4.83265668e-02,  1.65474217e-03,  4.07191403e-02,  2.99531631e-02, -3.92579995e-02, -5.76395839e-02, -2.49701589e-02, -7.18417615e-02,  2.16086432e-02,  6.04049210e-03,  1.69850653e-03, -9.56299007e-02, -1.23020597e-02,  1.19772702e-02, -6.12932406e-02,  6.06372096e-02, -2.84560323e-02,  8.18857551e-02, -1.15118362e-02,  6.58934750e-03,  5.24031892e-02,  5.73424809e-03, -6.99652266e-03,  5.85725978e-02, -5.79439364e-02},
 { 3.08133313e-03,  2.00217254e-02, -8.91328603e-03, -2.80823782e-02,  3.44633795e-02,  6.82849288e-02, -4.56420183e-02, -3.50159854e-02,  2.84915417e-02, -2.60228552e-02, -3.96452053e-03,  6.11969642e-02, -2.81543322e-02, -4.73553920e-03,  7.05507919e-02,  1.13149852e-01, -5.31617850e-02,  5.12734475e-03,  4.06879187e-02, -2.70214081e-02, -6.04573153e-02,  3.51222977e-02,  3.08968257e-02, -5.07938769e-03, -1.22535966e-01, -4.08892222e-02, -1.06039308e-02, -9.41072628e-02, -4.50871810e-02,  1.47122219e-02,  1.20022167e-02,  4.08947580e-02,  8.78200959e-03,  1.09768175e-01,  1.87505484e-02, -6.74168095e-02, -7.44829699e-02,  5.34571223e-02, -2.81911786e-03, -2.69207228e-02},
 { 2.13984381e-02, -3.73182073e-02, -2.32419614e-02,  2.98682824e-02,  7.90388510e-02,  1.54449921e-02, -4.34230501e-03, -5.07804146e-03, -4.62644547e-02,  1.08978171e-02, -4.60985191e-02, -1.56655479e-02, -5.30175157e-02,  2.53009815e-02, -2.40089390e-02,  4.93289717e-03, -7.09065124e-02,  6.99997470e-02, -5.72563671e-02,  6.32159114e-02,  5.32323904e-02, -1.23708965e-02, -1.23351835e-01, -7.38312397e-03, -6.29437342e-02, -2.48864200e-02, -7.61644915e-02, -7.32988715e-02,  6.00335933e-02, -2.71506794e-02, -5.68847805e-02, -4.51062359e-02,  7.63398409e-02, -1.16245542e-02, -1.05900481e-01, -2.31283549e-02,  3.24796722e-03, -7.10965097e-02, -4.00494505e-03,  8.71822760e-02},
 {-2.05563214e-02, -3.36747132e-02,  5.82066886e-02, -6.57794178e-02,  3.01717930e-02,  7.90120810e-02, -6.37196898e-02, -4.81555238e-02,  1.06352687e-01, -1.19369060e-01,  7.14198649e-02,  5.91892675e-02,  2.16751155e-02,  1.15514539e-01,  2.22878922e-02,  1.46621028e-02,  6.49549216e-02, -4.56809402e-02,  3.02010141e-02,  4.10788767e-02,  4.77049500e-02,  1.22719500e-02, -1.44186299e-02,  1.09970339e-01,  1.00806262e-03,  1.39049031e-02, -9.52880755e-02, -8.18113610e-02, -6.94722161e-02, -1.00985773e-01,  4.87168096e-02,  9.05022174e-02,  4.63907011e-02,  5.51203899e-02,  1.68166123e-02, -9.01699290e-02, -4.21787761e-02, -8.18486959e-02,  6.68879300e-02, -5.01536801e-02},
 {-2.70704534e-02,  5.58445342e-02,  5.79366535e-02,  5.14905937e-02,  3.82377468e-02,  6.75566718e-02, -1.62542034e-02, -3.71044017e-02, -4.51624021e-02, -6.08062893e-02,  5.17974533e-02,  1.66582838e-02, -2.66160294e-02,  1.48768676e-02, -3.95525172e-02, -1.93641111e-02, -8.42486769e-02, -4.28893417e-02, -1.51091050e-02,  6.58343509e-02,  6.55158609e-02,  4.61712293e-02, -8.74220580e-03,  4.29474562e-02, -5.67977019e-02, -1.00871965e-01, -4.15495113e-02, -3.82382274e-02, -6.09812662e-02, -3.74621972e-02,  8.97667091e-03,  6.77554235e-02,  6.41797557e-02,  2.67606433e-02, -4.72981706e-02,  2.71811634e-02, -2.83962078e-02, -9.66324285e-02, -7.75622427e-02,  7.26390630e-02},
 {-4.62475605e-02,  6.31095245e-02, -4.53847926e-03,  4.36298735e-02,  4.28887457e-02, -4.11576442e-02, -1.37459617e-02,  2.96057556e-02,  9.08412710e-02, -2.70003136e-02,  5.62745258e-02, -1.97100006e-02, -5.11509739e-02,  1.44947488e-02,  6.98809102e-02, -5.00077568e-02, -9.62167792e-03,  5.17439842e-02, -4.92172949e-02, -1.08196307e-03, -7.95914500e-04,  4.64153588e-02,  1.36813624e-02, -9.61140729e-03,  7.36567454e-05,  3.60908136e-02,  2.62022093e-02, -3.88954487e-03, -4.24082093e-02, -8.43616724e-02,  2.06532590e-02,  3.47606614e-02, -5.19633144e-02, -3.09450440e-02,  3.02710459e-02,  2.37883050e-02,  7.20699951e-02, -4.73050848e-02, -3.62324901e-03,  1.98991913e-02},
 { 2.52444614e-02,  3.40014659e-02,  5.40391319e-02, -7.06623644e-02, -5.22997007e-02,  1.11154914e-02,  4.88175973e-02, -9.12070833e-03,  8.40729252e-02,  4.14819680e-02, -8.66446942e-02,  2.51525640e-02,  4.97878678e-02, -5.39918765e-02, -4.07848693e-02,  2.76534222e-02,  4.14413549e-02, -1.03448201e-02,  4.16992567e-02, -1.51778702e-02,  1.77578498e-02,  8.08215216e-02,  2.17102263e-02,  8.01168010e-02, -3.23502235e-02,  2.45877374e-02, -2.61216462e-02, -7.86568522e-02, -3.60981897e-02,  1.62971150e-02,  7.74691254e-02,  1.12794945e-02,  3.64805050e-02,  4.00707591e-03, -3.09549943e-02, -2.82496102e-02,  9.04102847e-02, -5.49251400e-02,  1.18595725e-02,  3.36449593e-02},
 {-1.94632225e-02,  4.94453236e-02,  2.07674038e-02, -1.16720032e-02,  1.25757009e-02,  8.94059688e-02, -2.24155635e-02,  5.55749908e-02, -3.53907757e-02, -9.59417373e-02, -7.95434862e-02,  7.11354390e-02, -1.98203605e-02,  9.47770700e-02,  8.11145678e-02,  3.68615948e-02,  1.32879307e-02, -1.33274775e-02,  8.76367912e-02,  7.86991045e-02,  5.65414578e-02,  8.61154869e-03, -1.53535316e-02,  4.02418040e-02, -1.89999789e-02, -4.43787090e-02, -5.02147886e-04, -1.44367656e-02,  4.17863242e-02,  5.36813997e-02, -5.24223819e-02, -1.97930690e-02, -6.35090768e-02, -6.33385852e-02, -5.57622798e-02,  3.17375772e-02, -5.81388399e-02,  5.17753325e-02,  2.16933582e-02,  9.36713908e-03},
 {-4.25096322e-03, -3.74094658e-02, -1.25644375e-02, -5.24680093e-02,  6.39151260e-02, -1.71599016e-02,  1.03993518e-02,  7.50812963e-02,  8.51106867e-02,  5.28194234e-02, -5.12101576e-02,  2.99567282e-02, -5.13945408e-02,  1.36492332e-03,  6.39034668e-03, -8.71766359e-03, -1.94485357e-03,  2.46675853e-02, -2.05313675e-02, -7.18978867e-02, -1.04947083e-01,  1.02708995e-01,  2.95101013e-02,  9.24039409e-02, -7.99511075e-02, -4.74441387e-02, -5.26322909e-02,  3.55189759e-03,  6.48122132e-02,  6.16284199e-02, -3.41301188e-02, -7.08024576e-02, -3.05397697e-02,  9.73260850e-02, -8.56597275e-02, -9.03564170e-02, -5.12955487e-02,  4.99335080e-02, -5.32187894e-02, -2.83054654e-02},
 {-7.54235033e-03, -3.92741375e-02, -3.75431255e-02, -1.59013458e-02,  7.57676214e-02,  2.92114411e-02, -1.81567203e-02,  6.24267943e-03,  7.59625360e-02, -1.97284576e-02, -5.86228594e-02, -9.26447660e-03, -5.54431491e-02,  6.73073381e-02,  1.94417592e-02, -4.74686921e-02, -4.12498042e-02,  7.14057833e-02,  9.32965428e-02,  2.85688750e-02,  4.24662158e-02,  3.13812010e-02,  1.63995903e-02,  9.19444561e-02, -9.98463854e-02,  3.28340270e-02,  5.94791677e-03,  2.59002764e-02, -6.63398579e-02,  1.45064504e-03,  4.78870375e-03,  2.40098666e-02,  8.68508443e-02,  4.48583513e-02, -6.95456564e-02, -2.32970677e-02,  4.64815972e-03,  9.30180424e-04,  7.15424940e-02,  8.49125832e-02},
 {-3.53428572e-02, -5.43505847e-02,  4.01602127e-02, -5.77007458e-02, -5.52676171e-02,  6.79561496e-02,  4.10666205e-02, -1.04938401e-02,  1.16077952e-01, -2.40546148e-02, -1.08243890e-01,  6.35285974e-02, -8.65901187e-02, -1.26879048e-02, -8.03769380e-02, -6.62549678e-03,  4.62763151e-03,  2.20562089e-02,  2.72276369e-03, -2.52790805e-02,  7.63160363e-02, -4.00735475e-02, -6.69154450e-02,  3.88207361e-02,  1.70818884e-02,  2.86020804e-02, -1.97727066e-02, -5.56563027e-02, -9.01828185e-02,  2.27825772e-02, -1.29168881e-02, -1.57443732e-02,  3.65938470e-02, -2.38571549e-03, -9.14143305e-03, -3.01188920e-02, -5.16659655e-02, -1.33144232e-02,  2.18818039e-02,  6.41887635e-03},
 { 5.35065308e-02,  5.53687774e-02, -7.45991152e-03,  2.53662579e-02,  5.71512990e-03, -1.96892265e-02, -1.16729615e-02, -3.28359865e-02,  1.01159170e-01,  4.05930243e-02,  1.29811987e-02, -1.03291953e-02, -4.76519316e-02,  5.65677062e-02,  5.01935408e-02, -1.20667573e-02,  6.30779713e-02,  1.43186981e-02,  3.55161317e-02, -1.88590437e-02,  8.40793997e-02,  4.65796962e-02, -8.01706985e-02,  8.04497972e-02,  1.39102833e-02,  2.45902110e-02, -9.87158194e-02, -5.11610880e-02,  3.20398472e-02, -7.99346492e-02,  4.21558991e-02,  1.28850490e-02,  7.97985420e-02,  7.40058571e-02,  2.97118817e-02,  2.93858838e-03,  8.99127219e-03,  2.43049301e-03, -5.04645519e-02, -4.37584259e-02},
 { 6.95136562e-02,  6.42269105e-02,  5.10993004e-02,  7.05888495e-02,  6.59446940e-02, -7.40071535e-02,  1.81332082e-02,  7.28773251e-02, -5.16361417e-03,  7.89165199e-02, -1.06921107e-01, -1.30299409e-03,  1.01619577e-02,  7.86910579e-02,  4.52640913e-02,  6.78957477e-02, -3.63136902e-02,  5.88636622e-02, -8.45541283e-02,  4.56392989e-02,  5.44219054e-02,  3.29270251e-02,  3.05581763e-02,  9.32797715e-02,  5.66387698e-02, -1.62699129e-02,  4.28039879e-02,  2.97542494e-02,  1.69472732e-02,  1.09310802e-02,  1.26221225e-01,  3.29623334e-02, -1.01635084e-02, -7.28355348e-02,  6.68551698e-02,  3.73247229e-02, -5.97070120e-02, -4.36916165e-02,  8.40257481e-03, -2.04058681e-02},
 { 9.51466039e-02,  3.45985629e-02,  6.70076832e-02, -2.79473662e-02,  8.03421065e-02, -8.26438591e-02,  3.86544801e-02, -1.83634795e-02,  7.22171366e-02, -4.97319885e-02, -3.48016508e-02,  6.66890740e-02,  6.26203194e-02,  2.35376097e-02, -9.95957926e-02,  9.97553244e-02,  1.27753997e-02,  5.46168312e-02, -8.34465176e-02,  1.97044555e-02,  3.51492092e-02,  9.25606210e-03, -4.45102118e-02,  3.98370400e-02,  3.10988864e-03,  1.20700831e-02,  1.82017852e-02, -3.56144272e-02,  2.34428179e-02, -3.27513367e-02, -7.48296268e-03,  2.54806075e-02,  2.39224918e-02,  6.88985139e-02, -4.66062836e-02, -9.15247202e-02,  7.70519227e-02, -4.85809743e-02,  2.16319971e-02,  4.63795736e-02},
 { 4.14880030e-02,  2.13122414e-03,  7.12286234e-02,  1.01562381e-01, -5.81893735e-02, -2.42189039e-02,  6.44965321e-02, -2.78985016e-02, -1.68240592e-02,  9.66543481e-02,  5.57715632e-03,  5.01902066e-02, -8.25406611e-02, -6.41387329e-02,  5.66567434e-03,  2.12599188e-02, -6.90907314e-02,  1.47332139e-02, -3.90301198e-02,  6.86333999e-02,  4.15978953e-02, -3.00401337e-02, -9.29563586e-03, -3.74335088e-02,  1.33258058e-02, -9.77633987e-03,  2.02236436e-02, -7.57111982e-02, -3.57181840e-02,  1.20033845e-02, -6.07842840e-02, -2.79772319e-02,  2.81140059e-02, -1.46851502e-02,  4.92210453e-03, -1.92424692e-02,  7.44418651e-02, -3.92084830e-02,  6.52895914e-03,  4.63920981e-02},
 {-5.08225970e-02,  5.07434085e-03, -7.41616189e-02,  8.87582228e-02,  1.23936189e-02,  6.46013021e-02, -2.30503008e-02,  6.05396032e-02,  1.72259193e-02,  4.36675735e-03,  2.70798132e-02,  8.12270418e-02,  1.93365291e-02, -2.47460213e-02, -7.55117461e-02, -1.22581376e-03,  6.45051198e-03, -4.88533415e-02, -9.83586162e-03,  8.00522864e-02, -4.85667586e-02,  2.24560350e-02, -3.51025648e-02,  5.51144369e-02, -6.01802655e-02, -5.16405776e-02, -1.51078706e-03,  2.80761952e-03, -4.65846695e-02,  8.35474487e-03,  5.11630587e-02, -6.38303831e-02,  9.33477655e-02,  1.85216349e-02,  1.23700453e-03, -6.85783429e-03, -5.79018258e-02, -5.82896695e-02, -4.86373194e-02, -2.51018964e-02},
 { 1.86437685e-02, -5.49908588e-03,  6.62624836e-03,  6.22360110e-02, -7.59501681e-02, -5.19308932e-02,  1.40101090e-02, -5.56945987e-02, -1.75332874e-02, -2.94982865e-02, -5.85402660e-02,  2.80635823e-02, -7.49091879e-02,  7.05116466e-02,  2.19262373e-02, -3.39574739e-02, -6.48933947e-02, -6.93062693e-02, -4.09463933e-03, -1.75962541e-02, -1.00340806e-02, -1.03503382e-02, -5.51450066e-02,  6.48883954e-02, -3.79146412e-02,  7.25112185e-02, -8.55238959e-02, -1.14052398e-02, -9.12060514e-02, -4.13252041e-02,  4.78780977e-02,  4.47899662e-02,  4.31876555e-02, -5.42663177e-03,  7.49861524e-02, -8.30485970e-02, -1.65741611e-02, -4.33810689e-02,  2.82604378e-02,  3.60716432e-02},
 { 7.92100206e-02,  8.21022987e-02,  3.34316753e-02,  2.50204727e-02, -3.00968420e-02,  1.58386771e-02,  3.62206995e-02, -6.74544349e-02,  8.25486034e-02,  1.95721420e-03, -3.85872577e-03, -2.68593803e-02,  2.39719748e-02,  2.61986032e-02,  1.07249115e-02,  7.02439547e-02,  5.29175811e-02,  7.14126602e-02,  2.45898012e-02,  8.54230374e-02, -6.00523427e-02, -1.61166433e-02, -3.65176611e-02,  4.90182862e-02,  6.84106871e-02,  7.58264586e-02,  7.22739697e-02,  4.67220955e-02, -5.12629189e-02,  3.56839709e-02,  1.64691564e-02, -2.27168612e-02, -4.99763601e-02,  1.65795311e-02, -8.02738592e-02, -1.40237780e-02,  7.05859065e-02, -7.53265247e-02, -6.03692643e-02,  5.96782081e-02},
 {-4.75652702e-02,  7.38297999e-02, -7.36476406e-02,  8.29807669e-02, -2.31144670e-02,  2.47223135e-02, -1.33793913e-02, -2.84323171e-02, -6.96570054e-02, -6.11372180e-02, -1.57063156e-02, -2.73131058e-02,  4.25820462e-02,  1.41890738e-02, -4.70281914e-02,  7.70497695e-03,  2.88622212e-02, -1.62482355e-02,  6.55996725e-02, -5.43635748e-02, -7.48227984e-02, -8.29904750e-02, -8.23911093e-03,  5.99993765e-03,  1.20419748e-02,  8.78795516e-03, -2.73801368e-02, -6.23129457e-02,  1.08693941e-02,  3.63564864e-02,  2.15866901e-02,  7.23348409e-02,  1.09597705e-02, -6.69605732e-02, -4.26950343e-02,  4.57532778e-02, -5.80310030e-03, -6.63860440e-02,  3.50001268e-02, -1.99426878e-02},
 { 2.11279839e-03, -4.24546711e-02, -6.26352429e-02, -6.43939078e-02, -4.49372828e-03,  1.09460950e-03,  5.70235103e-02,  4.96283174e-03, -5.00459634e-02, -8.31819922e-02, -1.22608170e-02,  1.20856315e-02, -7.87881389e-02, -7.88783208e-02,  6.28159642e-02, -3.04912515e-02,  7.81421661e-02,  2.83099487e-02, -7.05038011e-02,  6.15103841e-02,  6.40243888e-02, -9.09859687e-03, -8.14533159e-02, -2.15448737e-02, -4.94510233e-02,  7.60619193e-02,  5.65575808e-02, -1.89224184e-02,  4.60077822e-02, -2.56664939e-02, -3.41688693e-02, -2.08087415e-02, -4.16127220e-02, -5.73218726e-02,  5.13966978e-02, -7.20396861e-02, -3.43581140e-02,  7.18633384e-02,  6.91565722e-02,  5.49199134e-02},
 { 7.75617212e-02, -3.31194438e-02,  7.38049299e-02,  3.06932628e-03,  2.29335055e-02, -1.36620849e-02, -1.96977779e-02, -1.85445771e-02,  5.14236540e-02,  2.18686014e-02, -4.56760339e-02, -4.00924422e-02,  3.45976725e-02, -6.22630119e-03, -2.65041515e-02, -2.68422998e-02,  6.17262572e-02, -6.58985823e-02, -4.12956290e-02,  5.71533740e-02, -3.26731205e-02, -2.35525556e-02, -2.74224579e-03, -1.92366019e-02,  8.23870301e-03, -8.38720426e-02,  5.75119257e-02,  1.57756805e-02, -6.81003481e-02,  5.17541468e-02, -2.63951421e-02, -7.00678676e-03,  8.27386528e-02, -4.03108224e-02, -2.50597335e-02, -4.07558009e-02,  5.66631109e-02,  1.54745355e-02, -4.21656668e-03,  1.43131316e-02},
 {-4.66710478e-02,  2.68806461e-02, -6.80533499e-02,  1.83167949e-03,  8.52583200e-02, -7.92631954e-02,  6.76014870e-02,  3.11001707e-02,  4.66139913e-02,  7.61534199e-02,  6.22622110e-02,  4.97847833e-02,  2.89608426e-02,  3.50769311e-02, -7.81174898e-02, -6.87150955e-02, -2.44408436e-02, -4.44022566e-02,  2.99545173e-02, -1.34810223e-03, -2.31743399e-02,  7.26230070e-02, -5.78568354e-02,  4.88137640e-02,  5.05739935e-02,  8.09140503e-02,  4.13842470e-04, -4.21156101e-02,  5.52866235e-02, -4.90589142e-02, -8.34786892e-02, -4.39776340e-03, -3.64531279e-02, -3.95980328e-02, -4.16929312e-02,  4.35219407e-02, -3.46448570e-02, -7.47935660e-03,  4.32401486e-02, -1.59315355e-02},
 {-3.97568755e-03,  8.84994641e-02,  4.61220853e-02,  2.83208210e-02,  2.93360911e-02, -1.80363320e-02,  1.38781779e-02, -7.28490800e-02, -7.31552169e-02,  1.78335737e-02, -8.33598599e-02, -5.21396846e-02, -8.51609558e-03,  2.37636082e-02, -6.62518889e-02,  7.68194860e-03,  2.87484174e-04, -2.42774021e-02,  3.15830074e-02,  7.15632457e-03,  1.48899257e-02,  8.46918672e-02,  7.51824155e-02, -4.74613346e-02, -1.82612147e-02, -2.06436180e-02, -2.63060201e-02, -2.66138632e-02,  4.46676612e-02, -3.72581668e-02, -1.10089360e-02,  7.95860812e-02, -1.33496905e-02,  3.48800272e-02,  1.43179018e-02,  4.60794978e-02,  1.04569513e-02,  1.13820126e-02, -3.62540153e-03,  1.47703635e-02},
 { 1.73683371e-02,  8.56884569e-03,  5.21773435e-02, -6.29334748e-02, -2.45991070e-03, -2.70306040e-02, -1.49096698e-02, -2.55430844e-02, -2.61736778e-03, -2.39253063e-02,  6.03922755e-02, -4.74097691e-02, -8.99828672e-02,  7.36171603e-02, -2.71530785e-02, -4.02622707e-02, -2.00686045e-02,  6.13220930e-02, -2.63465066e-02, -7.12882131e-02, -5.71307391e-02,  3.63643095e-02,  6.96389452e-02,  8.33907351e-02, -5.65100424e-02, -2.34922487e-02,  2.32948419e-02,  7.40358979e-02, -2.47415341e-02,  6.77737221e-02, -4.13812399e-02,  1.76299885e-02, -3.24317478e-02,  9.52564925e-03,  2.73526050e-02, -3.12223136e-02, -6.74335798e-03, -2.64038611e-02, -6.85537085e-02, -5.37070744e-02},
 { 9.38020200e-02,  6.68043792e-02, -8.15107580e-03, -4.93811909e-03, -3.38626988e-02, -9.18336492e-03,  1.20342961e-02,  3.83094661e-02,  2.58231442e-02, -2.58796178e-02,  6.75113276e-02,  6.70485348e-02,  4.63823825e-02,  9.42042619e-02,  4.69405167e-02,  4.08674590e-02, -4.62788194e-02, -8.60608462e-03, -7.42496401e-02,  5.12687266e-02, -4.62862663e-02,  3.90751511e-02, -5.71595971e-03,  1.87431835e-02,  3.17807160e-02, -5.05871512e-02, -9.41112041e-02, -2.71778405e-02,  9.49780364e-03,  1.83067918e-02,  6.18972294e-02, -7.49069154e-02, -5.67836873e-02, -2.68521700e-02,  6.53752759e-02, -8.99742730e-03,  2.37988830e-02,  1.44537017e-02, -3.11297420e-02,  3.53156775e-02},
 {-2.26659812e-02,  9.67951417e-02, -3.84553056e-03,  8.11290741e-02,  8.43111947e-02,  2.06702072e-02, -7.82833025e-02,  3.65847861e-03, -1.58668067e-02,  1.14776371e-02,  6.21962501e-03, -7.11497664e-03, -7.17396941e-03,  6.18002797e-03, -1.51751367e-02,  3.19978669e-02, -5.54839196e-03,  3.72371115e-02, -1.05607677e-02,  1.57163144e-04,  3.81953120e-02, -5.76705150e-02,  5.32604791e-02,  5.46698458e-02, -3.75021510e-02, -4.86126505e-02, -3.20979916e-02, -3.78046669e-02,  3.84626687e-02, -6.87003657e-02,  1.15103818e-01, -2.73329355e-02, -3.18602510e-02,  5.28163789e-03, -2.68283021e-02, -7.46829659e-02, -4.04859520e-02, -4.84470800e-02,  6.00176118e-02, -2.48509608e-02},
 { 8.53354484e-02, -6.56553432e-02,  3.99454460e-02, -2.79846955e-02,  1.28907235e-02,  6.63882270e-02,  2.97251362e-02, -3.32889669e-02,  1.16861098e-01,  1.40413092e-02, -5.60571402e-02,  6.26154393e-02,  2.07857620e-02,  5.61329052e-02, -1.82709303e-02,  5.80833033e-02, -5.30123822e-02,  7.90615380e-02, -4.92850281e-02,  6.69341609e-02,  6.89880997e-02,  3.44486795e-02,  1.99580397e-02,  7.47182295e-02,  1.93683878e-02,  2.46969014e-02, -9.17089358e-02, -4.66661789e-02, -1.63112171e-02, -7.16015324e-02,  3.53502035e-02,  4.89676893e-02,  8.41041002e-03,  4.39337976e-02, -2.05007251e-02, -1.99363977e-02, -5.30890450e-02,  2.18367912e-02, -6.12880476e-02, -1.36485836e-03},
 { 4.88368571e-02,  9.46642458e-03, -7.14420108e-03,  4.92798388e-02, -2.73943003e-02,  3.90761197e-02,  3.02100834e-02,  2.14693602e-03, -2.19605491e-02, -8.87208208e-02, -6.81922287e-02,  8.23112875e-02,  1.68390870e-02,  1.53817851e-02, -6.31973371e-02,  9.62119177e-02,  3.54407057e-02,  9.56491157e-02,  5.24461046e-02,  1.88502893e-02,  6.96185231e-02, -4.41903882e-02, -6.35248274e-02, -1.93094220e-02, -6.67678639e-02,  3.15377042e-02, -3.77059318e-02, -6.52288347e-02,  4.09328146e-04, -1.48542144e-03,  9.63453129e-02,  2.82053147e-02,  8.35810676e-02,  2.08128765e-02,  3.82968076e-02, -7.22289830e-02, -7.64222071e-02, -8.80244747e-02, -3.61153334e-02, -1.46247791e-02},
 {-7.78216273e-02, -4.77688387e-02,  4.22238186e-02,  4.67626862e-02,  5.16360924e-02,  1.44780036e-02, -8.67401958e-02,  8.34888220e-02,  7.93762356e-02, -1.04534589e-01, -8.65157880e-03, -4.99728806e-02,  2.19840538e-02,  4.41950783e-02,  6.47603571e-02,  6.48140609e-02,  2.73799598e-02, -5.10255061e-02,  8.96245614e-02, -8.04078057e-02, -3.12617496e-02, -4.02942188e-02, -1.00336500e-01,  1.30969658e-01, -2.18506884e-02,  8.25646520e-03,  2.44130045e-02, -7.11969733e-02,  4.54425393e-03, -4.43322845e-02,  2.60113142e-02,  1.09001920e-01, -3.38066407e-02, -3.74950022e-02,  7.93535169e-03,  1.91549845e-02, -3.09400279e-02, -8.81798491e-02,  1.26180495e-03,  7.12630376e-02},
 {-2.91717332e-02,  7.72245675e-02, -3.17530185e-02, -8.61053988e-02,  4.31978181e-02, -2.87985839e-02, -1.82456058e-02, -4.18835878e-02, -5.46403602e-03, -6.76283333e-03, -2.00150292e-02, -1.83711387e-02, -8.02161917e-02,  1.85488388e-02, -1.52987549e-02, -3.96814980e-02,  6.41535223e-02,  6.37033656e-02,  7.24647194e-02, -4.05223444e-02, -2.92054247e-02,  2.97424402e-02,  3.13757099e-02,  1.09948523e-01,  3.98433991e-02, -6.68198913e-02, -2.54940670e-02,  3.46708298e-02, -2.32889429e-02, -9.47071835e-02,  1.75990735e-03, -4.54811938e-02, -4.11851890e-02,  6.99548945e-02, -5.46021201e-02,  1.20951729e-02, -1.13288006e-02,  6.58887923e-02,  9.06022936e-02,  2.98298467e-02},
 {-5.25974035e-02, -1.22931721e-02,  1.13557369e-01,  6.95654899e-02, -5.86761422e-02,  3.68997417e-02, -2.51502786e-02, -1.09438235e-02, -4.51841541e-02, -1.14009187e-01, -3.14606987e-02, -5.08031882e-02,  4.65147570e-02,  4.06723432e-02, -2.23047826e-02,  4.42165658e-02,  6.72998354e-02,  1.40524814e-02,  9.17862356e-02,  9.05659888e-03, -1.91161607e-03, -2.19855886e-02, -1.51974047e-02, -7.89683033e-03,  1.58340391e-02, -7.21445829e-02, -8.52803588e-02, -8.04689601e-02, -8.77032578e-02,  4.63049002e-02,  4.55368385e-02,  6.16739318e-02, -7.97689706e-02,  6.35604635e-02,  4.33931611e-02, -9.20101181e-02, -3.06681134e-02,  3.51262093e-02,  2.86986828e-02, -4.76771854e-02},
 { 3.66778225e-02, -6.68762345e-03,  1.06133223e-01, -3.84776443e-02,  3.32236737e-02, -2.73671709e-02, -6.43096445e-03, -8.06379542e-02, -3.61539200e-02, -1.31728008e-01,  2.95468606e-02,  7.83165991e-02,  6.86746985e-02,  4.94797230e-02, -2.47088801e-02, -5.93126118e-02, -1.19615737e-02, -5.93408681e-02, -5.94594143e-02, -1.38446258e-03, -2.69878693e-02,  8.37474503e-03, -7.65754431e-02,  6.05092337e-03, -1.09556049e-01, -4.62058336e-02, -5.18260412e-02, -9.91589129e-02,  5.92521802e-02,  3.98988016e-02, -5.83121292e-02, -4.33548950e-02, -5.39684296e-02,  8.68139416e-02, -6.06989413e-02, -1.39385154e-02, -2.79880986e-02,  4.39032353e-02, -5.30136041e-02,  4.01334558e-03},
 { 5.22738509e-02,  8.52181762e-03,  2.44696182e-03, -2.64885966e-02, -3.37708332e-02,  1.63430162e-03,  5.34277819e-02,  5.19727021e-02, -1.22779533e-02,  7.41710188e-03, -3.91977690e-02, -2.01347340e-02,  4.18854281e-02, -3.66040394e-02, -1.83255170e-02,  8.27854499e-02, -1.26439622e-02,  3.30420956e-02,  9.23030451e-02, -4.89523113e-02, -7.49829561e-02, -5.06057069e-02,  1.86591577e-02,  1.15753554e-01, -4.35169004e-02,  2.00240090e-02, -9.34881438e-03,  3.43286470e-02,  2.33783275e-02, -5.66155873e-02,  4.99101914e-02,  3.38231884e-02,  4.56522144e-02,  1.05512641e-01, -7.17556253e-02,  3.95338237e-02,  2.83991843e-02,  1.68255065e-02,  5.22525832e-02,  3.45066115e-02},
 { 4.47430797e-02, -2.47390885e-02,  6.35750517e-02,  6.04904443e-02, -6.80165216e-02,  6.28901720e-02, -4.11997586e-02,  1.10265072e-02,  6.75614411e-03, -1.17594667e-01,  2.65325140e-02, -1.50432568e-02, -7.33691901e-02,  1.22794770e-01, -5.65644987e-02, -2.73784865e-02,  6.49373084e-02,  7.12897480e-02, -6.30669445e-02, -3.63058895e-02,  6.25227839e-02, -3.70151177e-02,  1.05800685e-02,  1.22216903e-01, -6.88809752e-02, -1.13772534e-01,  4.63246219e-02, -1.26847588e-02, -8.21621865e-02, -2.80265715e-02, -4.85507809e-02,  6.18408397e-02,  6.29570261e-02,  9.92409140e-02,  1.64060406e-02,  1.77796930e-02,  5.67302406e-02, -3.57622318e-02, -1.14698401e-02,  6.10241555e-02},
 { 1.66496225e-02,  3.15933302e-02,  9.14880708e-02, -4.87721525e-02, -4.69997898e-02, -3.48629542e-02, -3.91582958e-03,  5.90190217e-02, -7.73442760e-02,  4.89917621e-02, -1.79487318e-02,  8.11327919e-02,  3.58708687e-02,  2.22198665e-02, -5.42121381e-02, -6.64034933e-02,  1.08446600e-02,  3.16764973e-02, -3.98820788e-02, -1.90567225e-02,  6.66952729e-02,  1.11919204e-02,  5.52506559e-02,  6.07730821e-02,  2.16912758e-02, -1.94513220e-02, -9.14630368e-02,  2.99118180e-02,  7.12026730e-02, -4.35938351e-02,  4.28084545e-02,  3.70566398e-02,  5.09258583e-02, -2.22585872e-02, -4.35485244e-02, -4.61961664e-02,  8.45637992e-02,  7.37873092e-02,  9.34491307e-03,  1.04625031e-01},
 {-7.72457272e-02, -2.83179525e-02, -1.91632342e-02, -1.10509181e-02,  5.01414426e-02,  4.88076769e-02, -6.74803331e-02, -3.03358603e-02, -4.57031233e-03, -1.03803933e-01,  2.13405006e-02,  3.39928083e-02,  4.30839732e-02,  2.31466983e-02,  4.98300381e-02, -3.10074282e-03,  7.97358677e-02,  3.76666849e-03, -5.34672998e-02, -7.06587732e-02,  4.49450724e-02, -4.89581050e-03, -2.28788927e-02,  2.07654666e-02, -7.88030680e-03, -5.96122146e-02, -1.34735145e-02,  4.30302061e-02,  7.68574188e-03, -5.30248135e-02, -5.67828529e-02, -7.83479139e-02,  3.92199866e-02,  7.43704662e-02,  2.02941615e-02, -8.21702778e-02,  5.32620251e-02, -4.69679646e-02, -5.76949529e-02,  2.42546387e-02},
 { 1.58088636e-02,  3.52281518e-02,  9.01898146e-02,  3.53500189e-04, -3.62869306e-03, -3.04419585e-02,  4.01800236e-04,  9.67943203e-03, -6.33540973e-02, -4.23510373e-02, -8.64678621e-03,  6.58445060e-02,  6.44113272e-02,  2.41691191e-02,  8.24020654e-02,  2.98507009e-02,  6.22685291e-02, -1.17136445e-02,  8.42305925e-03, -7.36192539e-02, -2.31154747e-02,  7.30810836e-02, -2.56702546e-02, -3.67538445e-02, -2.32993271e-02,  9.42294672e-03, -1.97701552e-03, -5.57435788e-02,  6.94052354e-02,  3.60974595e-02, -4.89744581e-02,  1.33221773e-02,  5.64710349e-02, -4.34084795e-02, -3.64328511e-02, -3.88322771e-03, -1.52991191e-02,  7.44671607e-03,  7.16811791e-02,  7.25261820e-03},
 { 6.92042634e-02,  9.49192978e-03,  3.56374681e-02, -5.83345331e-02,  8.66373330e-02,  9.61228739e-03, -6.34270981e-02,  4.73255944e-03, -4.70452337e-03, -9.92412865e-02,  5.80914430e-02, -7.05473796e-02, -7.75134787e-02,  4.37657237e-02, -5.35510108e-02, -8.38765781e-03,  2.65795309e-02, -9.61930864e-03,  1.03364615e-02,  5.13608530e-02, -7.14682266e-02,  4.02420759e-02, -2.14320365e-02,  6.84690922e-02, -2.66482607e-02, -4.73274030e-02, -2.26532225e-03, -6.08769432e-03,  2.96658184e-02, -1.53274871e-02,  4.88029495e-02,  2.63051726e-02,  8.27348903e-02,  1.30765447e-02, -3.07046678e-02, -7.10997954e-02,  1.53117869e-02,  8.56969729e-02,  6.01995774e-02, -2.63089985e-02},
 { 5.52934408e-02, -1.05386358e-02,  7.48381987e-02,  4.91936877e-02,  1.00965850e-01, -5.78114167e-02,  1.63398944e-02, -1.49780866e-02,  8.67860951e-03, -3.57370712e-02, -6.35634512e-02,  1.38430735e-02, -8.01497325e-02,  1.58230476e-02, -6.90909401e-02, -1.78969782e-02,  6.30053738e-03,  3.08803339e-02,  7.08263367e-04, -1.25983395e-02, -3.98704708e-02,  1.67263057e-02,  9.44930315e-03,  7.36048371e-02, -3.22653726e-02, -5.64216450e-02, -6.66021109e-02, -2.61234827e-02,  6.76774159e-02, -6.20354414e-02,  4.00101654e-02,  7.05723539e-02,  1.93303041e-02,  2.81687099e-02,  5.89766093e-02,  3.82687040e-02,  4.80167568e-02,  2.73155402e-02,  3.03992219e-02,  1.03542134e-01},
 {-1.12392940e-03,  8.54338482e-02, -9.28523310e-04,  1.04892291e-01, -5.93638495e-02,  1.46307349e-02,  4.28393446e-02, -5.81168532e-02,  2.99268682e-02,  2.65363511e-02, -3.97655293e-02, -6.92828670e-02, -8.63956735e-02,  3.74383070e-02,  4.93431129e-02,  7.42941126e-02, -4.83121090e-02,  2.01022271e-02,  5.65063721e-03, -4.15050723e-02, -5.42073958e-02,  6.44987002e-02, -9.19312313e-02,  1.83978230e-02, -1.08048888e-02, -4.04284149e-02, -9.00592357e-02, -9.72580984e-02, -5.97469807e-02, -9.20159966e-02,  1.24298260e-01,  8.22019950e-03, -6.52225837e-02,  6.62306473e-02,  6.61687925e-02, -4.16890979e-02,  7.60901496e-02,  5.78738749e-02, -7.60599151e-02,  3.39018032e-02},
 {-3.82544771e-02,  3.77231389e-02,  4.63963076e-02, -5.10861911e-02,  6.46415353e-02, -4.15463559e-02,  4.10082228e-02,  1.02753721e-01,  9.51097012e-02, -5.15756160e-02, -8.83323103e-02,  4.78078015e-02,  6.12299405e-02,  9.37572960e-03, -4.26802672e-02,  4.01159115e-02, -4.25811261e-02,  8.48508775e-02, -4.68547717e-02, -4.11375463e-02, -2.16709189e-02,  4.67638299e-02,  1.76918954e-02,  5.26478402e-02, -6.05319776e-02,  2.07234304e-02, -1.16941631e-01,  1.48705738e-02, -4.57865745e-02, -4.91411798e-02, -3.28483619e-02,  2.69422564e-03,  1.56851262e-02, -4.48444771e-04,  6.98219463e-02, -7.14301318e-02,  3.68939526e-02,  1.79167651e-02,  5.55920713e-02,  7.13177472e-02},
 { 4.74239588e-02,  5.96601218e-02, -4.28965464e-02,  8.83196071e-02,  4.65157442e-02,  7.07804337e-02, -6.35955185e-02, -4.06675879e-03, -1.11395624e-02,  5.15082330e-02, -3.68869714e-02, -1.56692006e-02, -9.40914452e-02,  3.42303030e-02,  4.76683211e-03,  5.06458543e-02,  4.47709933e-02, -6.74626157e-02,  5.25827222e-02,  7.90451542e-02,  1.38668623e-02, -2.49744486e-03,  5.07856756e-02, -2.18230654e-02,  2.70320419e-02, -9.91445780e-03, -3.32999527e-02, -8.42115656e-02,  6.61201626e-02,  3.21957991e-02, -2.87730172e-02,  3.31255570e-02, -1.77833810e-02, -1.72421988e-02,  7.61943907e-02,  5.77631034e-02, -8.26361030e-02,  4.39118594e-03,  1.83743518e-02,  6.08593598e-02},
 {-2.25382820e-02,  4.63635363e-02,  3.07460837e-02,  9.09835994e-02,  2.53858278e-03, -9.44766551e-02, -1.91186201e-02,  1.02671266e-01,  9.41020027e-02,  7.46551976e-02, -4.78566363e-02,  3.53187621e-02,  5.10234991e-03, -7.49597102e-02,  3.62549839e-03,  5.50521212e-03, -3.38663012e-02,  6.61156923e-02, -2.90587563e-02, -3.25827673e-02,  4.38948944e-02,  7.80380443e-02,  8.83122534e-02, -1.78591982e-02, -3.18052620e-02,  1.16938604e-02, -1.48141421e-02,  1.74042694e-02, -7.57762864e-02, -3.20287608e-02,  3.44985984e-02,  5.93628734e-02,  4.56630960e-02,  2.51086000e-02, -1.87946521e-02, -3.32821384e-02,  6.41198158e-02,  5.49448989e-02,  1.79695971e-02, -1.08077656e-02},
 {-1.63417906e-02, -5.06675653e-02, -2.05463637e-02,  4.81982119e-02,  5.42607456e-02, -8.67022201e-02, -4.71852757e-02,  7.42162615e-02,  8.29824805e-02,  4.27943692e-02, -7.25069568e-02, -2.55296510e-02,  5.42827509e-02,  2.19648611e-02, -8.47392082e-02, -4.52590454e-03, -6.79363310e-02, -6.82868762e-03, -2.62254365e-02,  4.89403196e-02,  1.89208314e-02,  6.33606464e-02, -5.34445830e-02, -4.26373333e-02,  1.09599354e-02, -2.72881668e-02,  2.80791447e-02, -3.77895050e-02,  6.77763158e-03, -3.63286361e-02,  2.51186583e-02,  2.94278432e-02,  6.19896278e-02, -6.31921887e-02,  7.22365081e-02, -1.43412435e-02, -6.66756332e-02, -4.16249447e-02, -1.11187473e-01, -6.09813929e-02},
 {-6.92961290e-02,  7.28517994e-02, -1.60764772e-02, -1.14989448e-02, -2.27423608e-02,  5.12363277e-02,  8.17579925e-02, -1.27910795e-02,  7.63888359e-02, -2.83096489e-02, -4.54070270e-02, -7.52928630e-02, -2.43620630e-02, -6.39432147e-02, -7.59688765e-02, -2.81858370e-02, -7.70755559e-02, -6.56359717e-02,  1.66486222e-02,  2.91822795e-02,  1.80335771e-02,  7.90106058e-02,  4.68674898e-02, -8.09421539e-02, -1.25328489e-02,  6.27475558e-03,  3.53364125e-02,  6.71060979e-02,  6.46195933e-02,  5.13338670e-02, -5.85490763e-02,  1.77172367e-02,  4.68140244e-02,  1.44524844e-02,  8.39651469e-03,  2.23241057e-02, -8.12564939e-02,  6.34417236e-02, -6.86821342e-02,  2.71871071e-02},
 { 5.66658638e-02, -7.38228410e-02, -1.40560102e-02, -7.32824355e-02,  8.32982138e-02,  4.58008144e-03, -3.65592688e-02,  1.71856675e-02,  2.20764223e-02, -1.00745456e-02, -5.27433790e-02,  1.66278556e-02, -5.18634170e-02, -1.85591988e-02, -8.13238323e-02, -1.57101522e-03,  2.74479855e-02, -1.00441240e-02, -7.94798359e-02,  4.30983007e-02,  1.61557458e-02, -7.02825189e-02, -6.34399801e-02, -3.08223553e-02,  4.61623399e-03, -1.86342280e-02,  5.83473407e-02,  3.88477184e-02, -1.13916034e-02, -4.32802327e-02,  8.34201500e-02,  3.82494815e-02, -4.92745042e-02, -1.68454945e-02,  3.88399363e-02,  1.20800617e-03, -6.93835467e-02, -5.48397675e-02,  6.12668805e-02, -6.74203411e-02},
 {-3.74464616e-02,  7.26338625e-02,  1.57127604e-02, -4.00236361e-02,  6.78550079e-02,  2.45582451e-05,  4.01253067e-02, -7.65982196e-02,  6.63773492e-02,  4.27173264e-02,  1.19001744e-02, -6.96063116e-02,  5.79857193e-02, -5.04240878e-02,  2.09172722e-02,  3.08863912e-02, -7.77582228e-02,  4.39876094e-02,  7.35934898e-02,  6.45452365e-02,  4.72206920e-02,  2.31398959e-02, -6.47221655e-02, -6.89562336e-02,  8.35095197e-02,  1.06665157e-02, -4.15392034e-02, -6.26540035e-02, -7.74676502e-02,  8.04817155e-02, -5.09415828e-02,  7.03740641e-02,  3.19878310e-02, -8.31781477e-02, -7.52277151e-02, -3.87824550e-02,  6.28692508e-02, -5.89796454e-02, -4.83918414e-02,  6.34986954e-03},
 {-8.44800621e-02,  5.71060926e-03,  5.06953597e-02,  3.91931608e-02,  5.80071807e-02,  5.88111281e-02,  3.66625190e-02,  4.17169034e-02,  4.79693562e-02,  1.00461096e-02,  5.22147715e-02, -1.90789700e-02, -7.49960393e-02,  8.44167769e-02,  1.90679431e-02, -1.63401440e-02, -3.58963795e-02, -5.21691889e-03, -1.42439827e-02, -3.96583676e-02, -3.89144607e-02, -6.11707941e-02,  5.34583628e-02, -2.57833339e-02, -7.33752549e-02, -4.70475368e-02, -4.32500690e-02, -7.57984370e-02, -2.54252665e-02, -4.50500287e-02,  7.41605014e-02,  3.58458012e-02, -4.53266501e-03,  6.99026287e-02, -2.66760439e-02, -9.06293094e-03, -6.87474012e-02,  7.84619302e-02, -5.84793240e-02,  6.32540137e-03},
 {-7.87445754e-02,  2.02395394e-02, -3.03374231e-02, -1.53418258e-02, -4.17098887e-02, -2.32939348e-02,  3.35977897e-02,  7.89957941e-02,  4.40133214e-02, -7.47472867e-02, -6.75563738e-02,  2.07431689e-02, -7.26432726e-02,  5.10846972e-02, -7.75254592e-02, -6.98258877e-02, -4.08844016e-02, -8.20006281e-02, -6.16161600e-02,  2.49678567e-02, -1.76876932e-02, -3.90540063e-02, -7.28857219e-02, -1.25702024e-02,  4.24707681e-02,  2.21148953e-02, -4.25673388e-02,  3.94253209e-02,  5.09006083e-02,  3.58986855e-03, -2.59527862e-02, -8.43545347e-02,  8.25581402e-02,  4.30416912e-02, -3.49558219e-02, -4.16637883e-02, -1.52528286e-03, -2.41053440e-02,  1.98358148e-02,  3.56139317e-02},
 {-8.19820613e-02, -7.36613795e-02, -1.72269717e-02,  4.99497838e-02,  5.38560748e-02, -1.59469079e-02, -4.74164523e-02, -5.93279116e-02, -8.29084218e-02, -5.63682355e-02, -7.44155282e-03, -7.90571123e-02, -5.29881269e-02, -8.24819654e-02, -6.06304929e-02, -5.10236733e-02,  2.56745219e-02, -7.10008666e-02, -4.36708406e-02, -1.46038141e-02, -9.38826799e-03, -3.12056225e-02,  4.09669355e-02, -4.85169813e-02, -4.56519611e-02,  8.03513378e-02, -2.71025561e-02,  6.09011836e-02, -6.40312955e-02,  3.53355426e-03,  7.07455501e-02, -8.78704898e-03,  1.51439263e-02,  4.39334400e-02,  8.24271217e-02, -6.96879774e-02,  5.36672920e-02, -8.44055638e-02, -4.45529595e-02, -2.82568708e-02},
 {-3.89977358e-02, -3.70323732e-02,  5.49645834e-02,  8.54201093e-02,  7.25784153e-02,  5.29070757e-02, -4.38207425e-02,  4.42454927e-02, -2.41114479e-02, -7.25120259e-03, -4.19455767e-02, -7.74648339e-02, -2.38712337e-02, -8.14710557e-03, -2.39125416e-02, -5.95063940e-02, -6.73650345e-03,  1.98279284e-02,  2.62372401e-02, -1.23850312e-02,  6.29124343e-02, -7.10020065e-02, -1.08217765e-02,  1.69131458e-02,  7.39901960e-02, -5.67976572e-03,  3.70174684e-02, -7.78650343e-02, -6.65842444e-02,  4.98543121e-03,  6.41144626e-03, -6.79696584e-03,  3.21255364e-02, -7.65328184e-02, -5.72751351e-02,  6.91109076e-02, -3.59474346e-02,  4.78551798e-02,  4.73558679e-02, -6.93110898e-02},
 {-6.67666877e-03,  3.82500812e-02,  8.35496187e-02,  2.19391752e-03, -1.20167816e-02,  3.49282622e-02,  8.26431364e-02, -5.44842333e-02,  3.56867649e-02, -8.26280639e-02,  4.19275323e-03, -4.27091718e-02,  6.49533272e-02,  4.67345230e-02, -2.78043784e-02, -3.18504013e-02,  1.31203290e-02,  5.78532219e-02, -7.12798685e-02,  2.38958057e-02,  1.40854213e-02,  9.07974616e-02,  7.30387643e-02,  4.21092473e-02,  7.46826008e-02, -1.73588619e-02, -2.24033035e-02,  8.28083511e-03, -6.36914447e-02,  5.15355580e-02,  8.37165639e-02,  2.55322014e-03, -1.01825753e-02,  7.61807114e-02,  6.71139508e-02, -3.84304710e-02,  3.87235284e-02, -9.39407293e-03, -6.08046576e-02, -2.38930713e-02},
 { 9.27397907e-02, -3.64038609e-02,  1.42916599e-02,  2.45627128e-02,  3.00003700e-02,  6.24933839e-02, -2.68370453e-02,  1.11737974e-01, -2.12270264e-02,  5.82328485e-03,  6.16413802e-02, -6.13670312e-02, -4.56291530e-03,  4.17457819e-02,  6.32444620e-02,  6.06290959e-02,  1.44276209e-02, -2.23541539e-02,  2.69664302e-02, -3.31168287e-02,  2.13863850e-02, -2.52083298e-02,  2.51134168e-02, -4.70625274e-02, -7.47253820e-02, -3.11715342e-02,  4.53295857e-02,  3.59239504e-02,  1.30575150e-02,  4.71923687e-02,  1.37548894e-02,  8.83621797e-02,  8.10562670e-02, -1.94577239e-02, -3.80510613e-02,  5.22147119e-03, -1.88594256e-02,  4.24264465e-03, -1.90883800e-02, -5.24732843e-02},
 { 7.74036199e-02,  7.13387504e-02,  3.51793021e-02, -6.37692288e-02,  3.03139333e-02, -6.66398704e-02, -4.59442325e-02, -1.97630306e-03,  9.56000164e-02, -3.81647311e-02, -1.19961426e-02, -3.95015702e-02, -2.52173822e-02,  3.39047350e-02, -3.91747281e-02,  1.67055503e-02, -8.14059898e-02,  3.26341130e-02, -5.73022924e-02, -6.14803210e-02,  9.28523093e-02, -5.26623130e-02,  7.14306906e-02,  6.94117695e-02, -5.70924282e-02, -2.36423872e-03, -8.13065767e-02, -1.88288633e-02, -4.85203788e-03, -5.35925850e-02,  3.90079208e-02,  3.76465172e-02, -1.55865280e-02, -3.74998562e-02, -9.54286531e-02,  3.91868986e-02,  1.64729301e-02,  4.30995598e-02, -1.56578254e-02, -3.16456892e-02},
 { 8.24381262e-02,  8.79941434e-02, -1.50651643e-02,  6.20613061e-02,  7.75552318e-02, -5.98140955e-02,  4.05453667e-02, -5.16701452e-02,  8.41765851e-02, -7.71904737e-02, -4.44692597e-02,  1.38071813e-02, -1.22265541e-03, -3.17551382e-02,  7.06769377e-02, -2.96275206e-02, -9.96249318e-02, -2.91593801e-02,  9.77743603e-03,  1.93482507e-02,  4.15327922e-02,  6.87970892e-02,  5.80453053e-02,  1.08356141e-01,  3.43715809e-02, -1.73923615e-02, -1.27907591e-02, -3.88869271e-02,  3.14600654e-02,  3.36183682e-02, -1.92545597e-02, -7.10173771e-02, -3.25746015e-02,  4.30160128e-02, -4.31247875e-02,  6.90704286e-02, -7.99944811e-03, -2.77669597e-02,  6.51260093e-02, -8.97072372e-04},
 {-3.65865864e-02,  2.13760566e-02,  4.82943319e-02, -1.18558779e-02, -3.54233980e-02,  3.66510041e-02, -9.00803953e-02, -6.09225668e-02,  6.42688666e-03, -5.93948476e-02, -2.56805215e-03, -3.20593603e-02, -9.35932547e-02,  2.39209435e-03,  3.55165154e-02,  7.57588148e-02,  5.51146381e-02,  3.20746340e-02, -1.64493155e-02,  6.52015358e-02,  7.59769678e-02,  1.33718792e-02,  3.57572660e-02,  9.93777215e-02, -4.77553718e-02, -6.99244216e-02, -5.88386133e-02, -1.41719030e-03,  4.16825749e-02, -6.67630881e-02, -4.07858305e-02, -6.54333830e-02,  1.87579673e-02,  7.68576562e-03,  6.20691516e-02,  4.50932346e-02, -5.70255779e-02, -6.63548931e-02,  6.59383088e-02,  7.58184940e-02},
 {-1.06124710e-02,  5.31834178e-02,  5.55022024e-02, -9.01629552e-02,  4.97394055e-02, -3.01412325e-02, -5.99434786e-02, -3.52461897e-02,  3.08003090e-02, -9.31149349e-02, -4.38351184e-02,  7.51184523e-02, -5.65376356e-02,  2.84123775e-02, -3.01088598e-02, -4.02282402e-02, -3.55773754e-02,  4.96790893e-02, -3.47877517e-02,  1.63011253e-02, -5.04673235e-02, -8.17931315e-04, -2.80424654e-02,  6.42988905e-02, -4.95841652e-02, -1.25653744e-01,  3.14813517e-02, -4.76378836e-02, -3.41841616e-02,  2.30868068e-02,  4.37620208e-02,  7.34394193e-02, -6.86763301e-02,  4.21314873e-02, -3.14219296e-02, -1.89507436e-02, -1.34530924e-02, -4.68515567e-02, -3.85219371e-03,  9.15996134e-02},
 { 6.46278784e-02,  6.91229105e-02,  1.18542798e-01, -3.49951871e-02,  7.78061301e-02,  3.08462530e-02,  3.72621305e-02,  7.91241378e-02,  5.48823029e-02, -5.08319661e-02, -6.34651259e-03,  7.02276900e-02,  4.92614917e-02,  8.17518458e-02,  5.50734214e-02, -4.63046208e-02,  2.07102597e-02, -4.66183759e-02, -6.69645816e-02,  5.00151925e-02,  3.78806293e-02, -2.47633662e-02, -2.02689003e-02,  1.05805323e-01, -3.76657769e-03,  1.82275604e-02,  2.46081892e-02, -8.62090737e-02, -3.44477221e-02,  3.96444313e-02,  9.26203560e-03, -8.10621213e-03,  5.74064963e-02,  1.43623641e-02, -9.46610942e-02,  1.79175590e-03, -1.00819739e-02,  1.55165941e-02,  9.24686417e-02,  6.25212267e-02},
 { 4.99473885e-02, -5.46407364e-02,  2.78749000e-02, -2.68095080e-03,  6.83985278e-02,  8.10595676e-02, -1.04776613e-01,  2.59549413e-02, -9.62935314e-02, -1.88788287e-02, -8.26488584e-02,  6.86724633e-02, -4.93292883e-03, -4.52667568e-03, -3.60432267e-02,  5.46261519e-02, -1.13322884e-02,  7.52763599e-02,  4.55488305e-04, -8.36647749e-02,  5.94862774e-02,  4.71111014e-02,  2.14126240e-03,  7.14349449e-02, -2.16101967e-02, -9.38598961e-02, -9.08176079e-02, -6.74969107e-02,  1.10496851e-02,  2.63088699e-02, -3.25392373e-03,  4.44521904e-02,  4.46529873e-02,  2.04791240e-02, -1.08665437e-01, -3.05032395e-02,  8.46988186e-02, -3.63694243e-02,  7.59879798e-02,  8.76933932e-02},
 { 6.64026067e-02, -6.61973879e-02,  4.98823747e-02, -9.78184193e-02,  3.96052049e-03, -1.25143528e-02, -6.66090325e-02, -6.78755566e-02,  3.52880768e-02, -3.04347016e-02,  1.91326216e-02,  6.62763938e-02,  6.24337830e-02,  6.34407699e-02, -2.49161385e-02, -2.57398151e-02,  6.80653006e-03,  6.79679587e-02,  3.40193845e-02, -6.31389469e-02,  8.02162662e-02, -3.14105451e-02, -7.95518756e-02,  1.44161001e-01, -1.03356332e-01, -2.39695925e-02, -5.21533974e-02, -2.54171726e-04, -4.21472564e-02, -5.82871363e-02, -3.70619036e-02, -3.54430452e-02,  8.50999169e-03,  1.44217238e-02, -7.48915002e-02,  4.03670520e-02,  6.01293221e-02, -2.81740502e-02, -1.50893098e-02,  3.01902127e-02},
 { 4.19676229e-02,  3.92145813e-02,  1.27701657e-02, -3.86153087e-02,  5.09400517e-02,  7.17227310e-02,  2.56989122e-04, -9.52662453e-02, -7.50210285e-02, -1.27970070e-01,  5.29508740e-02, -3.86569649e-02, -3.61616872e-02,  1.07485093e-02, -2.51883343e-02,  4.01374735e-02, -8.19243863e-03, -5.59159592e-02,  3.70843560e-02,  2.84651462e-02,  7.33011961e-02,  3.37218419e-02, -5.72301820e-02,  1.02474242e-01, -8.64980593e-02, -4.22649831e-02,  8.70296266e-03, -6.07766770e-02,  5.11440188e-02,  1.37762269e-02,  8.66916552e-02,  6.28545657e-02, -4.89582866e-02, -4.40837350e-03,  4.19866778e-02, -4.38811444e-02,  8.46907794e-02, -2.80781370e-02, -3.53591703e-02,  9.23773721e-02},
 {-3.17867543e-03,  1.45873791e-02,  8.22005346e-02, -2.68920623e-02,  2.95534339e-02,  1.09205998e-01, -5.72622269e-02,  4.99627553e-02, -2.47265231e-02, -6.09180331e-02, -9.03125778e-02, -7.95048922e-02,  7.17554763e-02,  9.92268845e-02,  6.06923737e-02, -5.74370846e-02, -5.57020642e-02, -5.11121564e-02,  9.38311517e-02,  4.80184285e-03,  2.14366578e-02, -7.61146173e-02, -1.14031084e-01,  6.70167431e-02, -8.20648670e-02, -5.27933538e-02, -7.43691698e-02, -5.48022129e-02, -3.85812484e-02,  3.47597823e-02,  4.40930761e-02,  7.80545548e-02, -3.60738561e-02,  8.43783021e-02, -3.58210900e-03,  1.68757346e-02,  8.94964114e-02,  6.19967245e-02, -2.88903080e-02, -5.79957291e-02},
 {-3.29134129e-02,  4.33131084e-02,  2.13773623e-02, -1.65219381e-02,  4.29578871e-02,  9.27988291e-02, -6.67537674e-02, -1.31153408e-03, -9.09524038e-02, -9.09533799e-02,  7.22394586e-02,  6.67836219e-02,  6.04254454e-02,  3.80498357e-02, -4.47377078e-02,  3.92785035e-02, -7.64363678e-03, -6.42564446e-02,  6.08828366e-02,  3.48965041e-02, -5.36960661e-02, -7.39529058e-02, -1.02145180e-01,  9.73581895e-02, -7.66025931e-02,  9.22853779e-03,  7.98308924e-02, -6.66142181e-02,  8.26907903e-02, -9.32007059e-02,  5.51696755e-02, -6.30316883e-02, -9.68817621e-02,  8.24838057e-02,  4.54125814e-02,  1.20541845e-02, -2.60435771e-02,  7.64369965e-02,  8.38113576e-02,  8.55486840e-02},
 { 6.76961392e-02,  5.63071817e-02, -4.13545482e-02,  1.86073147e-02, -7.09448084e-02,  1.84704568e-02,  8.44341796e-03,  3.20011452e-02, -7.11682588e-02, -4.62910626e-03, -1.44302696e-02,  6.26582801e-02, -6.55564759e-03,  8.07435587e-02, -1.87054537e-02,  3.90137918e-02, -2.36729719e-02,  4.81432490e-02, -5.00681028e-02, -6.17250577e-02, -4.96592894e-02,  5.19929342e-02, -6.66339248e-02,  5.27305342e-03, -7.59871490e-03, -1.30590508e-02,  1.10390736e-02,  1.99134555e-03,  7.20736831e-02,  4.77106757e-02,  4.57552783e-02,  4.56527956e-02,  8.30657706e-02,  6.51367903e-02, -1.01343937e-01, -1.63092650e-02,  1.17110446e-01,  2.54436098e-02, -1.05734391e-03,  8.76896977e-02},
 { 7.10207000e-02,  1.11376029e-03, -3.42035554e-02,  5.61235957e-02, -8.84851739e-02, -1.33307585e-02, -7.79566243e-02,  7.42748529e-02,  1.05588334e-02, -9.78486091e-02, -5.84246852e-02, -1.53957829e-02, -8.69800895e-02, -4.31456305e-02, -5.40473834e-02,  3.95779721e-02,  3.60066108e-02, -3.01478663e-03, -4.29402180e-02, -6.48609102e-02, -5.44419251e-02,  3.26069929e-02, -7.44471094e-03,  1.10088512e-01, -5.76908030e-02, -8.80430341e-02,  6.28159270e-02,  3.24218310e-02, -1.06813814e-02,  5.65005913e-02, -2.56460160e-02, -5.31053878e-02, -7.04530105e-02,  2.45773084e-02,  1.83507111e-02,  3.23887868e-03,  6.52427375e-02, -6.71329498e-02,  4.55944017e-02,  2.02300828e-02},
 { 7.42947534e-02, -4.51272801e-02, -7.26856524e-03,  1.68157090e-02,  5.49962707e-02,  3.31565738e-02, -3.54885086e-02,  5.67385666e-02,  9.49327201e-02,  1.29287308e-02,  2.93404125e-02,  5.67710362e-02, -2.89994273e-02, -2.65343208e-03, -9.09372643e-02, -6.00373112e-02, -6.83172494e-02, -2.37971041e-02, -3.11719887e-02,  3.64829898e-02,  8.85694697e-02,  7.59992152e-02,  9.16260015e-03,  7.81185180e-02, -4.80014049e-02, -7.00014830e-02, -6.58756346e-02,  4.19429801e-02, -3.59987430e-02, -1.54979425e-02,  1.15003567e-02, -8.39560777e-02,  9.73058343e-02, -4.04411480e-02,  3.12788226e-02, -3.62889133e-02,  9.63014439e-02,  3.33751328e-02, -6.46003187e-02,  9.28066820e-02},
 {-3.68403941e-02,  6.97961599e-02, -4.68068682e-02, -2.53630392e-02,  6.39399588e-02,  7.99067691e-02, -1.98419467e-02, -1.83819421e-02, -4.07261997e-02,  1.08472770e-02,  5.15364222e-02, -6.79531246e-02,  3.49250473e-02,  6.37182742e-02,  6.73803762e-02,  3.79879586e-02,  7.11629763e-02,  7.13619730e-03,  2.49872543e-02, -6.23976812e-02, -3.54669578e-02, -1.09095834e-02,  4.38078679e-02, -2.17246432e-02, -1.13997683e-02,  4.56555933e-02,  2.14048475e-02, -4.31269966e-02, -2.90593784e-02, -5.80245890e-02, -1.09163420e-02, -1.94498021e-02, -4.10892861e-03, -7.35236034e-02,  2.58104727e-02, -2.14741658e-02,  3.57291438e-02,  1.49476444e-02,  8.95023197e-02,  2.15720218e-02},
 { 9.56347510e-02,  2.36026216e-02, -5.08746505e-02,  3.22123207e-02, -6.21542782e-02, -4.19975929e-02, -4.54295240e-02,  9.19125229e-02,  7.58228973e-02,  4.41593528e-02, -4.90533970e-02, -3.27937379e-02, -5.22945412e-02, -3.88442911e-02,  4.06877622e-02,  5.76247387e-02,  6.24746047e-02, -9.95743927e-03, -4.92889099e-02,  3.50172222e-02, -6.40320107e-02,  7.91111067e-02, -8.20156410e-02, -4.06547748e-02, -1.06886953e-01,  8.14795494e-02, -4.11686413e-02,  5.34597337e-02, -1.35736084e-02,  6.39806017e-02,  7.69356266e-02, -1.57717057e-02,  7.03229308e-02,  2.39221025e-02,  2.63901874e-02,  5.25345057e-02,  3.98069210e-02,  2.57542506e-02, -8.24277177e-02, -2.90913638e-02},
 { 6.85947090e-02,  7.02499449e-02,  3.72281368e-03, -2.22311523e-02,  1.58810709e-02, -3.75490030e-03,  1.19632147e-02, -2.20778305e-02,  9.76942256e-02, -4.38872501e-02, -6.56300187e-02,  6.50406629e-02, -1.19498242e-02, -6.41788915e-02, -1.91810355e-02,  8.08134079e-02,  1.15935653e-02,  7.19480515e-02, -7.52716437e-02, -1.74683649e-02, -1.20869167e-02,  2.97713336e-02, -4.20015827e-02,  4.11144905e-02,  2.73391176e-02,  1.80885736e-02,  3.01376246e-02,  2.75316592e-02,  3.55979763e-02,  4.74747233e-02,  3.60366963e-02,  4.75899912e-02,  3.44015509e-02, -1.22579532e-02, -1.11387391e-02, -3.00053880e-02,  4.64124717e-02,  7.57482424e-02, -6.76808432e-02,  7.38376155e-02},
 {-2.89706681e-02,  8.60172734e-02, -5.22902608e-02,  3.10925227e-02,  4.90509011e-02, -5.86870834e-02,  4.08287756e-02,  9.12203044e-02, -1.71546713e-02,  4.25571464e-02, -9.68625620e-02,  5.60100824e-02, -4.63871993e-02, -7.74800628e-02, -5.07229120e-02,  4.62111086e-02, -1.69919375e-02, -1.81206409e-02,  3.93229276e-02, -6.53981397e-06,  2.85338536e-02, -5.28078750e-02,  3.18297222e-02,  3.59498709e-02,  2.55614463e-02, -1.05684651e-02,  2.37279534e-02, -3.98516171e-02,  6.45789504e-02, -6.85211867e-02,  7.99307153e-02,  5.91448508e-02,  6.50355443e-02,  1.64553465e-03, -5.85554261e-03,  3.99694890e-02, -4.12638001e-02, -7.09622800e-02, -6.79622442e-02,  4.92398702e-02},
 {-4.03496735e-02, -8.25888710e-04, -7.40189999e-02, -3.46825607e-02, -5.89801520e-02,  3.01027652e-02,  9.17177871e-02,  2.25237664e-02, -6.97579700e-03, -5.83467782e-02, -4.71092537e-02,  3.15271728e-02, -3.73204611e-02,  4.18695621e-02, -1.95393395e-02,  9.43943672e-03, -4.05762307e-02, -4.73877490e-02,  4.53824028e-02,  8.48248899e-02, -5.50265536e-02,  3.94251123e-02,  4.42512855e-02, -6.81947693e-02, -5.19673228e-02,  4.44789492e-02, -1.09124489e-01, -9.04696509e-02, -5.85498065e-02, -2.83890795e-02,  3.13264765e-02, -6.39254004e-02, -3.44395489e-02, -1.62669867e-02, -7.35691264e-02, -5.14064468e-02,  6.81643048e-03, -5.83590046e-02, -1.12070879e-02,  1.38478717e-04},
 {-2.95336172e-03,  6.51911497e-02,  1.27587942e-02, -5.24658114e-02, -9.32272431e-03, -3.41765694e-02,  1.00131752e-02, -3.13079618e-02, -4.20796052e-02, -4.42590564e-03,  1.92664545e-02,  2.64784750e-02, -3.87234725e-02, -8.03869516e-02,  2.18438860e-02, -3.96115743e-02,  3.91672961e-02,  1.83255337e-02,  7.57065117e-02,  3.82772461e-02, -4.80587147e-02, -2.40947176e-02, -5.34443092e-03, -4.72372957e-02,  6.57009473e-03, -2.05971580e-02, -5.71716242e-02, -4.32518013e-02, -1.63823422e-02, -6.15596808e-02,  1.48864230e-02, -1.20955827e-02,  1.50122838e-02,  3.30959521e-02, -2.26152129e-02, -5.15317433e-02,  1.90127194e-02,  5.50710857e-02,  3.07127181e-02,  3.65685229e-03},
 {-3.42148952e-02,  4.96423431e-02,  2.53677019e-04, -2.52575148e-02,  1.30156288e-02,  2.98948009e-02,  4.39319871e-02,  5.89263588e-02,  4.10571024e-02, -7.85269365e-02, -8.69135037e-02, -3.31690870e-02, -3.75319719e-02, -5.04967570e-02, -6.80231377e-02, -3.26294266e-02, -6.98173493e-02, -6.92530498e-02,  9.97019093e-03, -6.73297718e-02,  6.39465079e-02, -2.38065161e-02,  3.61626521e-02,  2.30119452e-02, -9.51277744e-03,  8.37924629e-02, -4.03115945e-03, -8.48734751e-03, -6.50444021e-03, -7.14282617e-02,  3.28601748e-02,  5.09802625e-02,  4.10000645e-02, -7.00398311e-02, -5.25556616e-02, -8.33820999e-02,  2.06277389e-02,  6.01038709e-02,  8.78848694e-03, -2.14225892e-02},
 {-3.97359114e-03, -1.20977610e-02,  7.50490800e-02, -8.12069178e-02,  7.23149553e-02,  6.66396087e-03, -5.22346869e-02, -8.32000226e-02, -3.78901251e-02, -5.39060645e-02,  3.51432301e-02, -3.31579987e-03,  3.92910093e-02, -8.49133730e-02,  2.69178841e-02,  8.21708739e-02,  6.37681410e-02,  1.99744646e-02,  2.16483064e-02, -4.17747125e-02,  1.93009153e-02,  1.07867634e-02,  8.15990195e-02, -3.14201973e-02,  6.70020059e-02, -1.33170886e-02, -6.10738806e-02, -7.91853741e-02, -1.55332768e-02,  5.45910932e-03, -3.65647264e-02, -7.85393417e-02, -6.35451674e-02,  4.13352251e-03,  7.73996189e-02,  2.37980038e-02,  1.63770039e-02, -6.51249196e-03, -7.19703957e-02, -2.32449267e-02},
 { 1.84798911e-02, -6.06138073e-02, -2.56445892e-02, -6.97765276e-02,  6.04907237e-02, -1.77649483e-02, -6.50787205e-02, -5.56123555e-02,  2.11775471e-02, -7.80785233e-02, -2.57767718e-02,  3.96473967e-02,  8.15343335e-02,  4.26484719e-02, -6.54199123e-02,  2.42636278e-02, -8.49048719e-02, -4.05027047e-02, -2.00932156e-02,  3.29594053e-02,  5.54064140e-02,  7.05716908e-02, -4.80895489e-02,  3.15520652e-02,  4.99017574e-02, -5.72097339e-02, -2.30148137e-02,  6.99050725e-02,  8.12223852e-02,  6.29992336e-02,  1.85862146e-02,  2.24786811e-02, -1.34281693e-02, -1.62347592e-02,  4.51929979e-02, -5.08573093e-02, -4.78355661e-02, -2.26828456e-02,  1.11769903e-02, -4.34618481e-02},
 {-6.02771267e-02, -2.34533548e-02,  7.73153156e-02, -1.05954409e-02, -4.75882590e-02, -8.04374665e-02,  1.32641941e-03,  6.01532161e-02, -3.80478986e-02,  3.20203826e-02, -7.09841996e-02, -5.97329475e-02,  7.39659220e-02,  4.58341390e-02, -8.32046568e-02, -8.18077251e-02, -2.16917023e-02, -4.70633060e-03, -7.78507888e-02,  3.12230065e-02,  8.08829665e-02, -2.58789547e-02,  7.83265382e-02, -3.43865752e-02,  6.37379289e-02, -1.60050392e-03, -4.38750982e-02, -3.47661078e-02, -8.37278366e-02,  8.28811079e-02,  6.09962791e-02,  8.50479454e-02,  4.54399288e-02,  4.21944857e-02,  6.49221390e-02, -5.96449971e-02, -6.97286427e-02,  2.07493156e-02,  2.58297622e-02, -9.99773294e-03},
 { 2.79723853e-02, -4.35297042e-02,  6.85338825e-02, -4.97459173e-02,  4.08747941e-02, -6.07612133e-02, -7.83752427e-02, -9.52056795e-03,  6.68467432e-02, -7.03056902e-03,  4.63426709e-02, -7.74541944e-02,  1.32353529e-02,  7.06088990e-02,  1.41926110e-04, -5.17369173e-02,  3.51995528e-02, -2.20386684e-03, -4.58673984e-02,  7.14123398e-02, -2.40784883e-02, -6.15829565e-02, -4.48038355e-02,  7.39293098e-02, -4.83591817e-02,  3.97044420e-02,  6.39350861e-02, -4.99499552e-02, -8.37360546e-02,  4.83002961e-02, -3.93241420e-02, -8.23053122e-02, -4.44477014e-02, -3.87395360e-02, -6.03868477e-02,  7.05477297e-02, -1.84826255e-02, -4.48215976e-02, -7.40762055e-03,  4.77272719e-02},
 {-3.50843742e-02, -9.76208225e-03, -5.14535755e-02, -2.61986372e-03,  1.21161202e-02,  3.96175757e-02, -4.44212258e-02,  5.51254153e-02, -6.79117590e-02, -2.69712210e-02,  3.89797352e-02, -3.37738544e-02,  5.53921200e-02, -6.21032864e-02,  6.21058233e-02, -6.54491708e-02,  7.04812631e-02,  3.00258622e-02, -7.52119794e-02, -8.03436860e-02, -8.17895606e-02,  1.61891654e-02, -1.11091007e-02,  4.38818820e-02,  4.13726456e-02, -4.14890088e-02,  4.43889648e-02, -5.18382452e-02,  2.58524599e-03, -2.10469030e-02, -1.24531202e-02, -9.76217166e-03,  5.03786430e-02, -7.30451792e-02,  6.26749843e-02,  1.55910067e-02,  5.01195192e-02,  4.19335179e-02,  2.13121008e-02,  3.78563330e-02},
 { 8.17192197e-02,  8.58406201e-02,  4.73846979e-02,  4.25245464e-02,  3.95978279e-02, -2.74851117e-02,  8.45013559e-02,  5.71733564e-02,  1.80187169e-02,  3.79845835e-02,  8.40617418e-02,  8.50698650e-02,  8.00225064e-02,  5.00960276e-04, -1.61381774e-02,  6.50724396e-02, -5.51761501e-02, -6.07605726e-02,  2.72792503e-02,  3.69342566e-02,  5.98483235e-02, -7.43329944e-03,  7.65166730e-02,  7.56918713e-02, -7.25157037e-02,  1.46234259e-02, -4.38424246e-03,  7.58752376e-02,  3.22746001e-02, -6.62858933e-02, -5.49616180e-02, -5.32721281e-02, -1.00274915e-02,  7.42002055e-02,  5.88144101e-02,  3.44714290e-03, -1.70807950e-02,  1.63472351e-02, -2.53559239e-02,  3.69901732e-02},
 { 5.37303984e-02, -5.56088164e-02, -2.46737730e-02,  2.54460983e-02, -1.11086271e-03, -1.31336879e-02,  3.30151021e-02,  7.35815242e-03, -7.47809187e-02,  4.70940471e-02, -6.49196357e-02,  5.08089401e-02,  2.59844353e-03,  9.55454726e-03, -4.21747267e-02,  7.73056364e-03,  7.14620352e-02,  7.88742155e-02, -8.68619420e-03,  7.07951784e-02,  6.54700249e-02,  2.35176459e-02, -5.35704046e-02,  3.94985871e-03, -7.65440837e-02, -8.17197636e-02, -1.30887805e-02,  2.25968696e-02,  5.56329936e-02,  4.46409956e-02, -5.93681224e-02, -4.52033021e-02,  7.80557916e-02, -2.75975931e-02, -6.42383322e-02,  6.55219480e-02,  4.32765000e-02,  1.68217737e-02,  2.20591277e-02,  3.54592428e-02},
 { 7.42815584e-02, -6.57663867e-02, -6.20841607e-02,  3.68285142e-02,  3.02602910e-02, -9.04935151e-02, -3.01189926e-02,  1.79406200e-02, -6.25732914e-02,  2.05745436e-02, -6.62204400e-02,  8.03262666e-02, -4.23292629e-02,  8.48460272e-02,  9.40177590e-04,  2.32632086e-02,  5.24369664e-02, -2.85176337e-02,  3.99924479e-02, -7.58203790e-02,  2.87473407e-02, -6.60382435e-02,  4.20794412e-02, -3.00769825e-02, -7.01101795e-02, -4.45544906e-02,  6.37774765e-02, -1.17390212e-02, -4.24882211e-02,  5.32793961e-02, -3.52859939e-03,  7.93598518e-02, -5.20505272e-02,  4.23531309e-02,  4.56470139e-02, -5.54006509e-02, -6.60593808e-02,  6.65971637e-02, -6.47605956e-02, -3.06682400e-02},
 {-5.23553938e-02, -6.37135878e-02, -7.11480156e-02, -5.05035371e-02,  6.05588667e-02,  3.41997109e-02,  5.70184626e-02,  5.85456286e-03,  1.40103828e-02,  1.44862744e-03, -2.51572356e-02, -4.56994511e-02,  6.74023703e-02,  1.40323946e-02, -9.78953484e-03, -6.78099990e-02,  5.38548417e-02, -5.46853095e-02, -7.24418536e-02,  5.61591648e-02,  2.45544594e-03, -7.03133568e-02, -5.50474552e-03,  5.29256649e-02,  2.00715493e-02, -1.05355605e-02,  1.43363215e-02, -1.96639006e-03,  2.57926080e-02,  2.44739018e-02,  7.99545646e-03, -1.75641980e-02,  2.55397521e-02, -2.95917783e-02,  2.52378546e-02, -4.04949579e-03,  1.24496715e-02, -2.55314331e-03, -7.58233061e-03,  2.10829102e-03},
 { 5.58356531e-02,  4.15201522e-02,  6.89817667e-02,  7.22167939e-02, -4.14895453e-02,  2.47631185e-02, -6.19612373e-02, -1.46049736e-02,  6.09454662e-02, -4.64216657e-02,  6.83477372e-02, -3.01527418e-02,  7.36156031e-02, -3.61381061e-02, -8.95083845e-02, -3.24125327e-02,  4.48902883e-02, -6.13134205e-02, -1.83383524e-02, -7.26731271e-02,  9.72390827e-03,  8.30057189e-02,  5.44584021e-02,  9.44189876e-02, -5.19515015e-02, -9.54022445e-03, -7.05065653e-02, -6.80538639e-02, -3.94135714e-02, -4.03248183e-02,  2.17287727e-02, -4.93107960e-02, -4.82111685e-02,  3.93234156e-02,  2.24252208e-03,  3.34867625e-03,  2.47533508e-02, -4.46041375e-02, -7.86710382e-02,  6.16257265e-02},
 {-1.40889129e-02,  2.71793958e-02,  9.19134915e-02,  7.10368752e-02, -8.10915083e-02,  6.38067126e-02, -7.25021735e-02, -5.50415106e-02, -2.71107769e-03, -2.61246879e-02, -9.55568776e-02, -5.11829406e-02, -7.06217960e-02,  8.39006826e-02,  1.18498039e-02,  4.30981666e-02, -7.47148786e-03, -1.85014568e-02, -4.09751721e-02,  1.80015732e-02, -4.87973802e-02,  4.94981669e-02, -6.88274577e-02, -4.42685885e-03,  3.93339479e-03,  4.46466543e-02,  6.60398379e-02, -6.56755045e-02, -1.40408929e-02,  3.49240564e-02, -5.05229421e-02,  5.72552942e-02, -7.34101012e-02, -6.59293582e-05, -5.73477931e-02,  7.93045666e-03, -3.21474895e-02, -7.82031864e-02, -1.60869621e-02,  5.00612296e-02},
 { 8.67256001e-02,  3.29737226e-03,  1.20022390e-02,  8.34599435e-02,  9.71473195e-03,  6.03947751e-02, -1.12365149e-02,  4.61399406e-02,  6.47180378e-02,  4.56001498e-02, -7.21685141e-02,  3.12725827e-02,  6.16694391e-02,  4.62144846e-03,  6.45510256e-02, -4.97839637e-02, -4.19151820e-02,  7.44263083e-03, -1.42649580e-02,  5.61215989e-02, -5.97159155e-02,  3.06703802e-02, -5.55090643e-02, -4.29350510e-02, -4.61523570e-02,  1.87788941e-02, -6.35735393e-02,  5.34079671e-02,  2.16535293e-02, -3.11477818e-02,  5.66763803e-02, -4.30463478e-02,  5.02613857e-02,  7.82421827e-02, -8.17769095e-02, -6.62927702e-02, -5.76913357e-02, -6.70954436e-02, -5.41829988e-02, -1.86184235e-02},
 { 4.80671376e-02,  6.67829141e-02,  1.04354070e-02, -5.78639805e-02, -3.27439904e-02, -2.77345814e-02, -7.85769988e-03,  1.23851504e-02, -3.22414842e-03,  1.65531822e-02,  2.37437133e-02, -8.08024332e-02, -4.81528640e-02,  5.29152416e-02, -2.99142487e-02, -6.11904748e-02,  1.61320530e-03,  3.16380821e-02, -3.00911013e-02, -6.58255517e-02, -6.80158567e-03, -5.72528914e-02,  5.70994150e-03,  1.48122869e-02, -4.53124642e-02,  2.83135176e-02, -6.19396642e-02,  5.27860858e-02, -5.35556413e-02, -1.08569704e-01,  9.17750970e-03,  9.79448408e-02, -9.94479805e-02,  1.08315140e-01, -3.24410722e-02, -3.00243180e-02,  5.36463521e-02, -3.48590687e-02, -4.88348752e-02,  5.44225015e-02},
 {-5.60816042e-02, -6.90585524e-02,  8.85675028e-02,  7.02871159e-02,  7.34889433e-02,  6.36005402e-02, -3.70935537e-02, -3.80917080e-02, -1.81700159e-02,  4.68092598e-02,  3.71860154e-02, -9.55834016e-02,  3.02331429e-03,  6.06890302e-03,  9.55859795e-02,  8.07371289e-02, -3.08879856e-02,  5.24845021e-03,  5.02745882e-02,  1.03616053e-02,  1.08420411e-02,  2.24524224e-03,  4.55227382e-02,  1.11529147e-02, -1.33792479e-02, -9.90040153e-02,  1.63293481e-02, -1.74004305e-02, -5.39937727e-02, -9.89860520e-02,  4.29024845e-02,  3.66414487e-02,  3.85630801e-02, -5.08869961e-02,  3.42992470e-02, -3.25228646e-02,  3.68712433e-02, -1.36748990e-02, -3.30789872e-02, -4.79132421e-02},
 { 8.06200504e-02,  8.58494714e-02,  5.77419810e-02,  4.91815843e-02, -2.99296994e-02,  7.25441128e-02, -1.08302854e-01, -1.05919130e-01,  5.62693775e-02, -5.10677733e-02, -7.10349753e-02,  4.49187309e-02,  6.58049956e-02,  8.70634392e-02,  1.07287588e-02, -1.60677452e-02,  4.66080680e-02, -3.07493117e-02, -5.30319735e-02, -8.09218958e-02,  6.11515716e-02,  2.77606174e-02, -6.35190979e-02, -1.93190370e-02,  3.01097203e-02, -8.96672085e-02,  5.04020080e-02, -8.45512301e-02, -9.47939046e-03, -8.73964876e-02, -2.47214697e-02, -4.70960364e-02, -1.89295318e-02,  8.55928808e-02, -1.01474181e-01,  5.92105389e-02,  8.34248587e-02, -8.81873909e-03,  5.43014482e-02, -3.78132463e-02},
 {-6.07285276e-02,  1.89851094e-02, -2.09781248e-02,  1.47267943e-02,  5.15012518e-02,  1.51701132e-02, -3.49691473e-02, -9.69124585e-02, -4.07206975e-02, -2.86631864e-02, -3.75779197e-02,  6.25650212e-02, -8.05956721e-02,  1.08952418e-01, -4.76974659e-02, -1.61085911e-02,  9.08010677e-02,  2.64027882e-02, -3.09330709e-02, -6.20477349e-02, -4.11871821e-02, -3.14079151e-02,  4.02635150e-02,  1.25718161e-01, -5.51804192e-02, -6.68916181e-02,  8.19018260e-02,  2.96476241e-02,  4.50946242e-02,  5.42174205e-02,  3.49706188e-02, -3.87440212e-02,  2.86211781e-02,  8.09187517e-02, -8.70743692e-02,  5.58427162e-02,  4.05873954e-02, -7.53830746e-02,  8.44514817e-02, -9.87490453e-03},
 { 3.99348028e-02,  1.14160655e-02,  1.06832132e-01, -1.47675583e-02,  3.16761918e-02, -3.69794369e-02, -4.01949435e-02,  1.19989496e-02,  1.56478975e-02, -4.07047085e-02, -4.50685769e-02, -8.17689151e-02, -7.83905163e-02,  1.05698757e-01,  5.28810769e-02,  2.38749310e-02, -1.98385632e-03, -1.66587271e-02, -5.99653348e-02,  4.94573973e-02,  2.38269698e-02, -9.01646446e-03,  4.24107015e-02,  6.17429838e-02, -5.60378507e-02,  2.28573773e-02, -2.14397479e-02, -1.16206720e-01,  1.68902110e-02, -9.23616141e-02, -5.37429936e-03, -5.63128926e-02,  6.28839061e-03, -2.56452081e-03, -3.01826522e-02, -5.45277260e-02, -3.13051902e-02,  7.01859826e-04,  6.11034315e-03, -7.60124018e-03},
 { 4.60656472e-02,  7.86964968e-03, -3.17745879e-02, -7.38168806e-02,  4.97944467e-02, -5.96261434e-02, -3.20943743e-02,  3.92631851e-02, -9.24464911e-02,  2.94275582e-02,  5.56572117e-02, -1.24812797e-02,  1.73379984e-02,  5.96073922e-03, -6.44837618e-02, -3.90609391e-02,  9.50903073e-02, -7.96041936e-02, -7.20167533e-03,  6.23350330e-02, -1.74439065e-02,  4.88813557e-02, -1.08003043e-01, -1.05100367e-02, -7.05759525e-02,  3.88359129e-02,  3.95891704e-02, -6.69370815e-02, -2.19266713e-02, -4.56702076e-02,  5.61613925e-02,  6.42967299e-02, -2.22550742e-02,  1.24844434e-02, -3.57545130e-02,  7.02812374e-02,  7.35493079e-02, -6.18018657e-02,  1.19908676e-01,  5.21060899e-02},
 { 3.75899151e-02,  8.73576924e-02, -4.64936718e-04, -7.87882060e-02, -1.89803485e-02,  1.40537601e-02, -1.03642359e-01, -3.11859623e-02, -6.24543689e-02, -3.45284827e-02,  8.21196809e-02,  1.22010231e-03, -5.42778559e-02,  1.01530023e-01,  4.82017621e-02, -1.09131202e-01,  4.39465418e-02,  4.29524109e-02,  8.27789027e-03,  3.60725867e-03,  1.06052756e-02, -1.97193231e-02, -6.30456880e-02,  9.11995620e-02, -4.37596366e-02, -1.08408384e-01,  7.73959756e-02,  1.52702704e-02,  1.03657328e-01, -4.39685099e-02, -7.38965988e-04, -2.67878566e-02,  6.46213368e-02,  8.05125237e-02, -4.07030322e-02, -7.24390522e-02,  1.05537593e-01, -4.04010564e-02, -3.68994176e-02,  6.71401992e-02},
 {-1.76068936e-02,  1.63313479e-03,  2.12923829e-02,  8.66949849e-04,  2.86504487e-03, -1.09502338e-02, -3.54471151e-03, -1.34187862e-02, -6.12304173e-02, -9.80736241e-02,  6.04526587e-02,  3.38906609e-02, -4.51833084e-02,  7.46098533e-02,  8.12878236e-02,  4.28137816e-02, -5.97543381e-02,  1.74377672e-02,  6.56220987e-02, -5.94714358e-02, -2.74814963e-02, -2.34185960e-02, -3.30123529e-02, -5.36038466e-02, -4.27352116e-02, -7.19873458e-02,  6.94992766e-03, -9.73212272e-02,  7.94448256e-02, -6.05697408e-02, -2.58429274e-02,  3.14957171e-04, -5.45671321e-02, -6.20761327e-02, -3.12696733e-02,  6.48965836e-02,  6.72035217e-02, -3.40733454e-02,  2.82959063e-02, -5.38369939e-02},
 {-4.11357619e-02, -2.31392272e-02,  5.57154454e-02, -6.98027611e-02, -3.26273069e-02,  2.25648526e-02,  2.44340505e-02, -1.49410199e-02, -3.00304592e-02,  1.97201017e-02, -5.66093065e-03, -6.00301065e-02,  4.45391908e-02, -5.24965525e-02,  4.99814637e-02, -9.14368182e-02,  4.27430347e-02, -1.30308736e-02,  1.62488036e-02, -8.00698921e-02,  1.62410398e-03,  5.75957857e-02, -5.21730408e-02,  9.36183259e-02, -3.59918103e-02, -6.97729215e-02,  5.80378845e-02, -6.74463883e-02, -3.18112560e-02, -8.11543912e-02, -3.09037026e-02, -9.99822244e-02, -6.59873188e-02,  1.24369860e-02,  4.85048778e-02,  2.09723040e-02, -6.73772476e-04,  1.33713726e-02,  1.01000398e-01, -2.85419077e-02},
 { 5.93062453e-02,  7.52323046e-02,  3.42384004e-03, -4.32813494e-03,  5.65596223e-02, -6.83244392e-02, -7.81590678e-03,  5.21224551e-02,  1.20873088e-02,  3.60291712e-02, -3.69511694e-02, -3.63569036e-02, -6.97524548e-02, -1.02013927e-02,  5.98167777e-02, -1.22896368e-02,  6.59731701e-02, -5.44051379e-02,  6.21783882e-02,  6.43315315e-02, -6.41054753e-03,  1.69560816e-02, -2.38884892e-02,  3.95978205e-02,  2.92436313e-02,  8.43831971e-02, -3.80926244e-02, -8.82056579e-02, -4.12032008e-02,  4.14891504e-02,  1.08624250e-01, -2.14095674e-02, -5.98916551e-04, -3.05147599e-02,  3.19065601e-02,  3.90349701e-02, -3.35781313e-02, -2.17238311e-02, -5.12580387e-02, -7.22411200e-02},
 {-6.25980273e-02, -4.55639064e-02, -1.35605857e-02, -4.10229936e-02, -3.12524028e-02, -6.63050264e-02,  2.44999006e-02, -1.25587219e-02,  7.99714923e-02, -7.90115967e-02,  7.28717297e-02,  7.28342757e-02, -3.07193082e-02, -2.52114944e-02, -4.20045182e-02, -2.35341340e-02, -1.89570412e-02,  7.47144222e-02,  2.27068942e-02,  3.81492563e-02, -1.87384225e-02,  5.17057106e-02, -2.69191414e-02, -3.06065995e-02,  2.79567465e-02, -7.38222897e-02,  2.65126452e-02,  7.59036397e-04,  7.48042539e-02, -2.63641700e-02, -5.15341498e-02,  1.09022884e-02, -6.81012198e-02, -2.34130751e-02,  3.36837536e-03,  2.25947276e-02,  1.99958179e-02, -9.61244386e-03,  3.47471423e-02, -1.77828281e-03},
 { 3.33099701e-02,  8.84042159e-02, -3.94180268e-02, -6.00864366e-02, -5.93277961e-02,  7.99823850e-02,  4.41251770e-02, -3.01831234e-02,  4.20433059e-02,  4.72283270e-03,  4.54730876e-02,  7.98618346e-02, -5.81861474e-02,  8.18127170e-02,  1.79467872e-02, -3.71731073e-02, -7.74684735e-03, -3.41286622e-02,  4.71170206e-04, -2.09168270e-02,  4.79756929e-02, -7.14109465e-02, -2.43141707e-02, -5.31469053e-03,  5.37177436e-02,  2.44556163e-02, -2.59534288e-02, -6.49972260e-02,  3.85727584e-02, -4.12781537e-02, -5.42064831e-02, -3.10280826e-02, -3.82122323e-02, -9.29120034e-02, -5.06297462e-02, -8.02160949e-02, -3.98111232e-02,  2.23047510e-02,  6.42336681e-02, -1.01932976e-02},
 { 9.35176536e-02,  5.11481687e-02,  1.66974217e-02, -5.48390299e-02,  4.58261073e-02,  6.50248602e-02, -7.49355257e-02, -1.70065183e-02,  6.25382662e-02, -2.64100116e-02, -1.81480832e-02, -3.33251171e-02,  7.84547478e-02, -5.04084900e-02, -4.65832315e-02, -7.79100731e-02,  7.59978965e-02, -1.65273473e-02,  1.25207072e-02,  4.44226563e-02, -1.54695082e-02, -2.10817643e-02, -4.14662100e-02, -6.76569045e-02,  6.54785633e-02, -1.00275790e-02, -9.86721888e-02,  1.79664958e-02,  5.55905104e-02,  5.33539355e-02,  8.36488083e-02, -7.09079951e-02,  5.56691289e-02,  1.15387449e-02,  3.80322151e-02,  5.41080609e-02, -8.58575851e-03,  6.06037751e-02, -8.17871317e-02, -6.21934272e-02},
 {-6.06386289e-02, -5.60885668e-02, -3.46854841e-03, -2.02338975e-02, -3.71035282e-03,  2.91687306e-02,  1.93356387e-02, -1.53596010e-02,  4.06247657e-03,  3.30253094e-02,  2.69289389e-02,  5.32187112e-02,  3.60656418e-02,  5.77806197e-02, -4.06821333e-02,  2.36059129e-02,  5.08844741e-02, -2.28250548e-02,  6.28296137e-02,  6.16038740e-02, -2.20410787e-02,  6.05203249e-02, -1.15447575e-02,  5.07074259e-02, -1.40186427e-02,  1.55989053e-02,  1.25049800e-02,  4.67880480e-02,  5.83810322e-02,  1.55632617e-02,  8.16291291e-03, -4.88366485e-02, -6.55073524e-02,  1.80446950e-04,  2.77422555e-02,  5.95555305e-02, -1.95002723e-02,  1.69619359e-02,  4.13289368e-02,  7.72687346e-02},
 { 7.63562769e-02, -7.21339136e-02, -8.61213505e-02, -4.71337214e-02,  2.98305806e-02,  1.25434687e-02, -5.10406401e-03,  5.48673645e-02, -5.58800437e-02,  6.31161630e-02,  2.22321078e-02,  1.18819447e-02,  6.92516193e-02, -2.35171784e-02, -2.82367393e-02,  2.01219115e-02, -8.28811452e-02, -3.40779014e-02,  1.10725965e-02,  6.60989806e-02,  4.32339357e-03,  2.55304785e-03, -7.68732131e-02,  6.35154769e-02,  6.28458187e-02,  7.82645643e-02, -7.50256479e-02,  2.79596746e-02,  6.05665296e-02, -5.04218079e-02,  4.21708524e-02, -3.19553190e-03, -7.86448568e-02,  5.17402552e-02, -1.40632931e-02, -7.08649009e-02, -5.15774116e-02,  1.13528129e-02, -1.49824482e-03,  3.30769382e-02},
 {-6.65839538e-02,  7.64373392e-02, -2.20114365e-02, -3.85865569e-02,  5.17188665e-03, -6.21507242e-02, -7.15692118e-02, -7.36162439e-02,  1.41503187e-02, -4.69155572e-02, -8.04425254e-02, -1.44079570e-02, -7.05346987e-02, -6.75018355e-02, -2.00715791e-02, -4.71618734e-02,  8.11042916e-03,  1.37159266e-02, -8.23387876e-02, -4.78917249e-02, -6.31322488e-02,  7.01475590e-02,  3.74629386e-02, -2.16720756e-02, -5.17122680e-03, -5.05860448e-02,  7.97460899e-02,  4.57974598e-02,  7.90463984e-02,  3.82420421e-02, -5.32627553e-02,  7.48228058e-02, -4.26162966e-02, -6.17033020e-02,  5.76705523e-02,  8.40474963e-02, -7.79978335e-02, -4.61867079e-03, -5.75840473e-02,  3.41810621e-02},
 { 2.35985834e-02, -3.25551853e-02, -4.39093672e-02, -3.19150202e-02, -1.71141997e-02, -1.30566088e-02,  1.10441889e-03,  7.67716952e-03,  1.80421844e-02,  2.27661896e-02, -5.61528839e-02, -2.78032515e-02, -6.51386380e-02,  6.62521943e-02, -3.21187042e-02, -7.48463720e-02,  6.97009638e-02,  4.26062271e-02, -6.86957017e-02, -7.42460787e-02,  7.90368393e-03, -1.52217746e-02, -1.91575236e-04,  3.67136970e-02, -5.35468832e-02,  1.51072368e-02, -5.48993759e-02, -3.57306898e-02, -1.13969939e-02, -3.67596783e-02, -6.26788437e-02,  5.27373739e-02,  2.15380639e-03, -7.52002448e-02, -5.37240058e-02, -6.00842349e-02,  5.35407253e-02, -4.84358147e-02,  1.70090310e-02, -5.88196367e-02},
 { 7.73846582e-02,  2.40725186e-02, -7.45812198e-04, -1.39014609e-02, -6.72531500e-02,  5.50466105e-02,  4.17537568e-03, -3.85038070e-02,  6.34069443e-02, -5.72719844e-03,  4.92687337e-02,  4.14047390e-03,  5.52722402e-02, -5.80516905e-02,  2.64007375e-02,  4.75615747e-02, -1.15220621e-02, -9.33276489e-03,  1.90450437e-02, -2.77460262e-04, -5.80874309e-02,  6.45596609e-02, -9.24562383e-03, -1.36002600e-02,  4.42182571e-02,  3.39077339e-02, -6.85722530e-02,  7.88493529e-02,  3.93792503e-02,  3.48264575e-02,  2.50418438e-03, -7.55231157e-02, -5.23950905e-02, -5.09666316e-02, -8.46563876e-02,  4.58436497e-02, -4.19793790e-03, -3.01389489e-02, -3.30275437e-03,  4.37564068e-02},
 { 8.21070373e-02,  4.06610817e-02,  2.70871073e-02, -4.51160967e-03, -8.60568136e-03,  7.73527473e-02,  1.82070732e-02,  8.37112218e-02,  1.04642734e-02, -7.53194392e-02, -2.65396088e-02,  5.39595634e-02, -3.50528881e-02,  7.39938319e-02, -2.99942493e-03, -5.60664013e-02, -2.93978639e-02,  2.76580453e-03,  5.52831590e-03, -7.41396099e-02, -5.93227893e-03,  6.45816922e-02,  2.00480521e-02, -6.96632266e-03,  1.08704194e-02, -8.77566636e-04, -1.68949664e-02, -6.36554137e-02,  1.96461007e-02,  1.81583911e-02,  6.52968138e-02, -5.51565811e-02,  4.17790860e-02, -7.14053214e-03,  4.07446325e-02,  4.45629358e-02, -1.66401044e-02,  9.16980207e-03, -8.09519216e-02, -2.10951716e-02},
 {-3.61590721e-02, -6.94870502e-02, -4.03392017e-02,  6.96758330e-02,  1.02869272e-02,  7.61609972e-02,  7.59567022e-02, -8.55699927e-03, -4.19557765e-02, -5.28554916e-02,  5.18760979e-02, -7.04462826e-03, -7.81397074e-02, -6.26606196e-02,  1.63351148e-02, -1.36153102e-02, -1.96684897e-03,  2.71088779e-02,  7.67800659e-02,  7.45534152e-02,  6.59094453e-02,  2.55761072e-02, -2.33866051e-02, -7.80848563e-02, -8.03799480e-02, -2.69297510e-03, -7.89317116e-02,  5.02486974e-02, -7.83958063e-02,  2.47536451e-02,  1.58120543e-02, -7.88753554e-02,  4.05566096e-02, -3.47362421e-02,  5.10036647e-02, -6.67856932e-02, -8.04065987e-02, -5.70984855e-02,  2.75682434e-02,  7.45503306e-02},
 {-2.09114514e-02,  1.62282381e-02, -1.69860758e-02, -4.73810434e-02,  5.53111024e-02, -4.96957898e-02,  5.50424904e-02, -4.10600677e-02,  6.95597082e-02,  3.25783715e-02,  5.10031953e-02, -7.66782090e-02, -3.65220197e-02, -7.05305813e-03,  2.68039852e-03,  6.69155717e-02,  1.70539524e-02, -6.65706620e-02, -7.37163275e-02, -4.88607138e-02, -7.78036565e-02, -5.37494645e-02,  3.36164460e-02, -3.62231657e-02, -4.49826755e-02,  4.51962650e-02, -2.57188678e-02, -1.45564964e-02, -8.06995258e-02,  4.39363942e-02, -5.88285774e-02,  3.62143926e-02, -7.28949010e-02,  3.85865793e-02,  3.63291870e-03,  8.17549825e-02,  2.59276722e-02, -4.42223530e-03,  3.28151770e-02, -6.51478693e-02},
 {-1.76010933e-02,  4.05305363e-02,  4.90861572e-02,  8.08151066e-02,  7.57509097e-02, -6.91365749e-02, -1.51234856e-02,  8.18063468e-02,  3.83736454e-02, -8.23339969e-02, -4.83135432e-02,  6.85687661e-02,  2.37950478e-02, -4.52445149e-02, -1.39607843e-02, -4.20541838e-02, -3.97454575e-02, -4.30534557e-02, -1.27074700e-02,  6.09165467e-02, -1.11134294e-02,  4.01322097e-02,  7.48772845e-02, -7.17539713e-02, -6.50177896e-02,  5.68873994e-03,  4.10632156e-02, -8.42927247e-02,  7.71533651e-03,  7.84522966e-02,  4.91930246e-02,  2.67966688e-02, -5.58886006e-02,  2.53036134e-02, -5.63606918e-02, -5.01381941e-02, -2.55368184e-02,  6.39708936e-02, -8.41445029e-02,  4.21181135e-02},
 {-5.10206036e-02, -1.47131123e-02, -6.12138808e-02,  2.87134554e-02,  2.25591902e-02,  1.67983379e-02, -7.99627081e-02,  8.00768808e-02, -6.43182686e-03,  3.00482847e-02,  2.60237828e-02,  2.28988267e-02, -3.36770117e-02,  4.41972874e-02,  1.74157564e-02, -8.34080800e-02,  2.65248474e-02, -3.83463805e-03,  6.62409216e-02,  1.05162235e-02, -5.14892042e-02,  3.64653319e-02, -6.02581119e-03,  3.87289301e-02,  5.64380847e-02, -5.10740541e-02,  1.21060228e-02,  8.20409730e-02,  7.02768490e-02,  8.22415501e-02, -2.31699529e-03,  1.41652543e-02,  4.09314670e-02, -5.52865230e-02, -4.81248796e-02, -8.15858915e-02,  6.00695331e-03, -2.63318829e-02, -6.56531602e-02, -6.37775064e-02},
 { 1.39581785e-02, -4.61379811e-02, -7.84913823e-02,  7.92370643e-03, -6.27878085e-02, -7.26089999e-02, -6.78879544e-02,  2.06102803e-02, -5.90300821e-02,  6.13299236e-02, -6.11206815e-02, -7.42782876e-02, -6.44148812e-02,  7.39325881e-02, -8.08629245e-02,  5.41070513e-02, -1.50402850e-02, -2.67811958e-02, -5.53667871e-03, -3.44914235e-02,  3.92455272e-02,  1.97583809e-02,  7.34668523e-02,  6.18268736e-02, -1.59522686e-02, -6.21949509e-02, -4.78827395e-03,  5.09586483e-02, -2.51281820e-02, -4.13898230e-02,  1.46195637e-02, -5.12348786e-02, -3.02021597e-02, -2.49368546e-04, -5.09776175e-02, -2.28361916e-02,  3.01222093e-02,  7.33393133e-02,  3.04097645e-02, -6.58449605e-02},
 {-3.56484503e-02, -5.21598645e-02, -3.03156562e-02,  6.65575117e-02, -6.35342374e-02, -6.75199032e-02, -8.25119168e-02,  7.43920356e-02, -7.62365907e-02, -6.15237802e-02,  7.95652643e-02, -6.60197064e-02, -1.78837683e-02, -5.27814217e-02,  7.37828836e-02,  2.29885001e-02, -2.80918386e-02, -5.68104424e-02,  1.66990682e-02,  4.31177430e-02, -1.48408199e-02,  3.73100722e-03,  4.51122783e-02,  3.28370109e-02,  6.78968206e-02, -4.60842699e-02,  2.90109292e-02, -3.70915197e-02,  1.48631155e-03, -6.11083247e-02,  3.34229739e-03,  7.70132914e-02,  5.82965761e-02, -5.31968772e-02,  4.32166681e-02, -5.35435155e-02, -3.29448655e-02, -7.29769170e-02, -1.95113607e-02,  7.68816099e-02},
 {-4.83634695e-03,  9.29803122e-03, -7.12480545e-02,  6.84602782e-02, -5.03037274e-02, -1.34558957e-02, -2.52325237e-02, -5.41499183e-02, -1.86520871e-02,  3.37847807e-02, -8.83915201e-02, -5.59490584e-02, -2.91199423e-02, -4.43518274e-02, -1.43185421e-03,  8.26278627e-02,  7.73642361e-02, -3.78896222e-02, -5.59896082e-02, -6.25082403e-02, -5.71524575e-02,  7.65575394e-02, -5.62292486e-02, -2.86389943e-02,  6.23346716e-02, -3.57910469e-02, -1.05774784e-02,  6.65805414e-02,  3.23566463e-04, -6.41813874e-02, -4.71474007e-02,  4.20875363e-02,  7.88540244e-02, -9.46837384e-03, -5.98519109e-02, -7.75983483e-02,  7.37571530e-03, -3.93864885e-02, -6.46931529e-02, -6.86415732e-02},
 {-6.95786849e-02,  5.64290769e-02,  3.08576245e-02,  3.64507409e-03,  5.09189852e-02, -2.41228342e-02,  2.09388416e-02, -6.32842109e-02, -4.84223478e-02, -7.62388855e-02,  3.09666526e-02,  4.66574915e-02,  5.05743595e-03,  2.61604302e-02,  4.31687608e-02, -2.36553396e-03, -5.53209670e-02,  8.09350908e-02,  8.44731778e-02,  4.20826860e-03, -2.83616558e-02,  4.47588600e-03, -4.59401160e-02, -6.32200390e-02, -1.70764346e-02,  6.47087395e-02, -6.33945614e-02, -2.03457400e-02,  5.64143322e-02,  5.17272716e-03,  1.05265900e-02, -5.49324267e-02, -7.99686611e-02,  3.47540416e-02, -3.34948041e-02,  2.10549273e-02, -5.78433387e-02,  6.88110739e-02, -4.26293388e-02,  2.82228226e-03},
 {-7.10531250e-02,  7.35947117e-02,  2.46874653e-02,  8.85268021e-03,  1.06065720e-02, -7.06337020e-02,  7.08421767e-02, -4.25615832e-02,  1.18611278e-02,  3.82771306e-02, -5.13627008e-02,  7.26600140e-02,  4.99970838e-02, -7.10944459e-02,  1.52206486e-02,  3.98615524e-02, -5.62554970e-02, -3.33881751e-02, -4.22759764e-02,  4.53630500e-02, -3.46480161e-02,  4.29876000e-02, -6.60803542e-02,  2.47326531e-02,  4.49887253e-02,  6.94792345e-02,  2.57087816e-02,  4.90275510e-02,  2.50718673e-03,  3.49482670e-02,  1.60570908e-02,  3.72301228e-02,  3.55922319e-02,  4.72679846e-02, -4.96999584e-02, -4.08093296e-02,  1.50759900e-02,  7.35272244e-02,  2.51348633e-02,  6.55730367e-02},
 { 7.56185949e-02,  6.46025836e-02, -5.62914163e-02,  7.36045092e-02, -1.68546699e-02, -3.50708305e-03, -1.45993726e-02,  5.82158118e-02,  2.83627100e-02, -6.04949109e-02,  6.28793314e-02, -6.37623016e-03, -1.68013275e-02, -3.83268632e-02,  8.85578543e-02,  5.27503155e-02,  9.27364156e-02, -6.66817501e-02, -2.77568325e-02, -5.25513776e-02,  6.03931621e-02, -3.74273174e-02, -2.25372263e-03,  1.30342431e-02, -2.60750838e-02, -1.37329260e-02, -3.93702053e-02, -2.58702636e-02, -1.40523314e-02,  6.32527992e-02,  7.65155256e-03,  8.28071684e-02,  5.08135371e-02, -6.34188354e-02,  4.38047200e-02,  1.82933267e-02,  1.56421885e-02,  3.50714885e-02, -1.81853715e-02, -4.44039479e-02},
 { 3.77547145e-02,  2.47740038e-02,  9.72532574e-03,  3.48247401e-02, -5.44474274e-02, -9.14624613e-03,  3.54075469e-02, -6.55007362e-02, -6.58243224e-02,  5.75522147e-02, -2.22262088e-02, -8.56489539e-02,  5.63828135e-03,  2.86484547e-02, -3.26032080e-02,  2.93728933e-02, -4.52264883e-02, -8.10705647e-02, -5.94770424e-02, -3.24005671e-02, -3.77048254e-02,  3.43381800e-02, -7.39580113e-03, -5.13457134e-02, -7.17351213e-02,  2.48404313e-02,  3.66821662e-02,  4.18495610e-02,  5.25613911e-02,  1.04283355e-02, -4.45954874e-02, -7.22458959e-03, -8.44447780e-03,  8.88882503e-02, -1.38194971e-02, -5.41239753e-02, -1.36269750e-02,  1.99125931e-02,  3.64498384e-02,  6.83460459e-02},
 {-8.07488803e-03, -5.70911616e-02,  1.79373939e-02,  8.20185021e-02, -5.02644442e-02,  1.97092071e-02,  4.16371934e-02, -9.10666808e-02, -3.52431089e-02, -9.23207924e-02,  5.68513898e-03, -5.55675961e-02,  2.48975288e-02,  6.72539547e-02, -2.47151405e-02, -9.90140159e-03, -2.70034131e-02,  2.01424569e-04, -3.82715240e-02,  7.21243843e-02,  4.58167903e-02,  1.88693162e-02,  1.96273886e-02,  5.38540110e-02, -8.73946324e-02, -4.70923297e-02,  1.83486640e-02,  6.30823970e-02, -3.87544781e-02, -6.45933002e-02,  2.53350642e-02, -5.84788173e-02,  1.16534317e-02,  3.38071794e-03, -9.77896973e-02,  6.88677877e-02, -7.48265311e-02,  5.13345487e-02, -5.51221929e-02, -6.26292378e-02},
 {-5.18000238e-02,  6.26935810e-02,  3.84084433e-02, -6.34350404e-02,  9.27968249e-02,  6.52599707e-02,  1.55655444e-02,  2.73728836e-02,  7.16395974e-02, -4.53550462e-03,  6.80713281e-02, -1.40869943e-03, -2.40653213e-02,  1.31035764e-02,  6.69127405e-02,  3.21015753e-02,  1.48197915e-02, -3.15123089e-02, -4.60126400e-02,  3.91240604e-02, -1.82568338e-02, -4.30709682e-03,  2.78723165e-02, -6.26442581e-02,  1.51331285e-02, -7.05582201e-02, -9.44737066e-03,  3.19946520e-02, -5.55478670e-02,  5.99387102e-02, -4.42351028e-02, -8.04435089e-02, -8.54087435e-03,  1.23230107e-02, -4.89818007e-02, -4.75886576e-02, -3.55481878e-02, -7.87782297e-02, -5.63112162e-02,  1.42154880e-02},
 { 3.38838883e-02,  1.52286841e-02,  4.48325910e-02, -6.29253387e-02, -7.25901201e-02,  2.68427990e-02,  5.45835346e-02,  2.08595637e-02, -8.24990869e-02, -9.70893875e-02,  6.81102127e-02, -8.22035372e-02, -5.64200105e-03, -2.55895350e-02,  4.09674942e-02,  4.73086238e-02,  5.20353168e-02, -5.12423255e-02,  4.08541411e-02,  1.49717825e-02, -8.08902085e-02, -3.47041078e-02,  5.93679398e-02,  3.71550061e-02,  4.43015285e-02, -1.04864631e-02, -1.46808866e-02,  3.69330458e-02, -3.53810973e-02, -7.96434283e-02,  4.32280898e-02, -8.98090098e-03, -3.10425870e-02, -2.12554485e-02,  9.34849493e-03, -1.47672631e-02,  9.27370489e-02, -4.14641574e-02,  6.67468980e-02,  8.46457779e-02},
 {-7.64812753e-02, -7.06374049e-02, -3.91001701e-02, -5.20500802e-02,  7.55561367e-02, -3.77577692e-02, -9.43226889e-02, -2.26757303e-03, -4.55650985e-02, -6.33649901e-02,  3.37067503e-03, -2.11891439e-02,  7.97873586e-02,  6.42339587e-02, -6.40897974e-02, -8.15545842e-02,  5.02675101e-02,  3.57580036e-02,  5.95080703e-02, -1.09479632e-02,  8.20662007e-02, -1.70829019e-03, -5.09524569e-02,  3.82623821e-02, -4.53912765e-02, -2.01002844e-02,  2.00837329e-02,  1.88382156e-02,  2.17231102e-02,  4.34136763e-02, -5.35508506e-02,  2.95380391e-02,  7.56442323e-02,  7.02062026e-02, -2.41522621e-02,  1.17720375e-02,  8.20047930e-02, -3.39017697e-02,  8.40471238e-02, -5.33079961e-03},
 {-6.75901175e-02,  9.25883651e-02, -3.69522050e-02, -3.91188078e-02,  3.32284980e-02,  3.52930836e-02,  1.18026305e-02, -5.25516272e-02, -8.20307285e-02,  4.69331890e-02, -8.18068162e-02,  1.38647137e-02, -7.35804588e-02,  5.79537451e-03,  5.72727956e-02, -6.09033648e-03, -5.84860072e-02,  8.04011226e-02,  1.61762945e-02,  5.47695570e-02, -6.30598217e-02,  6.05090447e-02, -6.88948929e-02, -1.57907829e-02, -2.43144836e-02, -2.11260989e-02, -6.56919703e-02,  6.39096126e-02,  7.30233341e-02, -2.91313808e-02, -1.58520993e-02, -1.19564058e-02, -3.40735167e-02, -8.73604137e-03,  7.18647763e-02,  3.80706117e-02, -6.29678667e-02, -1.62112601e-02, -1.56857129e-02,  4.73014377e-02},
 {-6.11489192e-02,  1.01608247e-03,  3.09248194e-02,  1.48537429e-03, -5.47906198e-02, -7.52375200e-02, -2.19406877e-02,  8.24824050e-02, -3.07724588e-02,  1.04297111e-02, -6.37940243e-02, -4.53602299e-02,  2.69462354e-02,  3.54851186e-02,  3.03417165e-02, -5.14780246e-02,  3.22515555e-02,  7.37279877e-02,  3.18929255e-02, -2.27602459e-02, -1.55113696e-03, -8.22590441e-02, -1.36515824e-02,  9.29381140e-03,  3.35307675e-04,  3.02902479e-02,  3.95218618e-02,  7.00416490e-02,  3.01925279e-02,  1.89692918e-02,  4.42146249e-02,  1.76853146e-02, -6.91941082e-02,  4.95762937e-02,  3.35021988e-02,  2.88777985e-02, -4.65975367e-02, -4.70039137e-02, -5.50387874e-02,  7.61872679e-02},
 { 1.65601149e-02, -1.94665547e-02, -6.06709681e-02, -4.72425148e-02, -2.69279759e-02, -8.21630582e-02,  5.19123040e-02, -1.61625445e-02,  1.43009359e-02, -4.47100885e-02,  7.73502747e-03, -3.74733433e-02, -8.02648067e-02,  5.52946553e-02, -1.07598649e-02, -1.59237627e-02,  7.67085925e-02,  4.26052883e-02, -5.46101062e-03, -2.86405683e-02,  3.23374849e-03,  7.13484809e-02, -8.33204761e-03,  5.84319942e-02,  2.88329292e-02,  1.84161831e-02,  6.37599407e-03, -5.06956615e-02,  1.31932823e-02,  4.25323993e-02, -1.95598230e-02, -1.06338793e-02, -4.52583283e-02,  6.71955794e-02, -6.53496310e-02, -3.59617770e-02,  6.90542981e-02, -6.30456880e-02,  2.77568996e-02, -9.45581309e-03},
 { 1.18456623e-02, -9.27697588e-03, -7.55084828e-02, -6.85167536e-02,  2.00893618e-02,  4.24258038e-03,  3.56810689e-02, -6.71625286e-02, -3.15218456e-02,  4.41736635e-03,  5.98408580e-02, -4.68143411e-02, -1.13643203e-02,  8.21951963e-03, -4.19860799e-03, -5.09160161e-02,  7.34527707e-02,  6.68160841e-02,  5.90211339e-02, -4.87017371e-02,  3.53605784e-02, -1.82076693e-02,  7.69852698e-02,  6.22818954e-02, -5.25732851e-03, -1.53125580e-02,  8.51689726e-02, -8.12817086e-03, -6.46595210e-02,  4.94551398e-02,  7.52385380e-03,  1.38361724e-02, -6.27190098e-02,  2.62499843e-02,  2.89585181e-02,  2.24960130e-02,  2.59215012e-02,  1.29632009e-02,  1.64674260e-02, -3.43270190e-02},
 { 7.33278319e-02, -3.12041529e-02, -4.76630963e-02, -5.36004342e-02,  6.43600225e-02, -6.82946816e-02, -3.62300277e-02,  3.20260972e-02,  7.15794936e-02,  6.46048039e-02,  6.82700276e-02, -1.44185685e-03, -3.88737582e-02,  2.35975832e-02, -8.22013691e-02, -8.42623040e-02,  5.61324507e-02,  1.76647604e-02, -6.56945109e-02,  7.44978189e-02,  6.13843799e-02, -5.58213219e-02, -6.00355715e-02, -7.17844293e-02, -8.05324465e-02,  2.62602642e-02,  6.11597300e-02,  2.22658683e-02,  6.46392852e-02, -6.36549219e-02, -6.86425194e-02, -5.27584553e-02, -6.93600774e-02,  1.22302715e-02, -6.12153783e-02, -3.94836478e-02, -6.32809103e-02, -2.48774281e-03, -6.45536706e-02,  1.27474382e-03},
 { 5.40449433e-02, -6.29824772e-02,  2.89183930e-02,  6.76165819e-02,  3.21690589e-02,  6.17207363e-02, -7.02634528e-02,  8.10075998e-02, -5.45176342e-02,  7.64377341e-02, -2.01648977e-02, -6.63615018e-02,  6.91165477e-02, -2.20556445e-02,  1.71719380e-02,  5.07596182e-03,  4.57917675e-02,  3.02595971e-03, -3.46744619e-02,  5.60376011e-02,  5.27261794e-02, -7.50613511e-02,  7.39852712e-02, -4.88285050e-02,  1.60597842e-02, -7.03509599e-02,  3.35784033e-02,  6.93309754e-02, -2.40644049e-02,  5.37427105e-02, -5.20331673e-02,  7.71225840e-02, -7.62694702e-02,  8.02376587e-03, -6.13264665e-02,  2.73717777e-03,  7.16346875e-02, -5.60007617e-02,  4.84830653e-03,  2.62798592e-02},
 {-4.76121269e-02, -7.84934312e-02,  1.66725814e-02, -7.90891529e-04, -7.29418471e-02, -8.26852769e-03,  3.83470207e-02, -3.47745344e-02,  4.93273214e-02,  2.28314362e-02, -7.44793341e-02,  5.22615621e-03,  5.28363232e-03, -3.61361797e-03, -4.60996889e-02,  6.72390535e-02, -2.23869048e-02, -2.58708745e-02,  4.82645296e-02, -6.99905232e-02,  4.91235266e-03,  1.13882022e-02,  9.09581024e-04, -4.20041382e-02, -2.68850103e-02, -2.80558746e-02, -6.33592606e-02,  7.98318833e-02,  3.65717448e-02,  4.42723557e-02,  8.54780003e-02,  5.61674535e-02,  3.12065100e-03, -1.42439259e-02, -7.33800419e-03,  7.47981817e-02,  4.35119085e-02,  7.96743259e-02,  7.99242705e-02, -1.11147668e-02},
 { 6.62838593e-02,  8.60774890e-03,  2.11639889e-02,  3.00038159e-02, -3.08820028e-02, -7.20673874e-02, -7.12839067e-02, -7.95967653e-02,  3.07211708e-02, -7.21313506e-02,  3.80567163e-02, -7.83789605e-02, -5.25024161e-02,  1.86264962e-02, -2.81367749e-02,  7.12181302e-03, -3.54431085e-02,  7.90365040e-02, -2.83564068e-02, -3.84731218e-02,  6.82481676e-02, -5.14546968e-02,  7.93675631e-02,  2.91193165e-02, -8.03720132e-02, -4.50623073e-02, -3.43678184e-02,  5.73087335e-02, -8.10484961e-02,  5.07715009e-02,  2.35683788e-02, -2.29697116e-02,  1.78446807e-02, -1.56673957e-02,  2.15453561e-02,  5.79044335e-02, -6.37152269e-02,  1.76062863e-02, -2.72867419e-02, -4.27161194e-02},
 {-6.61818534e-02,  3.61142196e-02, -2.89815143e-02,  8.46943781e-02, -4.56073619e-02,  8.40360224e-02, -2.04089060e-02, -2.55514216e-02,  2.73944456e-02,  2.87180878e-02, -6.51809946e-02,  4.18031067e-02,  1.65788755e-02, -2.20320486e-02, -2.92451661e-02, -2.07732096e-02, -2.44289283e-02,  6.83948994e-02, -6.89406544e-02, -5.54496869e-02, -4.61137071e-02, -4.69186902e-02, -4.43299636e-02,  4.21875007e-02,  5.49056828e-02,  8.71826187e-02, -4.55446281e-02,  5.06052002e-02, -8.18734691e-02,  3.16750892e-02,  7.57053122e-02, -8.02750364e-02,  5.77451624e-02,  5.79990037e-02, -3.54665108e-02, -7.23272329e-03, -3.03771328e-02,  3.79557386e-02, -7.93887153e-02, -7.24744648e-02},
 {-4.65637557e-02, -4.15104739e-02, -3.89069393e-02, -2.89506689e-02,  5.80217093e-02, -7.98184872e-02,  8.12423229e-02, -6.85288534e-02, -8.11536312e-02,  3.78608592e-02,  3.08438353e-02,  6.84127212e-02,  2.47260067e-03, -2.26015095e-02, -4.39001480e-03,  6.10172451e-02,  4.00856994e-02,  6.25061318e-02,  6.54180124e-02, -4.20574844e-02,  3.24900895e-02, -1.68511615e-04, -8.13385397e-02, -1.49094034e-02, -3.08150277e-02,  2.87892148e-02, -5.70207462e-02,  5.05803563e-02,  2.61398815e-02, -7.24326000e-02,  5.33066355e-02,  2.86352411e-02, -1.04199825e-02, -5.52613996e-02, -3.29811056e-03,  2.42228340e-02,  4.48775887e-02,  2.77397931e-02,  4.54207025e-02,  2.90556811e-03},
 {-2.23850440e-02,  2.98961196e-02,  6.82416856e-02,  7.31247365e-02, -6.65979385e-02, -5.84517326e-03, -7.79308602e-02, -3.63625772e-02,  6.69176057e-02, -6.45542890e-02,  2.41080243e-02,  3.55581045e-02,  4.44306759e-03, -6.00788444e-02, -1.11906976e-02, -2.74382699e-02,  3.76887135e-02, -4.88942415e-02,  2.73296572e-02,  4.33604941e-02, -5.74101880e-02,  4.08935696e-02,  8.41066763e-02,  6.42178282e-02,  5.43463677e-02, -5.54716103e-02, -4.69947681e-02,  5.29344082e-02,  3.79883274e-02, -8.48307088e-02,  8.52343217e-02,  7.98517559e-03, -4.66277190e-02, -7.28265867e-02,  2.05566026e-02,  6.01739399e-02,  5.11122048e-02, -8.46210122e-02,  1.91141814e-02, -2.48484388e-02},
 {-3.10381819e-02, -5.39190695e-03,  1.74913872e-02, -7.04515129e-02, -8.18485841e-02, -4.87486757e-02, -5.94002753e-02, -2.68045794e-02,  1.79375019e-02, -3.85130532e-02, -7.18143880e-02, -8.02160129e-02, -6.97415471e-02,  2.83176359e-02, -2.33754404e-02, -5.19146472e-02, -8.48385990e-02, -9.50713363e-03,  5.22494987e-02,  3.63961607e-02,  6.83721155e-02,  3.43582854e-02,  5.71108423e-02, -5.92754111e-02,  2.52722446e-02, -3.54887769e-02,  4.36257906e-02,  4.69194278e-02, -1.17161861e-02,  4.35124002e-02, -7.17358664e-02, -3.53243798e-02,  1.53931240e-02,  4.39869277e-02,  5.86754754e-02, -6.25368729e-02, -2.38912832e-02,  4.19336092e-03,  2.48759147e-02, -2.43827328e-02},
 {-6.67688251e-03, -8.13320428e-02,  4.97679859e-02, -3.55878733e-02, -7.30410740e-02,  2.75021642e-02,  4.94951159e-02, -6.03237748e-03, -5.96313030e-02,  5.23933619e-02,  4.62904572e-04, -1.77072063e-02, -1.70330033e-02,  3.07457820e-02, -3.49336676e-02,  2.65302956e-02, -3.34275477e-02,  1.72945559e-02, -1.11292675e-02,  6.52490556e-02,  4.46000248e-02, -7.87215903e-02, -4.60677333e-02, -6.86254501e-02,  1.22813061e-02,  4.93744016e-02,  7.29869306e-02, -6.22266233e-02, -2.23965198e-03,  7.89953023e-02,  7.12506175e-02, -5.73617481e-02,  7.29690343e-02, -5.51128834e-02, -5.91999963e-02,  5.79156280e-02, -8.04871023e-02, -2.29120813e-02,  3.13756540e-02, -2.00211331e-02},
 { 7.39004910e-02, -7.58981481e-02,  7.76266009e-02,  5.55968881e-02,  4.52769548e-02, -8.38129595e-02,  3.55716571e-02,  4.69174981e-02, -7.41536021e-02, -4.81748767e-02,  2.86264494e-02,  5.45564741e-02, -6.39641285e-02, -6.31688461e-02,  1.34907663e-03,  6.48811013e-02, -6.10219911e-02, -1.99450254e-02,  3.04235667e-02, -5.26999533e-02,  1.96078122e-02,  2.48206854e-02, -8.32370818e-02,  7.04217255e-02, -7.42355138e-02,  2.82269865e-02, -5.70383295e-02,  5.62173724e-02, -3.69951166e-02, -5.55154234e-02, -1.35619044e-02, -4.50414605e-02,  6.46946877e-02,  3.23693529e-02,  2.72038057e-02,  5.06040007e-02,  1.20119378e-02,  7.91360289e-02,  4.03091908e-02, -1.37716383e-02},
 {-7.08717480e-02, -5.49358465e-02, -1.13764191e-02,  2.18029637e-02, -4.58203331e-02,  6.94340691e-02, -5.95426485e-02, -7.98195899e-02, -1.33732762e-02,  2.65702847e-02,  8.27117637e-02, -8.39422792e-02, -6.11259937e-02,  4.93551977e-02,  6.75789937e-02,  7.22287074e-02, -8.24699625e-02, -7.77294487e-02,  5.63642122e-02, -7.53749982e-02, -2.09319871e-02, -2.83878297e-02, -4.82904427e-02,  1.17928311e-02,  6.24999255e-02, -4.80369180e-02, -1.29640950e-02,  2.63594221e-02, -1.83957536e-02,  8.96640215e-03, -1.00218961e-02, -1.61673930e-02,  2.42144037e-02,  3.50519083e-02, -2.76719667e-02, -5.82320392e-02,  6.72346205e-02,  6.78424090e-02, -1.86319984e-02,  2.40002926e-02},
 {-3.68429646e-02, -6.02024905e-02, -8.25986192e-02,  8.98262428e-04, -6.81529194e-02,  6.82696998e-02, -7.34646469e-02,  3.15604545e-02,  6.51867241e-02,  3.29326950e-02, -8.21286961e-02,  4.73702103e-02, -4.21482660e-02, -6.03477396e-02, -6.95672184e-02, -7.26336539e-02,  2.17070114e-02,  7.95003325e-02,  4.83533889e-02,  5.57555109e-02, -5.65085076e-02,  3.67687754e-02, -3.03501263e-02, -7.70567805e-02, -6.13935031e-02, -7.84126967e-02, -5.66111989e-02, -1.22331809e-02,  3.96253504e-02,  7.80616030e-02,  5.38964383e-02, -7.97845349e-02,  7.87976384e-02,  1.80532807e-03,  3.64219099e-02,  8.40009972e-02, -1.54265305e-02,  3.57807204e-02, -6.84428215e-02,  2.83641927e-02},
 {-2.17210799e-02, -4.38396148e-02,  2.92770122e-03,  5.43854423e-02,  7.62695521e-02,  2.48749349e-02, -4.70530353e-02, -7.39376098e-02,  1.64944232e-02,  8.38247314e-03, -4.79637645e-02,  6.44333810e-02,  2.27523502e-02, -2.26765405e-02,  1.59953572e-02,  1.59465708e-02,  5.04224487e-02,  1.25000607e-02, -3.17783654e-02, -5.82763702e-02,  2.78036110e-03, -7.64582753e-02,  1.57824159e-02,  2.06430573e-02,  2.93804035e-02,  2.54911147e-02,  4.10319008e-02,  4.26983088e-02,  2.13881414e-02,  7.77923837e-02,  4.40647043e-02,  4.65796068e-02,  4.69884016e-02,  7.27397576e-02,  4.11603749e-02,  1.32861007e-02,  1.14663076e-02,  8.46278965e-02, -4.95880358e-02,  2.95799132e-02},
 { 6.52430430e-02,  2.11822446e-02,  1.50367022e-02,  2.65320443e-04,  6.94926158e-02,  3.00388671e-02,  4.82186787e-02,  5.69006987e-02,  8.04010332e-02, -1.06821982e-02,  8.36308207e-03, -7.93715119e-02, -6.01492822e-02, -5.90712279e-02, -7.60479197e-02, -1.51932873e-02,  6.80236295e-02,  3.68961655e-02, -9.66919994e-04,  3.48234400e-02,  5.42175733e-02,  8.44870582e-02,  2.16441173e-02,  7.63913896e-03,  6.74066972e-03, -7.05280453e-02,  4.30805869e-02, -6.07710704e-02, -7.92509243e-02, -3.86159979e-02,  3.09934374e-02, -1.41731100e-02, -4.05898467e-02, -6.41279668e-02,  2.22306922e-02, -6.23586774e-02, -4.08191159e-02, -1.21000651e-02,  6.83359504e-02, -1.60255972e-02},
 { 2.81775407e-02, -7.41918311e-02, -4.26947847e-02,  9.27391555e-03, -5.83165139e-02, -8.31522867e-02,  5.67550138e-02, -1.31803835e-02,  8.53392407e-02,  3.62855420e-02, -5.71189746e-02, -8.34847912e-02, -7.63822123e-02,  7.79571682e-02, -5.44947311e-02, -7.75943846e-02, -1.12440214e-02,  3.79575863e-02, -8.35425779e-02,  4.97486163e-03, -2.76039820e-03,  7.36375600e-02, -2.99257729e-02,  4.27247360e-02,  8.34292695e-02,  8.45028460e-02, -1.22516556e-02, -3.09646428e-02, -5.86266704e-02,  7.91381449e-02, -7.74012282e-02,  3.81813832e-02, -4.81112674e-02, -4.48528789e-02, -5.58856316e-02,  7.34946206e-02,  6.29561767e-02, -2.59020776e-02,  1.37761636e-02,  7.76629802e-03},
 {-7.52093643e-02,  3.00805420e-02,  4.74358909e-02, -3.51523189e-03,  5.93340620e-02,  7.17213552e-05, -5.58754019e-02, -7.11593311e-03, -3.23444344e-02,  7.28162751e-02, -6.95881248e-02,  6.18409328e-02,  6.57470673e-02,  6.44973740e-02, -5.90857826e-02, -1.66386555e-04,  4.08209302e-02,  1.17253978e-02,  7.37153217e-02,  7.33487234e-02,  7.69436881e-02,  3.25817801e-02,  7.48777539e-02,  1.52751235e-02,  1.09641319e-02,  2.70551313e-02, -6.17374666e-02, -5.17434105e-02,  1.56737305e-02, -7.39610866e-02, -8.03493038e-02, -6.47312552e-02, -3.72671001e-02,  3.91428210e-02, -6.09842390e-02,  5.89981526e-02, -7.83828124e-02, -6.70244247e-02, -4.85339463e-02, -2.34799460e-02},
 { 3.83388437e-02,  1.49098830e-02, -1.50004374e-02,  5.56709431e-02, -8.29433277e-02, -1.43787288e-03, -3.03467605e-02, -4.74092625e-02,  2.17265375e-02,  1.22893425e-02,  7.10908249e-02, -2.84036379e-02, -8.42201933e-02,  7.35290796e-02, -6.19659908e-02,  3.84230241e-02, -5.12391627e-02,  6.60322723e-04,  3.29455845e-02,  5.65910637e-02, -6.88065961e-02, -5.00722788e-02, -6.20039031e-02,  6.71837851e-02,  6.38554767e-02,  4.30987366e-02,  7.26724714e-02, -7.28369644e-03,  6.00065738e-02, -9.78801399e-03, -7.43630528e-02,  1.09045645e-02,  3.69272083e-02, -6.62969276e-02,  4.23681922e-02,  1.78378746e-02, -1.73661094e-02, -6.81302324e-02,  3.18715088e-02, -7.41675124e-02},
 {-3.44906598e-02, -2.37665195e-02,  1.78563576e-02, -8.47694203e-02,  1.04770195e-02, -2.01439907e-05, -3.38282399e-02,  7.30053633e-02, -2.20943224e-02,  1.65389515e-02,  2.77945194e-02,  8.59008171e-03, -6.46655262e-02, -9.56515223e-03,  6.84590340e-02,  1.22088687e-02,  1.75234191e-02, -1.49819776e-02,  2.82700919e-02,  1.13712791e-02, -7.32883215e-02,  6.05592839e-02, -3.59528400e-02,  7.87525922e-02,  6.79882690e-02, -4.30998718e-03,  9.08817165e-03,  2.43818946e-02, -3.28413323e-02, -8.37392882e-02,  5.76442182e-02,  8.33493695e-02,  7.53095001e-03, -3.81185487e-02,  5.69796525e-02,  9.52249486e-03,  5.30074574e-02,  2.98027396e-02, -6.82774708e-02,  4.75117676e-02},
 {-3.14069651e-02, -4.24030870e-02, -5.46047743e-03, -6.72769770e-02,  7.89005086e-02,  6.01998232e-02,  4.18946855e-02, -6.39454499e-02, -5.54063432e-02, -7.84355849e-02, -1.62475239e-02,  2.29471941e-02, -6.97957054e-02, -2.56310962e-02, -5.56643791e-02,  8.09123665e-02,  2.42794175e-02, -7.53618358e-03, -4.41115350e-02, -1.90450419e-02,  4.21389937e-02, -4.87510599e-02,  1.27087757e-02, -8.21280405e-02, -1.37198996e-02,  8.42675939e-02,  4.00483981e-02, -5.74273095e-02, -7.23107979e-02,  7.68750906e-02,  1.69444978e-02,  2.61769053e-02, -6.64400160e-02,  8.50523785e-02, -6.80575743e-02, -4.94370386e-02,  4.53000441e-02,  3.99325415e-03,  7.70127103e-02,  2.62081008e-02},
 {-4.35500257e-02, -5.63704409e-02,  7.03451410e-02,  3.90367955e-02, -7.12995604e-02, -1.93393677e-02,  2.98869889e-02, -8.07389989e-03, -3.90855409e-02,  6.45030960e-02, -7.09491149e-02, -6.92109466e-02, -4.87642698e-02,  2.74969134e-02, -4.96393740e-02, -8.36977363e-02,  1.67529117e-02, -8.68830532e-02, -3.02843396e-02,  6.98795766e-02,  6.30213991e-02,  2.82904617e-02,  1.03229033e-02,  3.73870283e-02,  6.30938187e-02,  1.70665681e-02,  8.09403434e-02,  2.51133628e-02,  5.33060804e-02, -3.25518437e-02,  1.39666237e-02,  2.66084191e-03, -7.04114214e-02, -7.17531815e-02,  3.06816436e-02, -8.71486217e-02,  4.41981368e-02,  3.42283770e-02,  7.98550993e-02, -8.16008076e-02},
 {-2.46733148e-02, -4.42913063e-02,  7.43204206e-02,  7.66258612e-02, -3.44225615e-02, -1.33133773e-02,  5.36241196e-02, -7.29928017e-02,  2.95145754e-02,  7.70135969e-02, -3.74883972e-02, -6.48722127e-02,  4.58730347e-02,  2.94338949e-02, -2.58380510e-02, -3.35017405e-02,  8.57598186e-02,  2.04989761e-02, -4.38552350e-02, -5.80134876e-02, -4.97228019e-02, -3.40355304e-03, -8.71695876e-02,  4.06487100e-02,  3.08506917e-02, -5.73229864e-02, -8.55278298e-02, -7.98731893e-02,  4.10241149e-02, -8.57813135e-02, -2.27359179e-02, -6.31678849e-02, -5.62783740e-02,  4.51915711e-02,  6.49138615e-02,  6.96759820e-02,  5.84572107e-02, -6.50861710e-02,  4.25891988e-02, -4.47739623e-02},
 { 5.25144339e-02,  5.69147691e-02, -4.33508009e-02, -2.04122663e-02,  5.14517389e-02,  5.60101196e-02, -6.78469054e-03, -8.72646049e-02, -7.14411363e-02, -5.97882047e-02,  3.36003602e-02, -5.98055534e-02,  7.36662149e-02,  5.79731259e-03, -6.20886534e-02, -2.75519546e-02, -7.91206881e-02,  7.03321537e-03, -7.81411231e-02,  5.48323542e-02, -5.39887836e-03,  5.61539605e-02,  3.80212069e-02, -2.19010469e-02, -6.75267354e-02,  7.13470504e-02,  8.14181641e-02,  5.79843670e-02, -2.46859696e-02,  4.42970246e-02,  6.08671904e-02,  7.90750757e-02, -3.74789443e-03,  6.12490661e-02, -1.35866096e-02, -3.05419173e-02,  3.32342051e-02, -3.93418148e-02, -6.29331544e-02, -3.70188206e-02},
 { 8.03679749e-02, -1.64797232e-02, -6.85555786e-02, -3.69353108e-02,  8.26245993e-02, -2.38269698e-02,  4.70684171e-02, -5.22773564e-02, -1.78741347e-02,  5.21959085e-03,  2.82901246e-02, -4.68406565e-02,  5.77817634e-02, -6.29858002e-02,  3.80023085e-02, -5.66110946e-02,  3.60254757e-03,  6.19553737e-02, -3.98437791e-02,  7.15719350e-03, -6.60216585e-02, -5.60681671e-02,  4.32901010e-02,  2.84256116e-02, -6.13783710e-02,  7.82435909e-02, -3.49123590e-02,  2.37615835e-02,  5.73690236e-03,  4.75324132e-02,  6.80904882e-03,  1.42990763e-03,  7.93402866e-02, -6.05664402e-02,  5.23466095e-02,  1.35861402e-02,  7.70945027e-02,  1.67392064e-02,  2.15192754e-02, -1.03951264e-02},
 {-3.87750082e-02, -6.22109920e-02, -5.68262041e-02, -7.16653168e-02,  5.91414515e-03, -5.61038479e-02,  8.24527666e-02,  4.33546938e-02,  8.33811909e-02,  3.64106186e-02,  2.79835332e-02, -5.33477589e-03, -2.49134712e-02,  4.59429398e-02, -4.22118828e-02, -4.06970084e-03,  8.88828747e-03, -3.92333865e-02,  2.01019502e-04,  4.83013242e-02,  5.65231815e-02,  2.40085158e-03,  1.34346010e-02, -2.93786358e-02,  4.13801968e-02, -4.51620854e-03, -6.42983094e-02, -3.20230536e-02,  5.38664050e-02, -1.94892730e-03, -4.42861085e-04, -1.14470976e-03, -4.96295206e-02, -1.05995918e-02, -6.95673823e-02,  4.76656333e-02,  8.45876038e-02, -8.31806958e-02, -6.99762031e-02, -3.36535797e-02},
 {-2.37868670e-02, -2.79214587e-02, -4.52329926e-02, -1.24699157e-02, -4.64912951e-02, -1.20883901e-02,  2.28699520e-02, -5.82032092e-02, -4.46595848e-02, -7.65600652e-02,  8.26157779e-02, -3.08831166e-02, -7.16589242e-02,  3.85643877e-02,  4.57886867e-02, -1.54692577e-02,  8.10577497e-02,  3.99844460e-02, -7.45368376e-02,  5.91042452e-02,  3.15933526e-02, -6.76998198e-02, -5.99754117e-02,  6.51361123e-02, -5.42374849e-02, -7.12272674e-02, -8.51061344e-02,  8.03916156e-03,  4.75351438e-02, -1.85793377e-02,  3.18384096e-02,  4.95079830e-02,  8.39147344e-02, -1.29392731e-03,  7.54475445e-02,  3.96682583e-02, -1.44536421e-02,  1.14059513e-02,  4.31506075e-02,  4.64369165e-04},
 {-3.43853459e-02,  4.30642553e-02, -3.66450027e-02,  4.96043824e-02,  3.54368845e-03,  2.95317490e-02, -5.44487499e-02, -4.65554968e-02,  6.08754195e-02, -4.93558571e-02,  6.93518892e-02, -1.41840391e-02,  2.45968085e-02, -5.80215864e-02, -8.12480375e-02, -5.64029440e-02, -1.34118497e-02,  6.29841834e-02, -6.77604228e-02,  1.90871302e-02,  7.08102509e-02, -1.40413186e-02, -1.84970368e-02, -8.15850645e-02, -3.78485210e-02, -6.35433868e-02,  9.52346623e-03,  6.43275380e-02, -7.78762177e-02,  4.64546159e-02,  6.38856217e-02,  4.85986806e-02,  3.05681601e-02,  3.14625129e-02, -2.19163019e-02,  2.74808649e-02, -6.22028299e-02,  4.47781757e-02,  7.29278326e-02,  6.20508716e-02},
 {-3.06070279e-02, -7.27168843e-02, -3.14232670e-02,  4.80438024e-02,  7.74504840e-02,  3.86653878e-02,  6.10959642e-02, -8.31750035e-02, -7.36809000e-02,  2.30193119e-02,  7.99018443e-02, -3.28237303e-02,  4.87143025e-02,  3.94449346e-02,  5.73823191e-02,  6.99028671e-02, -2.89054941e-02,  3.19956951e-02,  7.15988949e-02, -1.63668450e-02, -2.10519042e-02, -6.53224811e-02,  2.17907559e-02,  5.19184917e-02,  1.31322595e-03, -3.08098067e-02,  2.92913318e-02,  7.10479403e-03,  5.49429953e-02, -6.82850778e-02, -4.07127943e-03,  7.30925277e-02, -2.99133230e-02,  4.62669022e-02,  3.47164758e-02,  4.59011234e-02,  7.51273632e-02, -2.04885993e-02, -6.18384555e-02, -6.31448776e-02},
 {-7.58612379e-02,  1.84708610e-02,  4.42197360e-02,  4.91793752e-02, -2.64124554e-02, -5.83344698e-02,  4.40264903e-02, -7.60748759e-02,  6.61401898e-02,  3.79796959e-02, -2.05064937e-02, -3.62553075e-02, -2.88033746e-02,  2.02401280e-02, -7.16072693e-02,  3.88008244e-02,  4.32210863e-02, -5.85287884e-02,  7.41829872e-02,  2.55131684e-02, -7.16506243e-02, -7.58496821e-02, -2.67956033e-02,  2.90881302e-02,  8.49843249e-02, -1.45925814e-02,  2.46127620e-02,  1.10090850e-02, -3.11436355e-02, -5.92639595e-02, -2.25670356e-02, -6.83078319e-02, -6.47013709e-02, -7.97080845e-02,  2.36806827e-05,  8.00844133e-02, -7.19893128e-02,  8.56749248e-03,  2.69036479e-02, -2.53995899e-02},
 { 3.31602506e-02,  7.38077983e-02,  3.96558605e-02,  3.32506336e-02, -7.67788291e-02, -2.34486852e-02, -2.92341672e-02, -2.89034378e-02,  1.15569681e-02, -7.23840296e-02,  4.53752205e-02, -2.17822902e-02, -7.69307911e-02,  1.51440687e-02, -4.10853699e-03,  1.07483724e-02, -3.32229249e-02, -1.16132926e-02, -6.24498762e-02,  7.72684366e-02, -8.55678245e-02, -1.73749737e-02, -7.70751610e-02,  7.98601843e-03, -4.67129871e-02, -6.30880669e-02, -7.06568435e-02,  4.13019247e-02, -2.90765446e-02,  8.15823525e-02, -1.37528703e-02,  6.01558797e-02, -7.55616836e-03,  1.65575091e-02, -4.47665080e-02, -1.81005355e-02, -3.64705436e-02,  6.42159954e-02, -3.52914482e-02, -4.93077599e-02},
 {-5.66135673e-03, -8.50564912e-02,  7.17747733e-02, -4.63300496e-02, -4.86228429e-02, -1.01319952e-02,  6.40506074e-02, -7.54843950e-02, -2.93745305e-02,  6.03059717e-02,  4.20971774e-02,  3.40906754e-02,  6.23509549e-02,  1.88868996e-02, -4.18739133e-02,  3.32636968e-03,  1.74398310e-02,  8.48464370e-02,  2.26505492e-02,  2.26649139e-02, -4.89692669e-03,  4.76382300e-02,  7.78368264e-02,  3.08710877e-02,  1.18491463e-02, -2.86114365e-02,  6.38616458e-02,  1.79192442e-02,  3.97746675e-02, -8.21152478e-02, -1.86330229e-02,  4.99039516e-02,  6.06639124e-02,  5.65218255e-02,  4.19497769e-03, -7.85779729e-02, -5.81310354e-02, -8.08308497e-02, -2.87416931e-02,  5.31322584e-02},
 { 2.51387935e-02, -7.10557327e-02,  4.38539200e-02,  1.12022506e-02, -4.92019206e-02, -1.53844692e-02, -6.28542081e-02, -6.16012141e-02,  6.79245144e-02,  7.44619966e-02,  3.74734700e-02,  5.04075326e-02,  3.58609040e-03,  3.42715532e-02,  2.32668649e-02, -5.33359051e-02,  8.08763951e-02, -5.91071844e-02, -2.04007532e-02, -7.50951935e-04, -6.71294110e-04, -8.06798562e-02, -7.44070765e-03, -3.31842490e-02,  4.66627032e-02,  3.23809050e-02,  2.35800934e-03,  3.20629217e-02,  7.66476765e-02,  5.44247590e-02,  2.98700705e-02,  8.13318342e-02,  1.26840053e-02, -6.18033521e-02,  3.56782973e-02,  6.16949126e-02,  8.13326165e-02,  7.99423829e-02,  3.42027284e-03, -5.71988150e-02},
 {-5.96846491e-02, -8.41778144e-02,  8.08274820e-02,  2.87906770e-02, -6.19689822e-02, -2.15095561e-02, -6.50753751e-02,  4.75634448e-02,  3.96758392e-02,  5.97086698e-02,  3.00734639e-02,  6.38333112e-02,  4.77204509e-02,  4.49356772e-02,  6.87071532e-02,  2.95434464e-02,  1.71977561e-02,  7.12945163e-02,  7.38610849e-02, -1.94149930e-02,  3.89260724e-02,  3.86510305e-02,  5.25032394e-02, -2.11535767e-02, -7.47791603e-02,  5.47120906e-03, -7.39536015e-03,  6.39558136e-02,  5.28838001e-02, -2.15571877e-02,  2.17026495e-03, -3.16564180e-02,  2.85015106e-02,  5.24018221e-02,  6.19371310e-02, -4.37993370e-02,  1.56446546e-02, -1.45901507e-02, -7.76094571e-02,  3.52565534e-02},
 { 3.94834355e-02,  3.84464301e-02, -8.53803232e-02,  6.87060729e-02,  5.80798127e-02,  4.21423055e-02,  6.14499524e-02,  7.01351985e-02,  8.09723735e-02,  3.87849510e-02,  2.33050808e-02, -2.87427716e-02, -1.45069677e-02,  7.68681094e-02,  5.02110869e-02, -8.33264068e-02, -6.85218349e-02,  6.46144375e-02,  6.27158657e-02,  1.77402608e-02, -4.84517813e-02,  4.70367223e-02,  8.29414576e-02,  5.03283776e-02, -5.55212088e-02,  4.12211306e-02,  7.63910189e-02, -5.90374209e-02, -1.29985735e-02, -4.86108921e-02,  4.56322506e-02, -4.92126234e-02, -3.40340063e-02,  3.71132344e-02, -6.56874999e-02, -2.33150460e-02,  3.77923660e-02, -4.82796058e-02,  1.54454261e-02,  2.50363462e-02},
 { 4.75312099e-02, -8.41588676e-02, -2.90927552e-02, -5.52272759e-02,  7.04443902e-02,  6.04895987e-02,  1.34001784e-02, -5.95580554e-03,  6.38105497e-02, -3.14890891e-02,  8.36227089e-02,  7.93332681e-02,  4.62856889e-02,  3.43720056e-02,  6.19316250e-02, -4.97746281e-02,  1.71117838e-02, -6.41639680e-02,  2.92182099e-02,  6.71035275e-02, -7.36918300e-02,  7.36852214e-02, -8.20981637e-02,  4.60721590e-02,  1.46235013e-02,  8.22398216e-02, -4.34731506e-02, -4.19872031e-02, -2.70015970e-02,  3.10894232e-02,  6.54107556e-02, -4.92760353e-02, -5.87441847e-02,  3.63236628e-02, -6.43946528e-02,  1.19039475e-03, -6.79827183e-02,  1.62003748e-02, -1.65707748e-02,  1.25670470e-02},
 { 4.34262753e-02,  5.78347594e-02,  3.67227234e-02, -4.28926423e-02, -6.84529394e-02, -8.64337105e-03,  7.26481453e-02, -2.74584349e-02,  6.82279766e-02, -1.85518302e-02, -5.27655743e-02,  6.03501387e-02,  7.92867318e-02,  5.45497946e-02,  2.86885392e-04,  6.66631833e-02, -5.43234274e-02,  3.06383669e-02, -8.27866420e-02,  2.46678665e-02,  3.10853887e-02,  6.94101304e-02, -5.72665967e-02,  3.48227955e-02, -3.98818962e-03, -2.88356375e-02,  7.98294693e-02, -5.34650590e-03,  4.99278381e-02,  1.24111576e-02, -6.88807219e-02, -4.36231829e-02, -4.61349264e-02,  4.99072745e-02, -7.63037130e-02,  7.60332048e-02,  5.53662963e-02,  2.52819732e-02, -7.38426596e-02,  5.06540835e-02},
 { 2.18544230e-02,  5.91303557e-02, -7.65962750e-02, -2.58449800e-02,  1.13120824e-02, -4.15199511e-02, -5.01029268e-02,  7.82692432e-02,  7.30617195e-02,  6.26326799e-02,  7.87261873e-02, -3.01075727e-03,  1.06546655e-02, -4.26077843e-03, -6.82615861e-02, -5.20825386e-04, -3.46516073e-02, -3.27315740e-02,  4.55596298e-03, -2.15355307e-03, -5.63743971e-02, -7.83860236e-02, -2.48972215e-02, -1.81062296e-02,  7.35863745e-02, -7.45028853e-02, -2.73775086e-02, -4.36742976e-02,  4.61308658e-03, -7.42907301e-02,  2.66915858e-02,  7.85574466e-02,  2.68221200e-02, -8.94824415e-03,  3.46221030e-03,  4.43825424e-02,  6.06480092e-02, -6.46335036e-02, -4.24410589e-02, -6.31491393e-02},
 { 4.08463329e-02,  1.57004222e-02,  7.31566697e-02, -2.34133154e-02, -1.40072480e-02, -6.36257082e-02, -4.96856384e-02, -5.15590422e-02, -2.46897452e-02,  8.73889774e-03, -6.37010038e-02, -5.00652492e-02, -5.88187985e-02,  7.34546185e-02,  4.42402065e-02, -3.15774567e-02, -1.31354779e-02, -7.09666610e-02, -2.02810168e-02,  6.96726143e-04, -4.39906158e-02, -2.59116516e-02,  4.41073775e-02, -8.33354071e-02,  5.19484133e-02,  5.17050177e-02,  6.71873242e-02, -7.86179528e-02, -7.20316917e-02, -8.03516731e-02,  6.28296286e-03, -1.27365813e-02,  6.04577363e-02,  1.75670087e-02, -5.42799458e-02, -6.98294491e-02, -1.37507915e-04,  5.86898625e-03, -7.37514272e-02,  8.15776438e-02},
 { 9.66429710e-03, -9.35494155e-03, -1.30240098e-02,  7.20272958e-02,  3.68334800e-02,  5.53874671e-02,  7.34883249e-02, -8.30767080e-02,  2.75022238e-02, -2.26794407e-02,  3.89387757e-02, -1.92813426e-02, -6.87106103e-02,  1.67898238e-02, -5.93520328e-02,  5.85761517e-02,  4.94664013e-02,  1.96237415e-02,  2.78442800e-02, -2.15782225e-03, -6.32745028e-02, -2.58262828e-02,  4.16166335e-02, -4.59868610e-02, -6.31828606e-03,  7.29419142e-02,  5.72615266e-02, -6.30328804e-03,  3.70971859e-03,  7.33519346e-02, -3.40884253e-02,  2.62337476e-02,  7.49214590e-02, -1.66988224e-02, -2.44957581e-02, -5.18120080e-02,  6.74428493e-02, -8.29330906e-02, -1.19252950e-02, -7.37657920e-02},
 {-4.48674113e-02,  7.18078762e-02,  7.94539005e-02,  1.92946866e-02, -6.99867979e-02, -5.01888245e-03,  5.67703396e-02, -5.88132851e-02,  1.05846524e-02,  8.12460184e-02,  6.76299483e-02, -4.32511643e-02, -6.59385398e-02, -2.67212279e-02, -7.52613768e-02,  8.51320475e-02, -4.44284342e-02, -7.12468475e-03,  7.19501674e-02,  5.68881482e-02,  7.65490383e-02, -2.54335478e-02, -8.01220760e-02, -8.37467760e-02, -5.51759899e-02, -7.43173957e-02, -8.27689916e-02,  6.80224299e-02, -7.23627210e-02, -1.64576545e-02,  2.65622139e-02, -1.83761194e-02,  5.25865108e-02,  7.45156556e-02,  5.20751923e-02, -5.73713109e-02,  6.24191612e-02,  5.10024130e-02,  7.39998817e-02, -2.86490135e-02},
 { 1.41395926e-02,  7.61448443e-02, -2.73558013e-02,  4.26583141e-02,  3.18342447e-02,  1.99776888e-03, -4.67220992e-02, -3.42786871e-02, -6.55764639e-02,  1.05082840e-02, -7.34335184e-03,  5.69231361e-02,  7.69869983e-02,  4.54418510e-02, -1.27559900e-02, -2.32724100e-02,  2.37915218e-02, -3.16884369e-02, -4.98086400e-02,  8.24326575e-02, -7.20803142e-02, -2.74155140e-02, -2.50678919e-02, -5.99494763e-02,  6.59401715e-02, -3.61852348e-04,  4.96073961e-02,  3.30466107e-02, -8.12455565e-02, -7.81508982e-02,  6.60455078e-02,  7.70611465e-02, -4.22070175e-03, -5.17859459e-02, -6.22857660e-02, -5.67136034e-02, -3.76008824e-02, -1.35133415e-02, -3.81660201e-02, -5.35792746e-02},
 { 3.41105834e-02,  7.15262294e-02,  3.95579636e-02, -4.97439876e-02,  1.45490319e-02, -3.22781093e-02, -2.76346467e-02,  5.53964823e-02,  5.71790338e-02, -4.38850895e-02, -5.43751568e-03, -3.28322388e-02,  7.70066231e-02, -6.02011606e-02, -8.23156685e-02, -7.28256851e-02, -7.81280696e-02, -4.71093021e-02,  8.21674764e-02,  6.61368370e-02,  7.04209358e-02,  6.27140254e-02, -2.12777406e-03, -7.91032985e-02, -3.79585214e-02,  2.81778947e-02, -4.89287935e-02,  3.47579718e-02,  3.46171632e-02, -3.01982239e-02,  7.41493255e-02,  3.46159935e-03,  4.46509272e-02,  4.35550511e-02,  5.81406057e-03,  2.65747830e-02, -6.81076944e-02,  4.05715853e-02,  7.74959177e-02, -8.46200436e-03},
 {-7.04490542e-02,  3.27170864e-02, -2.47544199e-02,  6.08657897e-02,  3.56184095e-02,  6.46111518e-02, -7.15195537e-02, -6.69703856e-02,  4.88910079e-02, -2.31596567e-02,  2.68549770e-02,  7.69316554e-02, -3.09324674e-02, -3.96145433e-02,  5.19132614e-03, -1.62162855e-02, -1.24614388e-02, -6.43569827e-02,  8.07088763e-02, -7.85357803e-02,  2.44237408e-02, -4.24808338e-02, -3.21906470e-02,  4.55934554e-02,  5.24539202e-02, -7.91032761e-02, -5.48668951e-03,  2.31287777e-02,  2.52168626e-03,  7.72789866e-02, -7.91532621e-02,  6.45727664e-03,  5.62420785e-02,  4.83644903e-02, -2.24346146e-02, -3.67852002e-02, -8.44703838e-02, -3.75263579e-02,  6.04669899e-02, -1.10130012e-03},
 {-2.78425962e-03,  8.46107602e-02,  7.45622963e-02, -5.11893369e-02,  4.45623100e-02,  5.39858192e-02,  3.97453457e-02,  4.79248017e-02, -3.36764827e-02, -2.83666886e-02,  4.27249074e-02,  3.60084623e-02,  4.25829440e-02,  3.83990034e-02,  9.99750942e-03, -1.23077333e-02, -3.41818891e-02, -7.49585778e-03, -7.97211677e-02, -4.88035493e-02, -5.80018945e-02, -3.46574448e-02,  3.65757123e-02,  5.61467260e-02,  1.21797621e-03, -2.06008628e-02, -8.13783035e-02,  1.40015334e-02,  6.12083077e-02,  2.95457691e-02, -5.20716086e-02, -7.52937198e-02,  3.07722092e-02, -6.68337494e-02,  6.39547259e-02, -1.24809667e-02, -5.76430149e-02,  1.00602508e-02, -5.03451936e-02,  2.08189338e-02},
 {-5.22946455e-02,  2.28707492e-03,  4.52735275e-03, -6.19321540e-02, -1.23885274e-03,  5.41513264e-02, -3.95998135e-02,  3.46279070e-02, -7.45686591e-02, -7.68821985e-02,  3.83966416e-03,  4.13697809e-02,  1.76579952e-02, -6.49345517e-02, -1.35897174e-02,  5.28919250e-02, -4.78443764e-02,  7.51435161e-02,  4.57898080e-02,  5.11935502e-02, -8.04537013e-02,  1.84722096e-02,  5.99460453e-02,  2.73663178e-02, -8.22016373e-02, -5.63321002e-02, -6.41416907e-02,  5.94558865e-02, -5.48656955e-02,  1.93894953e-02,  5.91950715e-02,  1.46189332e-02, -6.26273900e-02, -1.12281591e-02, -1.05957836e-02, -1.65810809e-02, -4.88911942e-02, -1.32792965e-02,  7.08463639e-02,  3.50520909e-02},
 {-9.63825732e-03, -1.37634426e-02,  3.64392623e-02,  5.58855385e-03, -3.09547037e-03, -3.19410563e-02, -3.49870101e-02, -7.51054734e-02,  3.13220248e-02,  1.02782249e-02,  2.95249149e-02,  8.20861757e-02, -1.68375671e-02, -4.02316600e-02,  2.22740322e-03,  7.64820129e-02,  6.86225444e-02,  2.73670107e-02,  6.15955442e-02,  1.59184337e-02, -5.41141182e-02,  2.81511396e-02,  4.81079221e-02,  2.46863663e-02, -7.20258504e-02, -2.32740752e-02,  1.20552927e-02,  3.29181924e-02,  8.07647854e-02, -1.27571449e-02, -9.23449546e-03, -3.38954963e-02, -8.18924606e-03, -6.23452961e-02, -7.98937678e-03,  6.54758215e-02, -3.23341191e-02,  1.79697350e-02, -3.72723341e-02,  7.94043839e-02},
 { 8.34992677e-02, -1.51842758e-02,  7.40158260e-02,  1.07100010e-02,  4.57094759e-02,  3.07483897e-02, -8.32829624e-02,  4.49361652e-02, -4.32495773e-02, -2.26479769e-03, -2.59481482e-02, -1.03741884e-03,  5.16848117e-02,  4.02373224e-02, -1.94081888e-02,  3.06017250e-02, -1.21537447e-02, -1.44119859e-02,  7.86806494e-02, -5.93612082e-02,  2.33988091e-02,  7.06375986e-02,  1.93190202e-02, -1.65364668e-02,  7.44298249e-02, -7.41445944e-02,  3.05576995e-02,  3.77734676e-02,  5.60745001e-02,  3.68821621e-02, -8.14995170e-02,  1.29078999e-02, -7.26643652e-02,  3.05018499e-02,  3.12631726e-02,  4.83118147e-02,  2.65645534e-02, -7.87566006e-02,  4.70419377e-02, -1.97620839e-02},
 {-8.05571750e-02, -3.73962745e-02, -4.15929668e-02, -6.35240674e-02, -5.02102077e-02,  8.00014138e-02, -3.34843472e-02,  1.11023709e-02, -3.71692888e-02,  7.81602412e-02, -6.06977344e-02,  1.10989287e-02, -2.53571942e-02, -3.42999287e-02, -5.12255728e-02,  8.19382817e-02, -3.70034799e-02,  6.49987161e-02,  1.22084096e-02, -6.56323731e-02, -6.31659627e-02, -4.22946364e-02, -1.71312690e-03,  1.22064352e-03, -4.68987934e-02,  7.51331449e-03,  2.08599493e-02, -1.88817680e-02,  9.41654295e-03, -2.11043730e-02,  2.33433098e-02, -4.00919318e-02,  6.95309937e-02, -6.75910637e-02, -7.88895786e-03,  1.58552825e-03,  4.83224392e-02, -1.76994130e-02, -7.23468065e-02, -4.74573597e-02},
 {-4.79260609e-02,  1.04590282e-02,  1.82048604e-02,  7.30338842e-02, -3.94049734e-02, -4.98962663e-02,  2.62672156e-02, -1.27061829e-02,  7.77504146e-02, -7.97019377e-02, -6.37938604e-02, -3.47369127e-02, -3.88210565e-02,  1.89007893e-02, -2.73339897e-02,  1.15094036e-02,  4.85036224e-02,  5.20717055e-02,  6.52152896e-02,  4.90210503e-02,  1.31990388e-02, -3.90437990e-03,  4.18820828e-02,  5.18454015e-02, -4.86334898e-02, -9.87625122e-03,  8.89374316e-03, -7.44952112e-02,  2.34423876e-02, -8.09153989e-02,  3.09136659e-02,  8.18368793e-02,  4.20069247e-02,  1.09291524e-02, -1.38505772e-02,  1.81638449e-02, -5.67762069e-02, -1.83463991e-02,  6.31814599e-02, -4.58833277e-02},
 { 8.23390484e-02, -6.01630360e-02,  3.33958715e-02, -2.48438567e-02,  6.53830320e-02,  5.79961240e-02, -6.88599050e-02,  1.65254027e-02,  5.49411923e-02,  4.59189564e-02,  6.36158437e-02,  5.67156076e-03, -3.07781100e-02,  1.44942105e-03, -1.86063051e-02, -3.60273793e-02,  2.93094888e-02, -1.62027776e-02, -2.63503827e-02,  1.46729127e-02,  4.93368655e-02, -4.00180630e-02,  5.71172386e-02,  2.53053755e-02, -5.06532751e-02, -2.44633704e-02,  2.06938311e-02,  2.46338174e-02, -9.93128121e-03,  5.70812076e-03, -8.50856900e-02, -6.69907108e-02, -1.62206143e-02,  3.07577699e-02,  5.24307489e-02, -2.28134543e-02, -6.61539882e-02, -6.04788661e-02, -4.18318547e-02,  7.97209591e-02},
 { 5.31498194e-02,  7.74860382e-07,  1.24277025e-02,  8.53809714e-03, -1.94754675e-02,  5.99444509e-02,  2.60112584e-02, -2.84623504e-02, -3.73923071e-02,  5.36540002e-02,  3.19929197e-02, -1.47047266e-02, -7.21494406e-02, -1.57771409e-02, -6.08491413e-02, -4.85098734e-02, -4.47305292e-03,  7.29074329e-02, -1.72485337e-02,  1.98738426e-02,  2.22534686e-03,  8.03606957e-02,  3.56916338e-02, -5.14614284e-02, -2.35834606e-02,  4.84783202e-02,  3.67349088e-02,  3.77822742e-02,  6.56491369e-02, -6.86029494e-02, -5.16629629e-02, -6.03957176e-02, -2.44170837e-02,  7.61174560e-02, -1.83790103e-02,  4.68458235e-02,  1.87981129e-02,  5.32712787e-03,  3.20306346e-02,  8.36943239e-02},
 {-6.90659359e-02,  5.01317233e-02,  2.89207995e-02, -6.81672096e-02,  4.17821109e-04, -7.76514411e-04,  7.91234225e-02,  6.21726215e-02, -5.08454107e-02,  7.84712434e-02,  2.39957646e-02, -2.20345333e-02,  1.49268135e-02,  2.40973234e-02,  6.25992119e-02,  5.92620820e-02, -3.74709070e-03, -5.22025675e-03,  6.60932064e-02,  8.25328231e-02, -8.16737488e-02, -7.37172291e-02,  5.27060777e-02, -3.06748636e-02, -3.01617049e-02,  8.32088888e-02,  5.30850589e-02, -4.25879285e-02, -7.52866045e-02, -6.50582612e-02, -7.92004615e-02,  7.78188705e-02, -6.13362938e-02, -2.42162198e-02, -7.71615133e-02, -7.42872879e-02,  6.67045265e-03,  6.76919073e-02, -5.54254577e-02,  3.58405113e-02},
 {-7.39254802e-03,  7.71473795e-02,  7.10524917e-02,  1.94731355e-03,  5.41365147e-03,  8.35600793e-02, -5.61759770e-02, -6.02783114e-02, -5.09527065e-02,  1.29252374e-02,  5.75761348e-02,  6.93945885e-02, -5.81006072e-02, -5.20673767e-02, -4.89504002e-02,  8.07905644e-02,  4.75818664e-02,  4.88831550e-02,  6.63157105e-02,  1.41204298e-02, -6.31951764e-02,  4.38369811e-04,  7.46279806e-02,  6.96832091e-02, -6.58915639e-02,  1.25618577e-02,  1.22354478e-02,  3.22893783e-02, -4.72047590e-02, -3.05750109e-02, -2.89210640e-02, -5.76065481e-03,  4.97063100e-02, -6.75053522e-02, -7.45116472e-02,  5.46156764e-02,  1.32308155e-02,  5.29660285e-02, -7.67615736e-02, -3.66605707e-02},
 {-3.38581614e-02,  1.09729990e-02, -4.68502715e-02, -4.14404236e-02,  1.69933066e-02,  6.21048808e-02,  5.33294976e-02, -3.88647579e-02, -4.51000966e-02,  3.57916877e-02, -2.43566819e-02, -2.92345360e-02,  1.31646097e-02,  7.24360943e-02, -2.32746676e-02,  3.85801941e-02, -7.25782067e-02,  5.21391332e-02, -1.75973475e-02,  3.54195833e-02, -2.49573179e-02,  7.80721158e-02,  5.74017465e-02, -1.09894723e-02,  7.71227777e-02,  2.94412002e-02,  5.37957996e-02, -2.04534084e-03, -3.37973125e-02, -8.23811814e-02,  3.30762565e-03,  1.84129253e-02,  4.40542996e-02, -3.95809747e-02, -6.35246187e-02,  8.03756416e-02,  7.81032294e-02, -5.05265594e-03,  1.59669369e-02,  3.85712013e-02},
 { 7.13966936e-02,  6.55583441e-02, -4.28548492e-02, -6.14037365e-02,  1.09954998e-02,  3.31026986e-02,  7.35100359e-02, -5.23556396e-02,  2.07243860e-03, -6.86066747e-02, -5.53911999e-02,  3.39360833e-02,  1.13768429e-02, -2.38297917e-02, -2.84027420e-02,  5.43444157e-02, -7.31897354e-02, -6.13068379e-02, -1.80250332e-02, -6.22316897e-02,  1.40478015e-02, -1.92241371e-03, -4.38625254e-02, -7.07442313e-02, -5.74965030e-03,  1.03889778e-02, -1.36929080e-02,  8.17689300e-02,  2.62215212e-02, -5.29742427e-02, -7.56764859e-02, -4.16960940e-02,  3.47532332e-04, -4.48871478e-02, -2.55444087e-02,  3.57923955e-02, -1.40622258e-04, -2.43075080e-02, -7.52183050e-02, -1.07888132e-03},
 { 2.88403779e-02, -2.74492241e-02,  2.63834223e-02,  6.57578409e-02,  2.02658027e-03,  7.20887631e-03,  1.84752420e-02,  6.47077262e-02,  1.70568451e-02,  3.08311284e-02,  2.44396701e-02,  6.07724488e-02,  3.17856669e-02,  3.93617377e-02, -6.43624738e-02, -8.74733925e-03, -3.63758653e-02, -4.00864184e-02, -4.46081609e-02,  6.48743957e-02,  7.75521696e-02, -7.80226663e-02, -4.06109542e-03, -5.58210202e-02,  1.59124583e-02,  4.19064611e-02, -5.72275519e-02, -4.88628745e-02,  6.06816858e-02, -3.89342979e-02,  3.94942611e-03,  5.74174374e-02,  5.72250038e-02, -1.14883929e-02, -1.21750832e-02, -2.86909938e-03,  4.37944680e-02, -1.32988244e-02, -5.40290549e-02, -8.24018493e-02},
 { 6.48785383e-02, -2.32187174e-02,  6.97306395e-02, -4.66909930e-02, -6.87170625e-02,  4.99214530e-02, -5.05970605e-02, -4.67846207e-02, -3.23210955e-02, -7.72925913e-02, -3.90652753e-02, -6.17942959e-02, -1.64582580e-03,  8.29498619e-02, -1.37384757e-02, -5.33609949e-02, -6.95713386e-02,  5.93673736e-02,  2.07773298e-02, -3.27830762e-03,  1.69288963e-02,  2.52012089e-02, -8.40606987e-02, -1.89010799e-03, -7.69533664e-02, -5.71237765e-02, -4.47232723e-02,  4.12036479e-02,  6.85924292e-02,  5.39208800e-02,  5.52088320e-02, -5.66451848e-02,  7.42654651e-02,  7.84986764e-02,  2.53443345e-02,  5.95052689e-02, -3.75491455e-02,  4.41114157e-02,  6.78680837e-02,  6.02425188e-02},
 { 4.80596274e-02,  6.30617142e-02,  1.24058127e-02, -7.85548016e-02, -3.56837586e-02, -1.84622630e-02, -5.34529537e-02, -8.32988694e-02, -4.40250374e-02,  7.40543604e-02, -4.01029810e-02,  3.15174162e-02, -6.63549751e-02,  2.48624906e-02, -2.19685957e-02,  4.18243259e-02,  4.13895398e-02, -7.53554702e-03,  1.12811476e-03,  1.89805031e-02, -3.82428207e-02,  5.87044656e-02,  6.42177463e-02,  2.80529112e-02, -3.51659842e-02,  3.33291814e-02,  7.01684356e-02,  3.51658016e-02,  3.45758647e-02, -2.52471715e-02, -2.04595625e-02, -5.81065901e-02, -6.15322143e-02, -2.93195955e-02, -4.83444296e-02, -6.44081086e-02, -2.28450857e-02, -2.84506120e-02,  3.04686278e-02,  1.37256011e-02},
 {-7.77968764e-03, -2.73560658e-02, -7.67485350e-02,  6.84606731e-02, -3.05685215e-02, -6.21403828e-02,  7.79111534e-02, -3.94490808e-02,  7.54561573e-02, -1.27860904e-03, -1.27453357e-03,  6.36226982e-02, -1.41359344e-02,  1.59714743e-02,  4.02039438e-02, -3.62418331e-02,  2.21545696e-02, -2.50147320e-02,  3.92617285e-02,  2.01274604e-02, -5.12648970e-02, -2.27828547e-02, -3.50629799e-02,  3.78948674e-02, -1.48094073e-02, -6.57381043e-02, -3.62456366e-02,  5.29460460e-02, -5.71930297e-02,  4.35906649e-02, -3.31756994e-02, -7.58837834e-02,  1.32308379e-02,  4.80933785e-02,  4.79527563e-03,  5.99406809e-02, -6.29990101e-02,  8.32652748e-02, -4.02796119e-02, -6.12968877e-02},
 {-4.20648456e-02,  8.13430846e-02,  5.14006317e-02, -8.25991929e-02,  8.01936686e-02,  4.29232121e-02, -1.15381181e-03, -4.48018834e-02, -4.83559668e-02,  6.81262910e-02,  6.83314055e-02,  7.03358054e-02,  4.53955829e-02, -2.41060555e-02, -2.78740823e-02, -5.26546054e-02,  4.35920209e-02,  7.04632849e-02, -7.84581229e-02,  2.72021964e-02, -5.06974235e-02,  7.06548989e-02,  8.43790919e-02,  4.27368134e-02, -8.42318609e-02, -2.48765312e-02, -6.03995249e-02, -8.61547142e-03,  4.78220135e-02,  1.65940076e-03, -2.63842940e-03,  8.19116086e-03,  5.35172671e-02, -2.53995731e-02, -2.64076330e-02, -3.39469463e-02, -1.82701275e-02,  7.19081759e-02, -6.55872077e-02,  3.03864777e-02},
 { 5.21431416e-02,  7.27352947e-02, -5.27284965e-02, -2.31020898e-03, -8.16944614e-02, -1.97822452e-02, -7.28522912e-02,  5.17301857e-02,  6.05585426e-02,  4.59969938e-02,  2.54775360e-02,  6.73107952e-02, -5.46949580e-02,  7.62351751e-02,  6.03185445e-02, -6.26549125e-03,  7.03366101e-02,  3.80110145e-02, -3.55455354e-02,  7.81718343e-02, -2.56053805e-02,  4.60171402e-02,  2.75212824e-02,  3.28126848e-02,  6.11775517e-02,  5.58847934e-03, -5.51348180e-03, -8.41766819e-02,  6.97983652e-02,  2.50907168e-02, -2.31844969e-02, -1.75411329e-02, -5.23574315e-02,  8.27115327e-02,  9.57038999e-03, -4.94520813e-02, -3.61690670e-03,  5.75790703e-02, -4.69574891e-02,  3.26401442e-02},
 {-4.12049741e-02,  8.23696405e-02, -4.45199646e-02, -7.18472451e-02,  3.22823599e-02, -2.24516988e-02,  2.12379321e-02,  1.65881813e-02,  4.11781222e-02,  7.64673948e-02,  5.80373555e-02,  4.59115952e-03, -5.07138819e-02,  3.80342081e-02,  5.59885055e-03, -7.64422044e-02,  2.70954072e-02, -1.45067945e-02,  1.13210082e-03,  5.21838069e-02,  6.63694292e-02,  4.66850698e-02,  4.82383966e-02, -8.31236392e-02, -5.72343282e-02, -5.34770638e-02, -5.17869443e-02,  3.49340960e-02, -6.99309558e-02,  4.17171270e-02,  4.82701361e-02, -2.44783647e-02, -2.32591629e-02,  5.53825498e-02, -4.37161662e-02,  7.18781501e-02, -2.47725062e-02,  8.93166661e-03,  7.99012929e-02, -8.42719004e-02},
 { 3.96274775e-03,  3.62164453e-02,  1.03589892e-02, -7.57995322e-02, -2.57615000e-03,  1.98641941e-02, -6.47508800e-02,  2.03638822e-02, -1.63806304e-02,  1.16026849e-02, -3.46372426e-02, -8.42455924e-02, -1.41347200e-03, -2.38906257e-02, -5.75970560e-02, -2.73395441e-02, -5.27325459e-02,  5.32393157e-03, -7.29244947e-02,  4.04689163e-02,  7.51333684e-02,  2.43757665e-02, -5.52754775e-02, -2.34131142e-02,  3.96078676e-02,  3.65711525e-02, -1.34556815e-02, -6.97806850e-02, -8.80451500e-03,  2.78048292e-02, -5.59012219e-02,  8.94566625e-03, -3.17953900e-02, -6.43474832e-02,  5.27205169e-02,  7.53711015e-02,  1.57718956e-02, -3.41579206e-02,  3.04373950e-02, -3.25227752e-02},
 {-4.22047824e-03, -9.38610733e-03, -8.46162960e-02, -7.66044706e-02,  2.61091366e-02,  3.79263982e-02,  1.49718672e-03,  2.57928744e-02, -5.59998900e-02, -5.27449772e-02, -1.23512521e-02,  5.16984612e-02,  3.03311795e-02,  3.67724895e-03, -3.28483097e-02,  5.43820113e-02, -5.34016639e-03,  4.60416973e-02,  9.46366042e-03, -6.01746924e-02,  1.08854473e-03,  4.85206991e-02,  2.67867148e-02, -8.27854499e-02,  3.69974971e-03,  4.30511087e-02,  5.29573560e-02,  5.17860502e-02,  6.00210577e-03, -7.65119642e-02, -3.71396467e-02, -6.96876645e-03,  6.14415109e-03, -1.58328041e-02, -4.28988747e-02, -5.05817421e-02,  6.48214519e-02, -4.16353345e-04, -1.95782334e-02, -3.05598527e-02},
 { 4.36508209e-02, -4.45889533e-02,  2.30617821e-03, -7.64238760e-02, -6.28839210e-02, -7.01332986e-02, -5.19604646e-02,  5.66688180e-03, -6.38519824e-02,  6.72078133e-03,  2.94171274e-02, -8.27275962e-03,  7.42637962e-02, -7.96178579e-02, -2.79935263e-02,  8.51359218e-02,  5.32131344e-02, -5.59967384e-02, -3.44135128e-02,  2.99046114e-02, -4.74724136e-02, -6.56492785e-02, -1.96139738e-02,  3.18462700e-02,  5.06609976e-02,  3.29005793e-02,  7.92077482e-02,  1.70236230e-02, -1.64696574e-02, -6.12112172e-02,  3.85283008e-02,  3.81719172e-02,  6.03552461e-02, -3.47015336e-02, -1.04241371e-02, -1.53848529e-02, -5.88934422e-02,  7.12198466e-02, -3.31904702e-02,  4.43346500e-02},
 { 1.23061463e-02, -1.78749114e-02, -4.84838337e-02,  6.43517524e-02, -5.08353598e-02, -8.03391784e-02, -7.70739093e-02,  2.33613178e-02,  5.76516390e-02,  1.04508922e-02,  4.82337177e-03, -3.68682668e-02, -4.04355973e-02,  1.58667564e-04,  1.76969096e-02,  4.29939926e-02,  5.87903112e-02,  3.31091508e-02, -8.12491775e-02,  4.16258723e-02,  5.59456050e-02,  3.94182578e-02,  4.97671515e-02,  1.34086683e-02,  6.74999952e-02, -1.43315643e-02,  1.73395574e-02,  5.52733988e-02, -1.73767656e-02,  3.41158658e-02,  4.01073694e-02, -5.24196252e-02, -3.34633738e-02, -4.06420752e-02,  3.48619297e-02, -4.65532392e-02, -4.34885472e-02,  8.32344443e-02,  8.28210115e-02, -2.17017159e-02}
 };

static float layer_1_wt[40][32] = {
{ 1.67657629e-01,  7.95954913e-02, -2.97587186e-01, -1.47423102e-02, -1.79852799e-01, -2.28980049e-01, -1.82179272e-01, -8.33632722e-02, -2.05742940e-01, -1.49746671e-01,  2.56714910e-01,  2.75482774e-01,  2.27240562e-01, -2.30509698e-01, -6.06615208e-02, -1.89937398e-01,  8.42817035e-03,  2.08775669e-01,  6.46730289e-02, -1.83453653e-02,  2.13859752e-02, -2.63698310e-01, -2.80854940e-01, -2.39764646e-01, -7.19556287e-02,  8.86079669e-02,  1.83646008e-01, -2.30736792e-01, -3.94563824e-02,  3.19305450e-01,  1.44411132e-01,  2.11506635e-01},
{ 1.69909149e-02,  1.23369813e-01, -1.54722199e-01,  1.24086827e-01, -2.27849096e-01,  5.77276200e-02, -2.73132976e-02,  5.37834205e-02,  2.68686175e-01, -1.25180393e-01, -1.33036032e-01,  1.91815242e-01,  7.14417323e-02,  1.13021173e-01,  8.16768184e-02, -3.25041153e-02,  1.67725533e-01, -2.26383582e-02, -8.81674662e-02,  1.83164418e-01, -2.03819439e-01, -1.39285207e-01, -3.11477315e-02, -1.66557848e-01, -4.88491952e-02, -7.75094703e-02, -2.06420198e-01,  2.46680245e-01, -2.24989757e-01, -5.97149432e-02,  1.21265084e-01,  2.78809816e-01},
{ 2.94161439e-01,  2.95654088e-01, -6.77799731e-02, -7.90541470e-02, -2.65151054e-01, -9.02642533e-02, -2.17357352e-02, -2.86604296e-02,  6.20816685e-02, -2.70006843e-02,  1.18359946e-01,  1.79475084e-01, -3.07539076e-01,  6.51087016e-02, -1.37956470e-01,  2.83976465e-01, -1.79340690e-01,  7.26880804e-02,  4.20187563e-02, -1.41318485e-01, -4.11734283e-02, -2.09639128e-02,  1.28414482e-01,  2.20010534e-01,  3.32446391e-04,  2.67315596e-01,  5.82344942e-02,  8.56102034e-02, -7.10281208e-02, -1.46834239e-01,  2.82780349e-01, -8.46781135e-02},
{-1.15564816e-01, -2.01002821e-01, -1.99664399e-01, -2.67770320e-01,  1.23830765e-01,  2.10830420e-02,  1.57378390e-01, -2.07618624e-01, -3.10514897e-01,  2.43497297e-01,  2.18840957e-01, -4.31556515e-02,  6.28887415e-02, -1.23440055e-02,  2.52474546e-01,  3.05698477e-02, -1.51432201e-01,  3.07059616e-01,  2.88627118e-01, -2.48858422e-01, -2.31151640e-01, -2.17636377e-01,  1.04728818e-01, -2.78951377e-01, -1.93719491e-01, -1.88423067e-01,  2.65691549e-01,  1.11088129e-02, -5.01878373e-02,  1.22065440e-01, -3.13258059e-02,  1.12341404e-01},
{-2.54102170e-01,  5.11620864e-02, -2.33534649e-01, -1.86333790e-01, -1.93738639e-01, -1.49481997e-01, -1.18664317e-01, -2.51234382e-01, -5.85673936e-02,  1.20494030e-01,  1.32720292e-01,  7.68424645e-02, -1.62641734e-01, -3.11355770e-01, -2.90782094e-01,  1.19128041e-01,  2.44805545e-01,  1.46254912e-01, -1.28986046e-01,  1.71227336e-01,  5.62503226e-02,  2.01061457e-01,  2.90291756e-01, -2.95956075e-01, -1.31078973e-01,  6.90304339e-02,  1.24997415e-01, -3.11098307e-01,  2.95139819e-01,  2.19785850e-02, -1.58631265e-01,  1.80648118e-01},
{-2.58416116e-01,  2.97419369e-01, -1.95470273e-01,  8.17904025e-02,  1.26606971e-01,  2.85220981e-01, -1.88506186e-01, -1.69377670e-01,  2.67816395e-01,  1.81022659e-01, -3.31731886e-02,  1.85224682e-01,  1.16928257e-01,  1.30662665e-01, -1.73733965e-01, -1.79723620e-01, -3.76658477e-02, -2.11862341e-01, -3.49027514e-01, -1.08419523e-01,  2.21540734e-01, -6.71212822e-02, -1.12536542e-01,  1.92289531e-01,  5.73095195e-02,  3.62466313e-02, -4.14860919e-02,  2.93774083e-02,  2.21347347e-01, -1.88226417e-01,  1.34174705e-01, -2.07653210e-01},
{-1.60770059e-01, -1.98377565e-01,  3.72153744e-02, -2.35714003e-01,  1.65464461e-01, -3.28333855e-01, -2.17433468e-01, -2.13733211e-01, -3.36509869e-02, -4.08124179e-02, -4.47737351e-02, -4.82023470e-02, -4.50526960e-02, -2.91145146e-01, -3.21438938e-01, -2.25242630e-01, -2.55560223e-02, -2.37718016e-01, -4.72296178e-02,  1.57695264e-01,  2.47728139e-01,  2.18231454e-01,  2.33709976e-01, -4.55640303e-03,  1.47227034e-01, -2.27154970e-01,  1.29120931e-01,  2.07961723e-01, -2.79449701e-01,  4.70668152e-02, -3.26081365e-01,  1.79236874e-01},
{ 1.74785227e-01,  1.84697866e-01,  4.51013781e-02, -2.45847270e-01, -2.07209632e-01, -8.88927877e-02, -3.06325316e-01,  1.24768302e-01,  1.48956567e-01, -7.75328651e-02,  1.06960721e-01, -1.92611471e-01, -1.67130176e-02, -1.29683599e-01,  2.01832596e-02, -1.21493638e-01,  7.22346380e-02,  2.08605468e-01, -4.10022177e-02, -1.41583279e-01,  1.31435394e-01,  2.16643214e-02, -2.95713618e-02, -1.50862366e-01,  5.22669405e-02, -2.82449871e-01, -3.27189527e-02,  2.87320018e-01, -1.40355676e-01, -1.75003931e-01,  2.96071947e-01,  1.47876173e-01},
{-2.24894553e-01,  2.50901163e-01, -2.24769756e-01, -1.68339908e-01, -2.02197298e-01,  5.80045171e-02,  3.86779010e-02, -3.92391235e-01,  2.51410663e-01, -2.52848733e-02,  1.42031848e-01, -2.75680989e-01,  2.68767327e-01, -2.82608360e-01,  9.99756902e-02, -8.13200623e-02,  2.15636790e-01,  8.33532363e-02,  5.57063110e-02,  4.29268591e-02, -1.20532684e-01, -1.02319203e-01,  1.86977625e-01, -9.97728854e-02, -2.17049479e-01, -1.48937941e-01, -3.00088935e-02,  1.47929430e-01, -1.65499970e-02, -2.07463697e-01,  2.23597705e-01,  2.16474995e-01},
{ 2.85240650e-01,  5.63987009e-02, -2.89541751e-01,  1.71585068e-01, -3.10732245e-01, -2.80662090e-01,  3.78487885e-01, -1.33193746e-01, -4.33263667e-02,  2.83309847e-01, -1.56491354e-01, -2.54964024e-01,  2.34689534e-01,  1.52323976e-01, -1.58674687e-01,  2.34969594e-02,  7.72823617e-02,  4.15955856e-02,  8.77103209e-02, -2.53285225e-02,  2.80588895e-01, -9.98181626e-02,  1.43633023e-01,  2.89785266e-02, -1.12093156e-02,  1.02068044e-01, -5.76331280e-02, -5.76597452e-02,  1.40374392e-01,  3.56257468e-01, -1.98488712e-01, -2.93761373e-01},
{ 2.58962244e-01, -1.81179658e-01,  6.88867569e-02, -1.30411997e-01,  2.53410637e-01,  1.60753161e-01, -1.30450293e-01,  3.54220510e-01,  1.62405983e-01,  1.90963671e-01,  2.62121528e-01, -9.23301578e-02, -1.04076147e-01, -4.45266925e-02,  3.16711664e-01,  9.01807100e-02,  3.36906239e-02,  2.11709663e-01, -1.52629018e-01,  2.70921409e-01,  2.79455155e-01, -1.52488828e-01, -2.33192146e-02, -2.75375962e-01,  2.09350958e-01,  4.01941612e-02, -2.59288579e-01, -6.79775178e-02,  5.97049766e-05,  1.47653326e-01,  2.37472966e-01, -3.53715429e-03},
{-1.73873026e-02, -8.83528590e-02,  2.90811360e-01, -6.51100576e-02,  6.38398454e-02, -1.39365941e-01, -1.73368901e-01,  4.43914346e-02,  2.04477102e-01,  3.10438480e-02, -2.15320140e-01, -4.49497551e-02,  1.24046363e-01, -2.07166061e-01, -2.37570092e-01, -5.14636338e-02,  1.31464869e-01, -4.50931750e-02, -2.94579137e-02, -2.48524845e-01, -2.99049348e-01,  2.42379382e-01,  1.93112325e-02,  8.86595547e-02,  2.59991325e-02, -2.75607198e-01,  9.24810171e-02,  1.53574288e-01,  1.74295619e-01, -3.22539620e-02,  2.94165432e-01, -1.68627322e-01},
{-1.14903763e-01, -2.16142908e-01, -4.96519655e-02, -1.61058292e-01,  6.86813332e-03, -7.61571974e-02,  3.51244994e-02, -1.34963438e-01,  2.61097252e-01,  2.62043327e-01,  1.29518611e-02,  1.03296250e-01,  1.78540379e-01, -1.77150011e-01, -1.42304555e-01, -2.98286438e-01,  1.07596792e-01, -1.69605851e-01,  2.63149738e-01,  1.89960971e-01, -4.78352271e-02, -3.10970008e-01, -1.55669022e-02,  2.77000219e-01, -5.23451939e-02,  2.70802677e-02, -2.90167451e-01, -1.60766557e-01, -1.09966822e-01,  1.10244662e-01,  5.36318235e-02,  1.43639490e-01},
{-2.41094977e-02, -3.42751341e-03, -3.68098646e-01, -2.94936776e-01,  8.58637169e-02, -1.18531920e-01, -3.33703697e-01, -1.12858504e-01,  2.15600520e-01,  4.84004198e-03,  6.30374923e-02, -9.12348330e-02, -3.23327988e-01, -1.40547529e-01, -3.49387705e-01,  4.70839478e-02, -2.16977403e-01,  8.31607264e-03, -1.48398504e-01, -5.13625853e-02, -1.53398246e-01,  2.98704863e-01, -1.28610119e-01,  5.74040040e-03,  2.31038332e-01,  1.68621242e-01,  1.25036806e-01, -2.82406121e-01,  1.86099544e-01,  4.34719995e-02,  1.84011832e-02,  2.38624617e-01},
{-1.95443667e-02, -1.31780490e-01, -2.67419338e-01,  7.36508891e-02,  1.47152722e-01,  9.62101892e-02, -1.59798101e-01,  2.64221311e-01,  1.27540305e-01,  2.02199474e-01,  2.15839855e-02, -1.58604562e-01, -6.62989095e-02,  8.49259198e-02, -1.28468454e-01, -9.05345678e-02, -3.08932662e-01,  2.05832720e-01,  3.44416238e-02, -1.41806945e-01, -1.74182713e-01, -2.58427978e-01,  2.16628164e-01,  7.32682869e-02,  3.12621266e-01, -1.22865878e-01, -1.70866400e-01, -2.06908360e-01, -5.11608878e-03, -1.03518464e-01,  2.80595601e-01, -4.96111438e-02},
{-7.35413358e-02,  1.81089774e-01,  2.09263414e-01,  1.66450217e-01,  6.60215095e-02, -1.74658298e-01, -3.03506851e-01, -2.48950526e-01, -1.92017987e-01, -4.44134548e-02, -3.14299822e-01,  2.86966592e-01,  3.10512427e-02, -2.37822548e-01, -1.88835979e-01,  3.32275420e-01, -1.22673899e-01,  1.16959633e-02, -1.17130004e-01, -2.45401248e-01,  1.09647140e-01, -1.90972146e-02,  3.24964076e-01,  4.60274331e-02, -2.59735454e-02, -2.12488279e-01, -4.71508093e-02,  1.24538265e-01, -1.36279836e-01, -1.44123256e-01, -2.04158112e-01, -1.97294317e-02},
{ 1.72388256e-02,  3.00018787e-01, -2.80120790e-01,  2.13763833e-01,  1.99220642e-01,  1.98096305e-01,  2.31309325e-01,  3.85254696e-02,  2.12916881e-01,  3.20950866e-01,  2.30955899e-01, -1.89480364e-01, -3.19131523e-01, -1.57910377e-01, -7.60049969e-02,  1.53587371e-01, -8.26604813e-02,  3.23370904e-01, -2.54516721e-01,  2.23430201e-01,  2.46153265e-01, -2.58618683e-01, -1.21935010e-01,  8.44798684e-02,  1.45965248e-01, -1.45283461e-01, -1.25244468e-01,  1.99673042e-01, -2.24998146e-01,  3.14033955e-01, -1.75436929e-01,  3.02737374e-02},
{ 2.34842986e-01, -2.03690473e-02, -1.25082448e-01,  2.72454143e-01, -1.55424267e-01,  3.06942403e-01,  1.98547795e-01,  3.63436304e-02, -2.89797932e-01, -1.51972041e-01,  1.38420120e-01, -2.93566674e-01, -2.65030265e-01,  1.50649324e-01, -1.54504061e-01,  2.41437659e-01, -7.56440163e-02,  1.91323623e-01, -1.17062360e-01,  2.27327764e-01, -3.29767108e-01, -4.97457609e-02, -8.58190656e-02,  2.14216545e-01,  2.45543048e-01,  1.62416324e-01, -2.86589444e-01,  1.64737403e-01,  2.92603582e-01, -1.95361763e-01,  1.73142105e-01,  1.03321865e-01},
{-2.20302805e-01, -1.17613129e-01, -3.22230041e-01,  3.89471278e-02,  3.34582180e-01,  4.12063003e-01, -1.82761833e-01, -4.71393717e-03,  1.26779765e-01, -7.50149414e-02, -4.09507006e-02, -2.67206222e-01, -6.56622201e-02,  2.48634771e-01,  2.38150835e-01, -9.11274087e-03, -1.78178310e-01,  7.02558234e-02, -2.47158900e-01, -7.24094063e-02,  3.79713103e-02,  1.91567659e-01,  3.44143480e-01,  1.29246697e-01, -2.35381439e-01,  4.30804670e-01, -3.37010980e-01,  1.68618765e-02, -7.10041355e-03, -1.60870645e-02, -4.57954183e-02,  1.59511253e-01},
{-1.71973363e-01, -7.16531277e-02, -1.33055702e-01,  1.20821111e-01, -2.00910211e-01, -9.11077261e-02,  1.63204283e-01, -5.39363399e-02,  7.03796223e-02,  2.92183198e-02,  7.86517113e-02,  1.45012960e-01,  3.05680662e-01, -1.75145939e-01, -5.91034964e-02, -9.72229838e-02, -1.59926206e-01, -1.60969049e-01, -7.19485506e-02, -1.69553727e-01, -2.67675743e-02, -1.66665576e-02, -2.65524805e-01, -1.54131725e-01, -2.47264039e-02, -1.95136145e-01, -2.69529298e-02,  1.05193712e-01,  1.73454911e-01, -1.86931863e-01, -8.71198103e-02, -2.81923324e-01},
{ 3.98345850e-02,  1.47160962e-01, -2.55381435e-01, -2.96951681e-01,  3.84777039e-02, -2.90060967e-01,  2.61537619e-02,  2.13511631e-01,  9.94761214e-02,  1.75809115e-01, -1.86096072e-01,  3.93439177e-03, -9.23386291e-02, -1.37835354e-01, -2.26175249e-01,  1.34346604e-01,  2.93092430e-01,  2.95023352e-01,  2.15542093e-02,  2.46362557e-04, -3.24505031e-01, -2.91588873e-01, -1.68244958e-01, -8.03456008e-02, -1.63659826e-01, -2.40974113e-01, -1.50998123e-02,  5.91050126e-02, -1.99286386e-01, -1.34389505e-01, -2.07215529e-02,  4.49450910e-02},
{ 2.34687179e-01,  3.13751787e-01,  2.15344638e-01,  1.35439008e-01, -3.92120451e-01, -2.06746966e-01, -4.14347127e-02, -1.40343457e-01, -3.88062447e-02, -5.32940179e-02,  1.16624281e-01,  4.62231301e-02, -2.42745057e-01,  2.57608313e-02, -4.88677882e-02, -1.93540469e-01,  2.46443421e-01, -8.85549337e-02, -1.77327827e-01, -1.32490341e-02, -1.17233604e-01,  2.60555983e-01,  9.21889320e-02, -2.52499849e-01,  1.47077600e-02, -2.24119067e-01,  1.31499171e-01,  1.36578053e-01,  2.06255734e-01, -1.04020797e-01,  3.22523713e-01,  1.04962446e-01},
{ 3.52886952e-02, -2.54200667e-01, -2.26578727e-01,  9.51961353e-02,  1.02093294e-01,  1.67854816e-01, -5.23746945e-02,  2.47605264e-01, -2.38043055e-01, -7.38445371e-02, -1.65473104e-01, -1.24455383e-02,  3.21472436e-01,  1.39895409e-01, -1.24412239e-01, -1.54966861e-01,  9.81897637e-02,  2.90765166e-01, -3.33311744e-02,  1.83859617e-02,  1.42515481e-01, -2.93561053e-02, -1.18825614e-01, -1.63687944e-01, -3.47745419e-02, -6.84227720e-02,  1.58805043e-01,  2.25886524e-01, -2.31075197e-01, -1.15924224e-01,  2.67083608e-02, -1.27410457e-01},
{-3.37020606e-01,  1.28691003e-01, -3.92399281e-02,  8.45694020e-02, -8.95351917e-02,  1.65021401e-02, -4.14108366e-01,  7.85202999e-03, -1.90776780e-01, -1.46799674e-02, -9.43533182e-02,  2.65410572e-01, -2.54475951e-01,  2.80646216e-02,  1.59192294e-01,  5.18949211e-01,  9.13548768e-02,  4.16085422e-02,  2.96224952e-01, -2.22600177e-01, -3.06182414e-01, -1.30757958e-01, -2.84908023e-02, -9.10173133e-02,  2.24813312e-01, -7.86173642e-02,  1.18045181e-01, -2.70976070e-02, -7.58251026e-02, -2.66948193e-01,  2.11373493e-01,  8.60503018e-02},
{-8.07654634e-02, -2.83236444e-01,  1.67352900e-01,  1.29311951e-02,  7.84377754e-02, -3.73737007e-01, -2.45108735e-02,  1.98074326e-01, -1.24270864e-01,  1.21029049e-01,  2.08900973e-01,  5.32116666e-02,  2.36070871e-01,  1.01591624e-01,  5.77103905e-02, -2.57273376e-01,  3.03780317e-01,  2.17637450e-01, -2.07091510e-01,  4.09731232e-02,  4.28315960e-02, -2.79362738e-01,  1.93175778e-01, -4.85016406e-02,  2.66596794e-01, -2.54551172e-01,  1.77774549e-01, -2.28780374e-01,  2.08086491e-01,  1.09811248e-02, -2.13189870e-01,  1.04483135e-01},
{ 2.81410396e-01, -2.84964383e-01, -1.97402492e-01,  2.76977211e-01,  1.03887677e-01,  7.37801120e-02,  1.08619258e-01,  1.35386601e-01, -2.29329001e-02, -1.94432437e-01,  3.38807911e-01, -1.20376289e-01, -1.03380762e-01, -1.73880413e-01, -2.40901977e-01,  5.91120645e-02, -1.77048817e-01,  2.02288955e-01,  2.15072110e-01, -8.48487020e-02,  1.73990950e-01, -6.01820908e-02, -3.63778919e-02, -2.38030404e-01,  6.32292479e-02,  2.74694294e-01, -3.69828790e-02,  3.26803416e-01,  2.66601592e-01, -1.20156027e-01, -1.25119448e-01,  9.19514820e-02},
{ 1.47177065e-02, -1.04264408e-01,  2.75434822e-01, -2.48732179e-01,  2.58809149e-01, -1.30077407e-01,  2.60463327e-01,  1.86725765e-01, -8.78887177e-02,  6.28459360e-03, -1.33568570e-01,  1.99574411e-01,  1.45012125e-01,  3.88484783e-02, -2.76366383e-01, -9.81302410e-02,  1.21779561e-01,  1.34290680e-01, -1.48133591e-01,  1.67505547e-01,  9.12918970e-02, -2.21203893e-01, -6.90228306e-03,  2.75272101e-01, -2.11537331e-01, -2.17666924e-01, -1.96557015e-01, -2.98720598e-01, -2.82830983e-01,  1.65827274e-02,  1.63159326e-01, -2.40804359e-01},
{ 1.10367432e-01, -2.26798467e-02,  1.87637970e-01, -1.08858412e-02,  6.47151470e-02,  2.39167094e-01, -1.05788030e-01,  4.53425050e-02, -1.72876507e-01, -1.44232512e-01, -8.17611367e-02, -1.26795694e-01, -9.31491703e-02,  1.03896655e-01,  9.92275700e-02, -3.56756330e-01,  1.62718788e-01,  1.36688918e-01,  3.28346997e-01, -7.80780911e-02,  1.44024208e-01,  3.00114721e-01, -1.28416210e-01, -7.43844286e-02,  2.96149760e-01, -2.19369140e-02, -2.31485054e-01, -1.50791913e-01,  4.52249162e-02,  2.96190858e-01, -2.99067408e-01, -1.49755672e-01},
{-6.80516139e-02, -1.54663801e-01, -1.11413948e-01, -7.93681443e-02,  3.05477977e-01, -2.78117694e-02, -2.28830543e-03,  2.37847015e-01, -1.29530072e-01, -2.66531110e-01,  8.78625177e-03,  2.24975988e-01, -2.57751402e-02,  8.09572935e-02,  2.19502971e-01,  2.20047265e-01, -1.86575279e-01, -1.27904722e-02,  2.48254910e-01,  2.38324344e-01,  2.81074703e-01,  1.18167773e-01,  2.54112929e-01, -1.40119985e-01, -3.81159842e-01,  2.28917040e-02, -1.31296113e-01, -1.47625864e-01,  1.05470993e-01, -5.26635237e-02,  4.52659540e-02,  3.53277653e-01},
{ 3.30688506e-02, -5.06223850e-02,  3.56299281e-02, -1.93036571e-02,  1.62663334e-03, -9.41924378e-02,  1.99860353e-02,  1.71232685e-01, -1.10202260e-01,  1.40683323e-01, -2.42445186e-01, -8.39616582e-02,  2.10203290e-01, -2.35307947e-01,  1.30706564e-01, -4.07521948e-02, -1.58777814e-02, -2.74102436e-03, -2.75812745e-01,  1.16572388e-01,  2.78820097e-01,  1.07533827e-01,  1.65125355e-02,  5.99002838e-02, -1.12405360e-01,  1.51617065e-01, -2.58276309e-03,  1.22244976e-01, -1.70048743e-01,  1.17661558e-01,  3.91614363e-02, -2.34401152e-01},
{-1.80984512e-01,  2.73333520e-01, -4.67173383e-02, -2.14852720e-01,  1.57056795e-03,  2.81019360e-01, -3.27564806e-01,  1.93117648e-01, -8.18146691e-02,  4.89862300e-02,  2.92480439e-01,  1.67712182e-01,  6.04679808e-02,  2.63984948e-02,  6.92708371e-03,  4.24397439e-02,  1.11314207e-01, -2.33035505e-01, -2.39149511e-01, -9.29898024e-02,  1.94122180e-01,  5.86379319e-02,  6.58108816e-02, -3.25140119e-01, -2.66064078e-01,  7.48216733e-02,  1.84405267e-01,  1.57205746e-01,  3.47761124e-01, -1.64615527e-01,  3.13036203e-01,  3.96674871e-01},
{-1.89952090e-01,  3.48358244e-01, -5.60491569e-02,  1.93257511e-01, -2.29161993e-01,  2.50708699e-01,  1.67802155e-01,  2.58552730e-02,  8.80099740e-03,  3.35888922e-01, -3.28388155e-01,  1.74008459e-01, -2.05931794e-02, -3.26803662e-02, -2.20568717e-01,  1.87868789e-01,  1.98871925e-01, -1.95340350e-01,  3.03230822e-01,  3.16221230e-02, -1.68128729e-01, -6.48442656e-02,  2.12790921e-01,  1.97255284e-01,  3.25143516e-01, -8.06104392e-02, -4.62319329e-02,  4.05571274e-02, -6.57818979e-03,  9.87561420e-03, -2.94695407e-01, -1.72541425e-01},
{-4.16849777e-02,  5.11572883e-02,  2.53464729e-01,  4.29116897e-02, -2.52394289e-01,  1.25947967e-01, -1.54043987e-01, -2.94487894e-01,  2.56898105e-01, -2.27565244e-01,  7.66556757e-03,  1.30924985e-01,  3.05502206e-01,  1.74518332e-01,  2.71618783e-01, -1.71653241e-01,  1.44301072e-01,  7.60078207e-02,  1.63433552e-01,  2.64539629e-01, -1.01725303e-01,  8.12404677e-02, -7.08815306e-02, -1.77040637e-01, -2.90185869e-01, -2.21951399e-02, -1.62091121e-01,  3.54632698e-02,  1.11900590e-01, -8.32777992e-02,  1.41803687e-02,  1.30647942e-01},
{ 2.71101475e-01,  3.44585210e-01, -9.42028388e-02,  6.27088472e-02,  2.46467933e-01,  1.11305162e-01,  1.99369356e-01, -2.98719466e-01,  3.07432771e-01,  1.13250375e-01,  3.41175407e-01, -2.22915500e-01, -2.42377877e-01,  6.22276813e-02,  3.47347856e-01,  3.78931016e-01,  1.09919712e-01, -6.08940050e-02,  1.32260397e-01, -2.25721508e-01,  1.27180263e-01, -2.58871704e-01, -1.02353759e-01,  1.95724875e-01, -2.05251426e-01, -2.61598974e-01, -4.03383933e-02, -1.68312833e-01, -1.65682197e-01, -7.83458799e-02, -2.12050021e-01, -3.38440463e-02},
{ 2.94170350e-01, -2.70357691e-02, -4.12287153e-02,  2.84170389e-01,  1.52006581e-01, -2.64974117e-01,  2.46748496e-02, -5.45724779e-02, -3.45149040e-01,  2.33580664e-01,  1.54570609e-01, -2.62903482e-01,  1.72944471e-01,  1.45967633e-01, -4.91442494e-02, -2.74113208e-01, -5.78243891e-03,  1.33033201e-01, -6.42751083e-02, -8.36124346e-02,  2.74212360e-01, -5.79628162e-02, -6.47404371e-03,  1.22853935e-01,  1.08435094e-01, -1.82257473e-01, -1.11323752e-01, -1.44023091e-01,  2.42599603e-02,  9.38461497e-02, -2.34159574e-01,  1.07943922e-01},
{ 5.99819012e-02, -3.01392943e-01,  1.89717293e-01, -3.79772000e-02, -9.69970599e-02, -2.49016330e-01, -8.41960385e-02,  1.36891812e-01,  3.69108468e-02, -1.26876712e-01,  2.07878157e-01, -8.88289884e-02, -4.11254391e-02, -1.31802531e-02,  6.14062138e-02, -2.17204869e-01,  2.14825496e-02, -8.92108604e-02,  3.31892669e-01, -8.19476917e-02, -1.15948096e-01,  5.84586598e-02,  2.42460221e-01, -8.60374570e-02,  2.92788327e-01, -2.60424584e-01,  1.03690505e-01, -2.67063081e-01,  3.63945961e-02,  5.10110371e-02,  2.06263766e-01,  1.11888237e-02},
{ 2.20299840e-01,  7.39327520e-02, -1.66499205e-02,  1.37189284e-01,  2.03269586e-01,  9.99481604e-02, -2.13664457e-01, -2.60856599e-01,  2.37035602e-01,  1.86316762e-02, -1.50530472e-01,  2.73996204e-01, -7.87189454e-02,  3.87051314e-01, -2.76750594e-01, -6.37635961e-02,  1.81742981e-01, -1.52802333e-01,  1.11065149e-01, -1.23462856e-01,  4.04714979e-02, -2.94283092e-01, -3.99053514e-01,  1.97870046e-01, -3.93592715e-01, -3.84677388e-02, -1.95337430e-01,  3.41695100e-02, -1.32954836e-01,  1.49236336e-01,  3.63997221e-02,  8.37385803e-02},
{ 4.79611382e-02,  1.04799613e-01, -4.05057557e-02,  3.02960992e-01, -2.86498159e-01, -5.75669296e-02,  3.15002203e-01, -2.30653331e-01, -1.09036706e-01, -2.82606691e-01,  1.66258544e-01, -2.54182160e-01, -2.02242270e-01,  1.40540510e-01, -8.79277065e-02, -2.72042602e-01, -1.24919869e-01,  1.81177974e-01, -5.44023514e-02,  3.14521156e-02,  7.82772899e-02, -1.56581759e-01, -3.84767652e-02,  1.46688491e-01, -2.45668739e-01,  3.88762020e-02,  1.35027274e-01,  3.76541587e-03, -1.81161731e-01, -2.14465365e-01, -2.62015343e-01, -3.52244973e-02},
{ 1.60872594e-01, -1.87941968e-01,  1.68255731e-01,  4.33207788e-02,  3.17060590e-01,  3.36822540e-01, -6.95356575e-04,  1.73464164e-01, -2.11827263e-01,  4.57843132e-02,  4.12494183e-01, -1.19206414e-01, -1.83732107e-01,  2.04000652e-01,  3.31655502e-01,  1.69456169e-01, -3.49870592e-01, -2.04045266e-01,  6.24146685e-02,  1.45596951e-01,  6.08440153e-02, -3.15061301e-01, -3.54391694e-01,  1.60916243e-02,  1.57930180e-02, -1.30631402e-01,  1.35817438e-01, -7.67459795e-02,  3.13802779e-01, -1.77220777e-01,  9.33395177e-02, -3.86148356e-02},
{ 2.47485280e-01,  7.75017738e-02, -1.47688910e-01,  2.35179812e-01, -1.99001685e-01,  1.09667644e-01, -1.67245388e-01, -1.28581300e-01,  2.85028398e-01, -2.96830922e-01, -1.79370925e-01,  2.13333234e-01,  1.63993195e-01,  9.86439437e-02,  3.33504409e-01, -8.93449597e-03, -7.99249411e-02, -3.79727185e-01, -3.15124929e-01,  3.19148272e-01, -1.01201825e-01,  1.51327318e-02,  1.63532138e-01,  1.10074133e-01, -2.07253873e-01, -1.14806712e-01, -1.78033113e-02, -2.06874624e-01, -1.64915472e-01, -2.39351597e-02,  2.58749455e-01, -1.25353694e-01}
};

static float layer_2_wt[32][10] = {
{-0.5235055685043335, 0.23425082862377167, -0.18237465620040894, 0.473931223154068, 0.34009769558906555, 0.09899719059467316, -0.3382672965526581, -0.006999547593295574, -0.29278281331062317, 0.12015377730131149},
{0.3488341271877289, -0.24558399617671967, 0.32110628485679626, 0.45233845710754395, -0.28436973690986633, 0.12306252121925354, 0.6420040130615234, -0.41448214650154114, -0.22172300517559052, -0.542384147644043},
{-0.3979341983795166, 0.6512658596038818, -0.2593924105167389, -0.22470884025096893, -0.4291475713253021, -0.37041980028152466, 0.14263740181922913, 0.28021126985549927, -0.27061375975608826, 0.0230402834713459},
{-0.32765838503837585, 0.23765558004379272, -0.24531404674053192, 0.479098379611969, 0.25592583417892456, -0.39379996061325073, 0.36171290278434753, -0.14669430255889893, -0.47805655002593994, 0.38883310556411743},
{0.3322528600692749, 0.12482564151287079, -0.6449756622314453, -0.5026308298110962, -0.2426663637161255, -0.010329236276447773, 0.017134638503193855, -0.2135208547115326, 0.11981884390115738, 0.394878089427948},
{0.32657697796821594, -0.014012886211276054, -0.4352092146873474, -0.4103918969631195, 0.5475980043411255, 0.47742199897766113, 0.5448434948921204, -0.4745739698410034, -0.3990139067173004, -0.45181113481521606},
{0.026351623237133026, -0.1755804419517517, -0.2646237909793854, 0.2600848972797394, 0.3511004149913788, -0.12429878115653992, -0.4097186028957367, 0.3547374904155731, -0.06769256293773651, 0.5442143678665161},
{-0.057079024612903595, 0.04461899399757385, -0.6797240972518921, 0.1448860913515091, 0.2872394025325775, 0.54143226146698, -0.1696537435054779, 0.07672617584466934, 0.508693277835846, 0.2125365436077118},
{0.2532132863998413, 0.30645108222961426, -0.1875285655260086, -0.15518054366111755, -0.13677442073822021, -0.29866665601730347, 0.592670202255249, -0.10728266835212708, -0.18674831092357635, 0.16944502294063568},
{0.38844504952430725, -0.5276197791099548, -0.07107339799404144, -0.053207170218229294, -0.4651836156845093, -0.3042577803134918, -0.2064698189496994, 0.010843067429959774, -0.006737914867699146, 0.3550138771533966},
{-0.43794265389442444, -0.012019192799925804, -0.30820193886756897, -0.08818987011909485, -0.05865202471613884, 0.5264544486999512, 0.327274352312088, -0.458517849445343, -0.06329093128442764, 0.5341442227363586},
{-0.206990584731102, -0.23576587438583374, -0.03390045836567879, -0.2471531182527542, -0.4589826762676239, -0.4342765808105469, 0.5190560817718506, -0.24361246824264526, 0.29428496956825256, -0.4624546468257904},
{-0.21550917625427246, 0.38340988755226135, 0.2716006338596344, -0.31553617119789124, 0.17957638204097748, -0.3775370717048645, -0.32124531269073486, -0.16795237362384796, -0.11623800545930862, 0.420086145401001},
{-0.08113250136375427, 0.5056032538414001, -0.45862674713134766, 0.25717484951019287, 0.38512516021728516, 0.12423860281705856, -0.0741083025932312, -0.19112356007099152, -0.011400560848414898, -0.23036415874958038},
{-0.43281877040863037, 0.23774930834770203, -0.16591177880764008, -0.018507452681660652, -0.06911113113164902, 0.03753313422203064, 0.485012024641037, -0.32535630464553833, -0.36472806334495544, 0.29441559314727783},
{0.3970106244087219, -0.570443868637085, 0.19564937055110931, 0.24036630988121033, -0.5043633580207825, 0.5418539643287659, 0.26690101623535156, -0.3925107419490814, 0.20854945480823517, -0.3722172975540161},
{-0.31189656257629395, -0.08015923947095871, 0.2313903272151947, -0.10161112993955612, -0.30170607566833496, -0.0781366154551506, -0.11181442439556122, 0.2917517125606537, -0.15677015483379364, -0.08336707204580307},
{0.10707037150859833, -0.24957537651062012, -0.03981855884194374, 0.12912040948867798, 0.3404829204082489, 0.5047088861465454, -0.5207383036613464, -0.03167785704135895, 0.14253628253936768, -0.1408478319644928},
{-0.13851995766162872, -0.2583385705947876, 0.15115588903427124, -0.12225547432899475, -0.1751423478126526, -0.06392385810613632, -0.27824848890304565, 0.5229145884513855, 0.17023174464702606, -0.2892515957355499},
{0.07554801553487778, 0.331574022769928, 0.004888053517788649, -0.4338673949241638, 0.5244877934455872, 0.0368247888982296, 0.2817235589027405, 0.18378378450870514, 0.3165379762649536, 0.06610038876533508},
{-0.25762489438056946, -0.05576755478978157, -0.1342255175113678, -0.3432503938674927, 0.4905005991458893, -0.43836522102355957, 0.295297771692276, 0.2575553059577942, 0.20156876742839813, 0.6011406779289246},
{0.0525226853787899, 0.01787971705198288, 0.5012441277503967, -0.336111843585968, 0.18941494822502136, 0.23013287782669067, 0.18305495381355286, 0.46095386147499084, -0.2920391261577606, -0.47240641713142395},
{0.3138127326965332, -0.23335270583629608, 0.33050546050071716, -0.19225278496742249, -0.06421150267124176, 0.26560261845588684, 0.2832036316394806, 0.5411176085472107, -0.40513622760772705, 0.3171432614326477},
{0.5366517901420593, 0.20600339770317078, -0.4457590579986572, 0.5528823137283325, -0.0173039548099041, 0.020247234031558037, -0.04783456772565842, -0.2454289346933365, -0.46301349997520447, -0.14822500944137573},
{-0.24838858842849731, -0.37473055720329285, -0.3794240355491638, 0.13524848222732544, -0.44637301564216614, 0.21725864708423615, -0.4934808313846588, 0.2804151475429535, -0.517774224281311, 0.29064029455184937},
{0.15588361024856567, -0.48442474007606506, -0.25141116976737976, -0.21802939474582672, 0.647391676902771, 0.19847726821899414, -0.10836130380630493, -0.31045475602149963, -0.30185383558273315, -0.31806108355522156},
{-0.26986420154571533, -0.042423442006111145, -0.024827364832162857, 0.4250766634941101, -0.13985218107700348, -0.26179441809654236, 0.3357275426387787, 0.28462785482406616, 0.2646538019180298, 0.292758584022522},
{0.06666534394025803, 0.23680132627487183, 0.4143281579017639, 0.13344065845012665, 0.38544946908950806, 0.06228199973702431, -0.19399896264076233, -0.3049159348011017, -0.3213464319705963, 0.14958395063877106},
{-0.29358845949172974, -0.18775419890880585, 0.09892284870147705, 0.01031030248850584, 0.15175122022628784, 0.2781606912612915, 0.39870980381965637, 0.08148059248924255, -0.05112933740019798, 0.1671753227710724},
{-0.2141253650188446, -0.4090450704097748, -0.14218544960021973, 0.29816293716430664, 0.3202912211418152, -0.03288285806775093, 0.0657261312007904, 0.45608335733413696, 0.06291326135396957, 0.09580337256193161},
{0.009939577430486679, 0.5619548559188843, -0.0386757031083107, 0.19485078752040863, -0.008445029146969318, 0.5311024785041809, 0.20196135342121124, -0.4674704968929291, 0.2502616345882416, -0.3558961749076843},
{-0.37031885981559753, -0.308112233877182, 0.1972069889307022, -0.5174281597137451, 0.029638901352882385, 0.32824790477752686, 0.17148472368717194, -0.21274572610855103, 0.30813828110694885, -0.42426496744155884}
};

static float layer_0_bs[40] = {-0.08248334378004074, 0.018028276041150093, -0.028772449120879173, -0.051553353667259216, -0.05612985044717789, 0.0012375150108709931, -0.019680151715874672, 0.02492334693670273, 0.006242794916033745, -0.035288408398628235, 0.015018017962574959, 0.0255572609603405, -0.023801913484930992, -0.024584518745541573, 0.006961929611861706, -0.04706195369362831, -0.03457610681653023, 0.0685427188873291, 0.08056704699993134, -0.018130933865904808, -0.10089581459760666, 0.05083000659942627, 0.02265157364308834, -0.048832301050424576, -0.03797893971204758, -0.004738801624625921, -0.01993296667933464, 0.0606282539665699, -0.006879870314151049, -0.0027203368954360485, -0.008895129896700382, -0.050082314759492874, 0.06492527574300766, -0.020942233502864838, 0.017552966251969337, 0.0329725444316864, -0.011295594274997711, 0.028259402140975, 0.019819894805550575, 0.056319087743759155};
static float layer_1_bs[32] = {0.06913672, -0.02853216, -0.01525412, 0.06916582, 0.00432766, 0.0554532 , -0.01918432, 0.01718275, -0.05092752, -0.10494766, 0.00499086, -0.07786909, 0.06146281, 0.03864593, 0.00680305, 0.05615728, -0.01261763, 0.03116759, -0.04437407, 0.05072897, 0.04431352, 0.06868417, 0.02331015, 0.01818376, -0.01062303, 0.02378854, -0.01577983, 0.01021712, 0.02769171, -0.02262365, 0.04006586, 0.02377717};
static float layer_2_bs[10] = {-0.10193557,  0.0734984 ,  0.0248183 , -0.00853516,  0.00579147, 0.05048428, -0.01425008, -0.0067522 , -0.0048016 , -0.01831787};

#endif

